A 2727
Al 3912
AI 4864
As 5603
At 9750
AC 13198
AT 14119
AD 14256
AP 15513
AS 15715
A. 15884
An 16101
AO 20338
AU 20774
A@@ 1923
Abe 3441
Act 4208
AKP 6005
Ali 6853
AMR 7089
Age 7570
AfD 7720
Abu 8384
All 10287
Air 11256
AIG 11619
ACA 11798
AAA 12728
Are 14258
Aid 15315
ARC 17040
ANC 18453
Art 19139
AGI 20773
Ahn 26070
Asia 1117
Arab 1557
AIDS 4540
An@@ 4981
Ar@@ 5173
Al@@ 5186
Army 6235
Alan 8049
AR@@ 8182
Ab@@ 8383
Ac@@ 8824
AS@@ 9067
Ad@@ 9286
AIIB 9583
Area 10116
Au@@ 10422
Adam 10549
At@@ 11012
AN@@ 11181
AL@@ 11891
Am@@ 12184
Ay@@ 12267
AI@@ 13062
AMLO 13063
AVIV 14772
Ap@@ 15514
AM@@ 15714
AT@@ 15716
A-@@ 16326
AD@@ 16327
Af@@ 16328
Aviv 16333
APEC 16566
Aung 16571
Ak@@ 17041
Anna 17042
Az@@ 17043
As@@ 17538
Ag@@ 17837
Andy 18456
Ax@@ 19512
Ah@@ 19907
AfDB 20340
Anne 21248
Arms 21250
AF@@ 21724
AG@@ 21725
ALTO 23353
Ai@@ 23950
Av@@ 23961
Aw@@ 23962
Aziz 23964
AA@@ 24606
AB@@ 26064
ADIZ 26065
Ages 26069
AV@@ 27717
Aceh 27719
AK@@ 30830
Adua 31571
Asian 1928
Assad 3747
April 4168
ASEAN 4217
Abbas 6047
Arabs 6440
Apple 7328
After 9172
Annan 9427
Anwar 11520
Ara@@ 12845
Al-@@ 13692
Armed 13693
Ali@@ 14120
Ash@@ 14259
Ass@@ 14774
Abdel 15312
Addis 15313
Again 15314
Ahmed 15885
About 16099
Ababa 16567
Abdul 16568
Ariel 17839
Aires 18455
Ang@@ 18457
Adolf 18807
Att@@ 19511
Asset 19910
Allen 20343
Alvin 20345
Angus 20348
AIPAC 21245
Air@@ 21726
Apo@@ 21730
App@@ 21731
Ati@@ 21733
Ala@@ 22259
Ale@@ 22260
Allah 22802
Aqu@@ 22805
Ahmad 23356
Among 23358
Accra 23948
Amman 23954
And@@ 23956
Ath@@ 23959
Aug@@ 23960
Abu@@ 24608
Akbar 24613
Aca@@ 25315
Areas 25323
AIRES 26066
Aff@@ 26068
ATM@@ 28581
Ari@@ 29486
Ann@@ 30831
Ach@@ 31570
Ama@@ 32376
Are@@ 33924
Adu@@ 34575
Abk@@ 35497
Alz@@ 35501
Ant@@ 35502
Africa 1065
Arabia 2553
August 4298
Angela 5046
Agency 5080
Afghan 6234
Action 7824
Amazon 8920
Arafat 8974
Arctic 8975
Athens 9494
Asians 9538
Agenda 9689
Andrew 10734
Atomic 12470
Alexis 13984
Aleppo 14257
Arthur 15316
Airbnb 15886
Alex@@ 16329
Angola 16331
Albert 16570
Ankara 16803
Arabic 17282
Ashton 17283
Allies 17838
Aquino 18156
Alexei 18809
Andrei 19134
Anim@@ 19135
Annual 19136
Around 19138
Anat@@ 19508
Accord 20339
Allied 20344
Anti@@ 20779
Admati 21246
Access 22800
Aust@@ 22808
Arch@@ 23360
Alli@@ 23952
Andrés 23957
Aramco 23958
Abbott 24607
Agre@@ 24611
Airbus 24612
Alek@@ 24614
Apollo 24615
Alaska 25319
Andr@@ 25321
Andhra 26071
Andean 26869
Abra@@ 28583
Across 28584
Almost 28586
Appe@@ 28588
Amaz@@ 29485
Afri@@ 30169
Atom@@ 30494
Auth@@ 30495
ASEA@@ 31569
Atat@@ 31572
Azer@@ 31573
Alas@@ 31968
Amar@@ 32834
Abid@@ 33337
Abdu@@ 33919
Amne@@ 33921
Apri@@ 33923
Ahti@@ 34577
Anth@@ 34580
Arth@@ 34581
Aden@@ 35498
America 589
African 2243
Austria 6925
Algeria 8183
Article 8274
Affairs 8508
Against 9940
Academy 11712
Armenia 11973
Alibaba 12945
Albania 13983
Anti-@@ 14612
Accords 14773
Andre@@ 15121
Adviser 15717
Angeles 16802
Alawite 17280
Arabian 17537
Amartya 18155
Abraham 18454
Arizona 19509
Afghans 20341
Anglo@@ 20347
Alberto 20777
Antonio 21249
Airport 21727
Alesina 21728
Anthony 21729
Atlanta 22807
Abidine 23354
Amnesty 23955
Advan@@ 24609
ANGELES 25314
Arab-@@ 25322
Atatürk 25326
Advis@@ 26067
António 26072
Admiral 26867
Analy@@ 26868
Alger@@ 27720
Anton@@ 27722
Asia-@@ 29487
Abdul@@ 30168
Angel@@ 30170
Afric@@ 32373
Ahmad@@ 32374
Ahmed@@ 32375
Alber@@ 32833
Alban@@ 33339
Admir@@ 34574
Alter@@ 34578
Ander@@ 34579
Affor@@ 35499
American 857
Assembly 4642
Atlantic 5636
Alliance 5946
Africans 6518
Abdullah 9252
Americas 11519
Austrian 11521
Abkhazia 13834
Algerian 16330
Advisers 16569
Armenian 17840
Adenauer 18806
Argent@@ 19137
Articles 19510
Anderson 19908
Albanian 20776
Attorney 21251
Associ@@ 21732
Analysis 22804
Accoun@@ 23355
Achilles 23949
Americ@@ 23953
Advisory 24610
Afghan@@ 25317
Airlines 25318
Alawites 25320
Asian-@@ 25324
Approach 26870
Abdel-@@ 28582
Altitude 28587
Austri@@ 28590
Abkhaz@@ 33338
Alawit@@ 33920
Assist@@ 34582
Ayatol@@ 34583
Americans 1772
Argentina 3231
Australia 4095
Agreement 4554
Authority 5745
Abenomics 7823
Alexander 9941
Ayatollah 10355
Argentine 11257
Amendment 13562
Amsterdam 14939
Antarctic 16332
Americana 17281
Alzheimer 20346
According 20775
Alejandro 21247
Aristotle 22261
Auschwitz 22262
Ahtisaari 22801
Arunachal 22806
Alexand@@ 23357
Armenians 23361
Albanians 23951
Awakening 23963
Assistant 25325
Artific@@ 26073
Abdulaz@@ 27718
Annapolis 27721
Austerity 28589
Aristot@@ 33925
Azerbai@@ 35503
Australian 9068
Affordable 10797
Azerbaijan 14613
Assistance 14775
Ambassador 15887
Assessment 18157
Antarctica 20349
Adjustment 25316
Australi@@ 30171
Anglo-Sa@@ 33922
African-@@ 34576
Afghanistan 2189
Association 6378
Ahmadinejad 6852
Alternative 12844
Agriculture 13450
Anglo-Saxon 13835
American-@@ 16100
Ahmedinejad 20342
Administr@@ 31200
Americanism 33340
Afghanist@@ 35500
Asia-Pacific 7571
Arab-Israeli 13064
Agricultural 13982
Anthropocene 20778
Antimicrobial 19909
Administration 9688
American-style 22803
Anglo-American 23359
Afghanistan-@@ 28585
African-American 18808
African-Americans 17836
B 4721
Bo 10230
BS 11182
BA 11421
BP 11422
BC 12601
Be 13694
BM 15718
B. 19140
By 19913
Ba 20781
BT 26074
BI 29488
B@@ 2076
Ben 5771
Big 6006
BJP 6034
Ban 8627
Bay 9539
BoE 9541
BOJ 10678
BBC 10735
BIS 13451
BNP 17044
BRI 17045
Bin 17541
Bob 17842
BAT 19142
Bad 19143
BMW 20780
BMI 22264
But 22273
BAM 25327
BCB 26871
BSE 27723
BOR 31969
BRD 32377
BOC 35505
Bank 1018
Bush 1756
Bill 5292
Be@@ 6173
Bo@@ 6695
Bu@@ 9023
Bi@@ 9118
Belt 9540
Br@@ 11800
Ba@@ 11974
Boko 12729
Back 14260
Bali 15122
BR@@ 15317
Blue 16334
BRIC 16572
Bear 16804
BT@@ 17539
BM@@ 18458
Bonn 18813
BA@@ 19141
Bomb 19514
Brad 20355
B-@@ 21252
BL@@ 22263
Base 22266
By@@ 22810
BO@@ 23362
Best 23366
Bang 23965
Book 23973
Bond 24622
Barr 26076
Bell 26079
Blair 5488
Board 5517
BRICS 5932
Burma 6245
Bar@@ 7386
Brown 7784
Ber@@ 8145
Ban@@ 8308
Basel 8628
Boris 9174
Bri@@ 10551
Ben@@ 10877
Black 11183
Bur@@ 11258
Bal@@ 11713
Bra@@ 12602
Bre@@ 12603
Bro@@ 13564
Barry 13985
BEACH 14121
Bas@@ 14122
Bak@@ 14429
Bol@@ 14614
Biden 14940
Banks 15124
Bon@@ 15126
Baker 15515
BRCA1 15888
BRCA2 16102
Bel@@ 17046
BRICs 17284
Bor@@ 17285
Barak 17540
Bou@@ 17543
Bad@@ 18158
Beppe 18459
Bab@@ 18810
Bec@@ 18812
Basic 19911
Bul@@ 20357
Bac@@ 20782
Bam@@ 20783
Bil@@ 20785
Brent 20786
Bruce 20787
Bla@@ 21736
Bir@@ 22270
Bow@@ 22271
Brady 22272
Begin 23364
Bom@@ 23367
Burns 23369
Barro 23967
Bio@@ 23971
Blu@@ 23972
Beh@@ 24616
Bet@@ 24617
Bihar 24618
Bible 25330
Bot@@ 25332
Bed@@ 26872
Blo@@ 26875
Basin 27726
Bay@@ 27727
Bun@@ 27732
Bru@@ 30175
Bhu@@ 30497
Bos@@ 30499
Bah@@ 30832
Bis@@ 31201
Bav@@ 31574
Bus@@ 31577
Bud@@ 31972
Bes@@ 33344
Bit@@ 33346
Buc@@ 33347
BEA@@ 35504
Brazil 2099
Barack 2414
Brexit 2419
Berlin 4392
Bashar 5724
Bosnia 8741
Bannon 9173
Baltic 9751
Bernie 9753
Budget 9754
Boston 9942
Bhutto 11799
Balkan 12471
Bureau 12846
Better 12946
Beirut 13065
Bhutan 13563
Bran@@ 14262
Battle 14431
Buenos 14615
Bolton 15516
Bashir 16103
Bridge 17843
Beyond 19513
Blin@@ 20354
Brunei 20356
Becker 21734
Bern@@ 21735
Budd@@ 21741
Bayrou 22267
Brit@@ 23368
Basi@@ 23968
Before 23969
Bengal 23970
Border 23974
Boeing 24619
Bogotá 24620
Beng@@ 25329
Brun@@ 26082
Beslan 26874
Bour@@ 27730
Bang@@ 30172
Brex@@ 30173
Broo@@ 30174
Beij@@ 30496
Boli@@ 30498
Balk@@ 30833
Bhar@@ 31971
Buil@@ 31973
Bash@@ 32378
Blan@@ 32835
Brus@@ 32836
Bulg@@ 32837
BRCA@@ 33341
BRIC@@ 33342
Biny@@ 33345
Bagh@@ 34584
Beth@@ 34588
Braz@@ 35509
British 1618
Britain 1685
Beijing 3913
Bretton 7090
Bolivia 8464
Balkans 8660
Belgium 8701
Banking 9752
Baghdad 9816
Bitcoin 9817
Bahrain 10550
Belarus 10612
Britons 11423
Barroso 13452
Bosnian 13986
Bangkok 15123
Burmese 15127
Buffett 16573
Borders 16805
Black@@ 17542
Burkina 19144
Barnier 20350
Belgian 20351
Benazir 20353
Bengali 21254
Breivik 21256
Boehner 21737
Brother 21740
Bankers 22265
Bennett 22268
Bentham 22269
Belar@@ 22809
Bernard 23365
Balti@@ 25328
Briti@@ 25334
Baltics 26075
Bavaria 26077
Benef@@ 26080
Bosni@@ 26081
Break@@ 26877
Baath@@ 27724
Baghd@@ 27725
Blatter 27729
Benelux 28591
Bush-@@ 28594
Belgi@@ 29489
Bunde@@ 31202
Bogot@@ 31575
Buffe@@ 31576
Brahm@@ 33926
Berke@@ 34586
Burea@@ 34591
Bargh@@ 35507
Barro@@ 35508
Brussels 4379
Bernanke 5453
Berkeley 5781
Brothers 6875
Business 7329
Binyamin 10166
Bulgaria 12947
Buddhist 13565
Benjamin 15125
Botswana 15318
Budapest 15319
Bismarck 15719
Bachelet 15889
Benghazi 18159
Brezhnev 18460
Benedict 19912
Belgrade 20352
Barclays 23966
Brisbane 23975
Building 23976
Bolivian 25331
Bavarian 26078
Buddhism 26083
Buchanan 26878
Berlus@@ 33343
Bangal@@ 34585
Bernan@@ 34587
Bismar@@ 34589
Barcla@@ 35506
Brazilian 8108
Bundestag 13315
Bharatiya 14261
Barcelona 14430
Bloomberg 15890
Brookings 16335
Blanchard 17841
Bethlehem 20784
Bangalore 21253
Bollywood 21738
Breitbart 21739
Barghouti 23363
Beethoven 26873
Bulgarian 26879
Bucharest 27731
Bolshevik 28592
Brazili@@ 33927
Brezhne@@ 34590
Bangladesh 5248
Berlusconi 6779
Brexiteers 9621
Bundesbank 10423
Brazilians 16806
Biological 21255
Bolivarian 24621
Bouteflika 25333
Bolshevi@@ 26876
Brahmapu@@ 28593
Banglade@@ 31970
Brotherhood 5692
Bangladeshi 18811
Biodiversity 27728
C 3186
CN 12848
C. 13836
CS 13987
CA 14941
CE 15128
CP 15518
CO 15891
Cs 17850
CT 18160
CD 21258
CB 22811
CC 30176
CH 33348
C@@ 2382
CO2 3905
CEO 4633
Cup 7464
CCP 7572
CIA 7931
CDU 8345
CCS 8976
CBO 10117
CPI 11013
CSU 11337
CDS 12089
Can 12090
CRA 14776
CNN 16104
CDF 17288
CPC 17545
CBR 19515
CAP 21257
CDC 21259
CSR 21260
CJD 22813
CFA 23977
CIO 27733
CCC 33928
Cold 3253
Ch@@ 5187
City 5454
Cuba 5680
Co@@ 6486
Care 8592
CE@@ 9175
CEOs 9341
CF@@ 9428
CO@@ 9943
Chen 9992
CP@@ 10736
CN@@ 11522
CI@@ 11892
Case 11975
CH@@ 12371
CD@@ 12847
CTBT 12948
Club 13696
CB@@ 13837
Cy@@ 13988
CS@@ 14777
CITY 14942
CAPE 15517
Carl 15519
Cu@@ 15894
Cruz 16108
CA@@ 16336
Ci@@ 16807
CC@@ 17544
Camp 17546
Cz@@ 17551
Côte 17851
Coal 18161
CG@@ 19516
CM@@ 19517
Chad 19520
Ca@@ 19914
CACs 20788
Cook 20796
Cl@@ 21264
C-@@ 21742
CL@@ 21743
Cohn 21748
CHWs 22274
Code 22278
CFTA 22812
Call 22814
CR@@ 23370
Card 23371
Cost 23984
CDOs 24623
CT@@ 24624
Ce@@ 25339
Cr@@ 25343
Citi 26087
Cape 26883
Col. 26887
CMIM 28595
Czar 28604
Cola 34597
China 171
Court 3629
Chile 4643
Con@@ 5315
Czech 7749
Chief 7825
Cairo 8075
Cha@@ 8509
Car@@ 8543
Chair 8921
Cor@@ 9024
Com@@ 9120
Civil 9584
Cuban 9885
Cal@@ 10737
Costa 10799
Can@@ 11259
Cas@@ 11339
Congo 12604
Cap@@ 12949
Cam@@ 13566
Comey 14433
Cro@@ 14436
Child 14778
Chase 15129
Cre@@ 15322
Cho@@ 15520
Cur@@ 15522
Col@@ 15720
Chi@@ 16106
Corps 16107
COP@@ 16574
Che@@ 16575
Clo@@ 17048
CAFTA 17286
Chris 17845
Cla@@ 17846
Cross 17848
Crown 17849
Coast 18162
Cat@@ 18814
Cohen 18816
COP21 19145
Cowen 19152
Canal 19518
Civic 19523
Cri@@ 19918
Chuck 20790
Cir@@ 21263
Cou@@ 21752
Class 22816
Clean 22817
Cer@@ 23373
Chang 24628
CITES 25335
Carta 26084
Colin 26089
Crime 26093
CFP@@ 26880
Costs 26890
Crash 26891
Comes 27739
Cab@@ 28596
Cel@@ 28597
Cen@@ 28598
Cow@@ 31207
Cru@@ 31582
Chá@@ 32379
Cul@@ 32381
Coc@@ 34596
Canada 4063
Change 5213
Center 5301
Crimea 5735
Chávez 6086
Cyprus 6660
Crisis 6780
Church 9119
Chirac 9287
Corbyn 9690
Coun@@ 9993
Castro 11014
Carmen 11103
Carney 11184
Carter 11338
Common 11977
Char@@ 13567
Cheney 13695
Carlos 15320
Credit 15521
Carbon 15893
CRIS@@ 16105
Cities 17291
Coming 17292
Clin@@ 17548
Correa 17550
Chan@@ 18461
Cour@@ 18462
Claude 18815
Choice 19147
Clar@@ 19149
Coll@@ 19150
Crow@@ 19153
Centre 19519
Chiang 19521
Chil@@ 19522
Comm@@ 19524
Cancer 21261
Carson 21262
Civi@@ 21747
Cham@@ 22276
Cubans 22282
Chin@@ 22815
Chance 23374
Cher@@ 23980
Clau@@ 23981
Cancún 24626
Chri@@ 24630
Caesar 25336
Cont@@ 26091
Crises 26094
Cannes 26882
Cust@@ 26893
Chur@@ 27737
Comp@@ 27740
Cali@@ 29490
Cauc@@ 29491
Chem@@ 30500
Cent@@ 31203
Come@@ 31205
Chic@@ 31581
Carm@@ 32840
Cair@@ 33349
Canc@@ 33350
Cong@@ 33353
Chev@@ 33933
Caes@@ 34592
Cath@@ 34593
Clim@@ 34595
Conf@@ 34599
Chinese 778
Council 1844
Central 1999
Clinton 2909
Climate 4084
Cameron 4817
Charles 7146
Chicago 7598
Charter 8310
Capital 8661
Celsius 9818
Century 10613
College 10614
Control 11524
Cypriot 12372
Croatia 13454
Company 14435
Curtain 15722
Chechen 17047
Charlie 17289
Chapter 17547
Chilean 17844
Compact 17847
Colonel 18163
Commons 19151
Channel 19916
Catalan 20359
Centers 20360
Capitol 22275
Chamber 22277
Collins 22279
Chris@@ 24631
Culture 24638
Catal@@ 25338
Chennai 26086
Cabinet 26881
Cardoso 26884
Champ@@ 26885
Chevron 26886
Crimean 26892
Caracas 27735
Colom@@ 27738
Cyber@@ 27742
Chile@@ 28599
Chech@@ 29492
Capit@@ 30834
Corby@@ 31206
Cambo@@ 31579
Carol@@ 31580
Catho@@ 33351
Carac@@ 33929
Carib@@ 33930
Coali@@ 33934
Connell 33937
Centr@@ 34594
Colum@@ 34598
Credi@@ 34600
Camer@@ 35510
Chall@@ 35511
Chanc@@ 35512
Congress 2082
Colombia 4947
Chairman 6553
Catholic 7996
Cambodia 8309
Calderón 10167
Canadian 10231
Caucasus 10940
China-@@ 11523
Cultural 11714
Criminal 12091
Columbia 13066
Chechnya 13316
Children 13453
Commerce 14434
Consumer 14779
Currency 17293
Cristina 18164
Christ@@ 19148
Carnegie 19915
Carolina 20358
Colorado 20361
Comple@@ 20362
Canberra 20789
Citizens 20791
Consul@@ 20795
Connec@@ 21749
Conflict 22281
Comman@@ 22818
Cardinal 23372
Corpor@@ 23376
Chemical 23979
Citibank 24632
Confid@@ 24633
Contin@@ 24634
Cameroon 25337
Corridor 26092
Cypriots 26095
Commer@@ 28602
Concer@@ 29493
Canadi@@ 30177
Commun@@ 30178
Commis@@ 30501
Commit@@ 30502
Calder@@ 31578
Croati@@ 32380
Camero@@ 32839
Contro@@ 32842
Consum@@ 33354
Commod@@ 33935
Charlo@@ 35513
Common@@ 35514
Cambridge 3515
Communist 4133
Committee 4197
Christian 4754
Consensus 7463
Churchill 7893
Community 8050
Caribbean 9944
Christmas 10798
Coalition 11801
Communism 12185
Colombian 12268
Catalonia 12472
Catholics 12473
Challenge 12730
Chernobyl 13199
Citigroup 14432
Christine 14616
Countries 14780
Confucian 16337
Catherine 19146
Chongqing 19917
CLAREMONT 21744
Cambodian 21745
Continent 21750
Confucius 22821
Corporate 23377
Composite 23982
Conserv@@ 23983
Campaig@@ 24625
China-led 24629
Coordin@@ 25342
Ceausescu 26085
Coca-Cola 26088
Commodity 26090
Christi@@ 27736
Chung-hee 28601
Conundrum 28603
Confuci@@ 33352
Copenha@@ 33355
Competi@@ 33936
Condole@@ 35515
Czechos@@ 35516
Commission 2088
Chancellor 4487
California 4684
Copenhagen 5214
Conference 5436
Convention 5679
Christians 8778
Chinese-@@ 11976
Communists 15321
Capitalism 15892
CALIFORNIA 17287
Communic@@ 18817
Corruption 21751
Colombians 22280
Challenges 23978
Climate-@@ 25340
Congress@@ 26888
Confeder@@ 27741
Christop@@ 31204
Constitu@@ 32841
Challeng@@ 33931
Chernoby@@ 33932
Cooperation 6425
Corporation 7214
Christopher 17290
Condoleezza 20363
Competition 22819
Continental 22822
Constituent 23375
Catholicism 24627
Conventions 24636
Californi@@ 32838
Constitution 6174
Conservative 7213
Commissioner 14123
Commonwealth 15721
Christianity 16576
Confucianism 17549
Consequences 20793
Conservation 20794
Coordination 24637
Concertación 25341
Construction 26889
Californians 27734
Congressional 8346
Comprehensive 10679
Conservatives 11424
Confederation 22820
Contributions 24635
China-bashing 28600
Constitutional 8662
Czechoslovakia 13568
Competitiveness 20792
Charlottesville 21746
D 3245
DC 3168
D. 11425
DB 11893
DP 12474
DS 13697
Do 16111
DF 17852
DI 20797
Ds 21265
DA 21753
D@@ 2199
DNA 4665
Day 6926
DPJ 10168
DDT 14943
Don 16811
DRC 17049
Dow 17552
DSM 17853
Dr. 18465
DCs 25344
Dam 25348
DPP 26894
De@@ 5652
Deng 6048
Di@@ 6087
Doha 7997
Deal 9391
Debt 10941
Do@@ 11185
Data 11620
Du@@ 11803
Drug 14438
Dani 14617
Dick 15723
Dawn 16109
Da@@ 16338
Diet 17295
Dy@@ 18166
DS@@ 18463
Down 19922
Duma 19923
Dark 22284
Deep 22286
Duke 22291
D-@@ 23378
DF@@ 25345
DP@@ 25346
DD@@ 26096
Dead 26099
Does 26103
Duch 27745
David 4011
Dutch 5805
DELHI 6806
Davos 6854
Dis@@ 7750
Delhi 8544
Dubai 10942
Dream 11426
Dar@@ 11802
Des@@ 12269
Del@@ 12731
Den@@ 13838
Dalai 14124
Death 14126
Dec@@ 14944
Der@@ 15130
Dilma 15323
Doing 15523
Dod@@ 15724
Dom@@ 16112
Dam@@ 16577
Daily 16808
Def@@ 16809
Delta 16810
Dre@@ 16812
Dan@@ 17854
Dem@@ 17855
Dou@@ 17856
Dur@@ 18466
Deb@@ 18819
Dor@@ 19154
Dhaka 19919
Doc@@ 19920
Dhabi 20364
Don@@ 20366
Dra@@ 20800
Druze 21756
Dimon 22289
Davis 23379
Dokdo 23381
Daoud 23985
Dep@@ 23986
Dic@@ 24642
Diego 24643
Dalit 26097
Die@@ 26101
Drugs 26104
Dak@@ 26895
DSM@@ 27743
DHABI 28605
Dim@@ 28607
Dav@@ 29494
Daw@@ 29495
Day@@ 30503
Dru@@ 31211
Dok@@ 32843
Dut@@ 32844
DEL@@ 33356
Dig@@ 33939
Dai@@ 34601
Dal@@ 34602
Donald 2245
Draghi 6478
Darfur 9819
Daniel 10489
Deputy 12732
Darwin 12950
Danish 13200
Denver 14437
Dmitri 15325
During 15895
Deep@@ 16110
Donbas 16113
Dollar 16339
Dwight 16578
Dublin 16813
Diaoyu 17294
Delors 18165
Deaton 18818
Divi@@ 20799
Diam@@ 22287
DeLong 22824
Disp@@ 22827
Decade 24639
Demo@@ 24641
Dalits 25347
Dmitry 25350
Durban 25351
Dayton 26098
Dragon 27744
Darw@@ 28606
Dali@@ 30179
Deut@@ 30180
Dani@@ 30835
Davi@@ 31208
Dist@@ 31209
Davo@@ 34603
Delt@@ 34604
Drag@@ 34607
Doll@@ 35518
Defense 4818
Denmark 6185
Digital 10738
Disease 13201
Drawing 14127
Direc@@ 15324
Despite 18464
Deposit 19525
Duterte 21266
Detroit 21754
Dawkins 22285
Dilemma 22288
Daiichi 22823
Deficit 22825
Dynasty 22828
Decline 24640
Domin@@ 31210
Defic@@ 31583
Dragh@@ 33360
Detro@@ 34605
Diaoy@@ 34606
December 3052
Director 8510
Democrat 13067
Damascus 14125
Deutsche 14618
Dialogue 14781
Democr@@ 17050
District 17051
Doctrine 19921
Diseases 20798
Disaster 21755
Davidson 26896
Develo@@ 29496
Diplom@@ 29497
Damasc@@ 33357
Danger@@ 33358
Domini@@ 33359
Democrats 3499
Democracy 8146
Dominique 15524
Dominican 20365
Dangerous 22283
Dornbusch 22290
Deflation 22826
Diplomacy 23987
Diversity 23988
Different 25349
Deutsch@@ 30836
Dominic@@ 32382
Democratic 3338
Depression 4328
Department 4909
Dodd-Frank 9176
Determined 23380
Developing 26100
Differen@@ 33938
Determin@@ 35517
Development 2160
Declaration 7721
Deutschland 18820
Disarmament 28608
Director-General 26102
E 4449
EU 530
El 9121
EC 12849
ES 17052
EP 17857
E3 18467
EA 18468
Ed 18470
E. 19526
ER 20802
EO 23989
Es 27749
EF 31584
ECB 1956
E@@ 1979
ESM 9069
EMU 10490
End 10680
ESG 11804
ECT 13698
EEA 16114
EPA 16579
EPP 16580
EBA 19924
EIB 19925
Evo 19929
ENP 20801
Era 21273
EAS 23382
ECJ 23383
ERM 25352
East 1102
En@@ 6088
Ex@@ 6503
EM@@ 9495
ES@@ 9542
El@@ 9622
EC@@ 9755
Euro 10615
EFSF 10800
Er@@ 11186
Em@@ 12850
EA@@ 12951
Ehud 13068
EITC 14263
Ed@@ 14264
Eric 15525
EI@@ 15896
ESDP 16115
ER@@ 16340
EBRD 16814
Eu@@ 17053
EL@@ 18469
Es@@ 19155
EU@@ 19926
Ever 21275
Even 23385
Ev@@ 25355
Evil 26902
E-@@ 27746
Egypt 2077
Earth 6186
Ebola 6408
EU-@@ 11525
Eri@@ 17553
EU-15 17858
Eng@@ 18167
Every 19156
Ear@@ 19927
Eff@@ 19928
Eco@@ 20367
Eno@@ 20804
Exxon 21757
ECO@@ 22292
Eliot 22293
Equ@@ 22295
Est@@ 23384
Emp@@ 25354
Eth@@ 26106
Eur@@ 26107
EU-US 26897
Eli@@ 27748
EMDCs 28609
Ecu@@ 30181
Evi@@ 31212
EMONT 33940
Exx@@ 35519
Europe 345
Energy 5279
Empire 7722
Euro@@ 8922
Edward 11894
Ethics 18168
Ener@@ 20803
Edmund 21269
Enough 22294
Equity 22829
Egyp@@ 25353
Erhard 26105
Emer@@ 26899
Ever@@ 28611
Educ@@ 31585
Ebol@@ 31974
Elec@@ 31975
Erit@@ 32845
Eliz@@ 33361
Emir@@ 33362
Eastern 3444
Erdoğan 3540
England 4529
English 6049
Economy 6346
Ecuador 9691
Estonia 13069
Eurasia 13070
EU-wide 14439
Euro-@@ 14945
Emperor 17296
Enrique 18823
Every@@ 21276
Experts 21277
Eritrea 22296
Erdogan 22830
Ennahda 23992
Enter@@ 23993
Extre@@ 26108
Embassy 26898
Earlier 28610
Eisen@@ 31586
Exper@@ 31587
Engli@@ 31976
Erdoğ@@ 33364
European 414
Economic 2894
Egyptian 5215
Ethiopia 6619
Emmanuel 7091
Exchange 9544
Emirates 12270
Einstein 12733
Election 13455
Eurozone 13456
Eurasian 14128
Emerging 15897
External 20806
EU-level 21267
Electric 21270
Engine@@ 21271
Equality 21272
Electr@@ 24645
Europe@@ 30505
Ethiop@@ 31977
Econom@@ 32383
Europeans 2521
Education 6316
Economics 7361
Egyptians 9543
Economist 9994
Eurobonds 10878
Executive 11340
Elizabeth 13989
Electoral 15326
Eurogroup 15327
Exchequer 17860
Emergency 18821
Emissions 18822
Economies 21268
Ethiopian 21274
Elections 24644
Edinburgh 27747
Environ@@ 33363
Eisenhower 14265
Employment 15725
ExxonMobil 15726
European@@ 20805
Earthquake 23990
Economists 23991
English-@@ 30504
Environment 12734
Eichengreen 13839
Europe-wide 15328
Euroskeptic 16581
European-@@ 22297
Euroskeptics 17859
Enlightenment 11805
Environmental 12475
Euro-Atlantic 15131
Euroskepticism 24646
European-style 26901
English-language 26900
F 4354
F. 11104
FA 17054
FC 17297
FP 17298
FE 18169
FN 18170
Fs 26909
Fed 1705
F@@ 2043
FDI 6175
For 7269
FSB 9177
FBI 9886
Fox 11622
FDP 13071
FTA 13317
Far 16341
FAO 16815
FDA 17055
FDR 22831
FTT 25356
Few 26906
FSF 30182
Fund 1882
Free 5665
Food 7193
FARC 8347
Five 9025
FOMC 9623
Fo@@ 10943
Fi@@ 11427
FIFA 11621
Fa@@ 11895
FDIC 12605
FT@@ 12735
From 12953
Fu@@ 13457
Fe@@ 14946
Four 15527
FS@@ 15898
FC@@ 17554
Ford 17557
Fall 18471
Faso 19158
FCTC 19930
Fair 22832
FMLN 23386
Fear 23388
F-@@ 24647
Fire 24649
Fail 26109
Face 27750
FD@@ 30837
FM@@ 30838
Forum 5082
Front 5853
First 6696
Fatah 6827
For@@ 9026
Force 10424
Frank 11260
Fre@@ 11715
Fin@@ 12606
Fight 13699
Fidel 15330
Far@@ 15526
Fifth 16116
Flynn 16342
Fol@@ 18473
Fal@@ 19157
Fle@@ 19159
Fac@@ 19527
Flake 19931
Fra@@ 19932
FML@@ 21278
Fam@@ 21279
Fer@@ 21280
Fri@@ 22299
Fro@@ 22300
Fun@@ 22301
Funds 23996
Final 25359
Forty 25361
Fig@@ 26111
Franz 26116
False 27753
Fif@@ 27756
Flo@@ 27757
Fah@@ 29498
Fir@@ 29499
Fat@@ 30839
Fed@@ 31213
Fis@@ 32384
Fas@@ 34609
France 1218
French 1608
Future 8593
Forces 9027
Fourth 12092
Fiscal 12271
Fran@@ 14619
Fillon 15132
Fannie 15329
Friday 15528
Farage 15899
Felipe 17556
Franco 17558
Fisher 17861
Foshan 17862
Fattah 18472
Family 18824
Fron@@ 21760
Forest 23391
Farm@@ 23994
Fall@@ 25358
Flight 26112
Fore@@ 26113
Factor 26903
Fayyad 26905
Fidesz 26907
Fair@@ 27752
Free@@ 27760
Failed 28612
Forbes 28613
Form@@ 28614
Fren@@ 28615
Fund@@ 30183
Fide@@ 30840
Frag@@ 30841
Fili@@ 31214
FRAN@@ 31978
Face@@ 33365
Fuku@@ 33367
Feli@@ 33941
Fern@@ 33942
Flor@@ 33945
Foot@@ 33946
Fail@@ 34608
Feld@@ 34610
Flyn@@ 34611
Four@@ 34612
Federal 2610
Foreign 5081
Finance 6246
Francis 6885
Freedom 7826
Finland 7998
Florida 10118
Fischer 12476
Forward 18171
Freddie 19529
Feder@@ 20807
Finnish 21759
Fragile 23392
Futures 23394
Fortune 23995
Flemish 25360
Found@@ 25362
Friends 25363
Fatah@@ 26110
Franc@@ 26114
Failure 26904
Fasci@@ 27754
Fried@@ 27761
Franç@@ 31215
Frank@@ 31588
Febru@@ 33366
Finan@@ 33944
Free-@@ 33948
Five-@@ 35521
Facebook 3849
February 4612
Friedman 7042
François 7573
Franklin 9070
Facility 11015
Fukuyama 17056
Florence 19528
Filipino 20808
Ferguson 21758
Federica 23389
Frontier 23393
Fernando 27755
Football 27758
Fernan@@ 33943
Franci@@ 33947
Ferdin@@ 35520
Financial 4114
Fukushima 10491
Framework 10616
Francisco 10944
Frankfurt 11016
Five-Year 12952
Friedrich 13318
Financing 14266
Feldstein 17555
French-@@ 18172
Ferdinand 18825
Fethullah 22298
FRANCISCO 23387
Fernández 23390
Filipinos 24648
Fairtrade 25357
Franco-@@ 26115
Frenchman 26908
Foundation 5518
Federation 14947
Fahrenheit 27751
Free-Trade 27759
Frontières 27762
Frankfur@@ 32385
Francisc@@ 34613
Fundamental 26117
Fundament@@ 31979
Franco-German 11896
G 3841
G7 7330
GM 10170
G8 12093
Go 17864
GB 26911
GE 29500
GI 29501
Gs 32388
GDP 482
G@@ 2073
G20 3369
God 7723
G-8 8311
GCC 8385
GNP 9392
G-7 10169
GNI 14948
GST 15133
GPS 17057
Gap 18826
Gul 18828
GGE 19160
GHG 20368
GOP 21281
Gas 23397
Gül 23401
GPE 23997
Guo 26917
G-2 28616
Gaza 3589
G-20 3935
Gulf 4426
Gu@@ 6905
Go@@ 8276
Gi@@ 8663
Ge@@ 10681
Gore 12094
Good 12373
Gavi 13569
Game 13700
Gini 14268
Gary 14782
Gl@@ 15333
GAVI 15529
Ga@@ 16117
Goal 17058
GM@@ 17559
GB@@ 18474
GD@@ 19530
Gold 19532
GS@@ 19933
GH@@ 20809
GN@@ 22302
Gove 22833
G-@@ 23395
GATT 23396
Gr@@ 25367
Guam 26118
GMOs 26912
Goes 26916
Gh@@ 27765
GE@@ 28618
GO@@ 28619
GVCs 28620
Gü@@ 30843
GV@@ 33368
Great 2456
Greek 2607
Goals 4828
Group 5302
Gates 6927
Green 7271
Games 8051
Ghana 8275
Gra@@ 11105
Gülen 11261
Guard 11428
GDP@@ 11623
Gen@@ 11624
Gre@@ 12608
Gar@@ 13072
Grand 14440
Geert 15331
Gil@@ 15332
Gor@@ 15727
Gamal 16582
Gam@@ 17561
Geo@@ 18173
Ger@@ 19161
Golan 19531
Gro@@ 19934
Gaz@@ 20370
Gal@@ 20810
Gho@@ 22303
Gri@@ 23400
Gir@@ 23998
Gross 24651
Gur@@ 24652
Gulag 25371
Gab@@ 28621
Gol@@ 28626
Gul@@ 30842
Ghe@@ 31589
Gei@@ 32386
Gis@@ 34614
Gén@@ 35525
Greece 1481
German 1687
Global 2510
George 2872
Google 5040
Growth 5096
Geneva 6554
Gordon 7270
Greeks 8629
Gandhi 8923
Gaulle 10425
Guinea 12737
Golden 12851
Grexit 14949
Grillo 15530
Gran@@ 17299
Gallup 17560
Geor@@ 17562
Good@@ 17563
Graham 17865
Ghraib 18475
Greens 18827
Gender 20371
Gold@@ 20372
Gene@@ 21282
Griesa 22304
Guar@@ 22834
Guards 23999
Gali@@ 25364
Gilani 25365
Greg@@ 25368
Guri@@ 25372
G-Zero 26910
Gaul@@ 26913
Gerald 26914
GDP-@@ 27763
Grow@@ 27767
García 28622
Ghan@@ 28624
Glob@@ 28625
Grou@@ 28627
Gand@@ 31980
Goog@@ 31981
Guat@@ 34615
Gril@@ 35523
Germany 849
General 3282
Georgia 4722
Germans 5349
Gazprom 8924
Goldman 9253
Gerhard 14267
Gujarat 14950
Giscard 16343
Green@@ 16816
Greater 17564
Gener@@ 23398
Gabriel 24650
Guang@@ 31590
Guine@@ 31591
Gujar@@ 33949
Guter@@ 34616
Gülen@@ 34617
Governor 7147
Georgian 13073
Geithner 15900
Geun-hye 17863
German@@ 19162
Guterres 22835
Govern@@ 23399
Gülenist 24653
Guardian 25370
Greek-@@ 27766
Générale 27768
Guatem@@ 30506
Georgi@@ 32387
Gazpro@@ 35522
Greenspan 6620
Gorbachev 9545
Governing 12607
Guatemala 15334
German-@@ 15901
Governors 15902
Gülenists 16817
Guangdong 18174
Greenland 19533
Galbraith 20369
Goldstone 25366
Guangzhou 25369
Georgians 28623
Government 9028
Guantánamo 10879
Governance 14783
Generation 27764
GDP-linked 28617
Ghebreyesus 26915
Guantánam@@ 35524
Globalization 12736
Glass-Steagall 14269
H 7194
Hu 8386
HC 13840
H. 15728
HS 18175
He 24004
HI 30844
H@@ 2334
HIV 4012
How 11806
HPV 12374
Hun 17870
HDP 21761
Han 24001
Has 26119
HFO 26918
HCR 33950
Hong 3579
High 7118
He@@ 7148
Hu@@ 8977
Hugo 10232
Ho@@ 10945
Home 11341
Ha@@ 11429
Hy@@ 11526
HA@@ 15335
Hi@@ 15336
Hope 15729
H.W. 15903
Hole 15904
HF@@ 16118
Hill 16120
Homo 16347
Holy 17567
Hans 17867
H1@@ 19534
Horn 20377
Hour 24007
HSBC 26919
Have 26922
HFCs 27769
Head 27774
H.@@ 28628
House 2794
Hamas 3095
Human 5653
Har@@ 7599
Henry 8109
HAVEN 8348
Haiti 8872
Her@@ 9342
Hindu 9756
Hosni 10617
Ham@@ 10682
Harry 11262
Haram 12375
Hayek 13319
Han@@ 14441
Hol@@ 14620
Hab@@ 15134
Hal@@ 15135
Havel 15531
Hel@@ 16119
Hor@@ 16122
Hague 16344
Hamid 17300
Higgs 18176
Hon@@ 18477
Hai@@ 19163
Hen@@ 19536
Hil@@ 20374
Hum@@ 20378
Hay@@ 20811
Hob@@ 20812
Hebdo 21764
Hagel 22305
Haz@@ 22307
Hou@@ 22840
Hot@@ 24006
Hop@@ 24658
Hun@@ 25380
Has@@ 26120
Hwang 26124
Hus@@ 26926
Hafez 27772
Hom@@ 28631
Hos@@ 28632
Hur@@ 28634
Hig@@ 30507
Hir@@ 30508
Him@@ 31216
Haw@@ 31593
Hit@@ 31594
Hag@@ 31982
Hat@@ 31983
Hav@@ 32848
HIC@@ 33369
How@@ 33951
HIV@@ 35526
Health 3829
Hitler 5845
Hassan 12186
Hansen 13202
Helmut 16346
Harbor 16818
Hoover 16819
Huawei 16820
Hawaii 17565
High@@ 17566
HICCup 17866
Hariri 17868
Hindus 17869
Holmes 18829
Humala 18830
Howard 19537
Hadj@@ 19935
Hoenig 20376
Hann@@ 21762
Harold 21763
Harvey 22306
Hear@@ 22308
Hunger 22309
Hasina 22837
Hein@@ 22838
Hughes 22841
Haus@@ 24003
Havana 24656
Haqq@@ 25373
Hash@@ 25374
Hung@@ 25381
Hawley 26121
Hormuz 26122
Houthi 26123
Haider 26920
Habs@@ 27771
Hebrew 28629
Hund@@ 28633
Hist@@ 30509
Happ@@ 30845
Harv@@ 31592
Haye@@ 31984
Holl@@ 31985
Hiro@@ 32389
HIV-@@ 32846
Hamp@@ 32847
Hang@@ 33371
Hass@@ 33372
Hisp@@ 34618
Hosp@@ 34619
Haru@@ 35528
Hind@@ 35530
Hungary 5000
Harvard 5303
Hillary 5854
Hussein 7092
History 12095
Holland 16121
Haldane 16345
Hamburg 16583
Herbert 18476
Human@@ 19164
Heights 19535
Hindu@@ 20375
Haitian 22836
Housing 23404
Houthis 23405
Harle@@ 26921
High-@@ 26923
Horizon 26925
Houston 27775
Hippo@@ 28630
Husse@@ 29502
Holoc@@ 30184
Horiz@@ 32851
Hamil@@ 33370
Hawai@@ 33373
Hanashi 35527
Himal@@ 35529
Hollande 6187
Hamilton 12609
Helsinki 13701
Health@@ 15136
Honduras 20813
Hospital 22839
Hamas-@@ 24000
Hangzhou 24002
Haruhiko 24655
Homeland 24657
Hatoyama 25375
Henrique 25376
Heritage 25377
Hirohito 25379
Hispanic 26924
Hezbol@@ 32849
Hondur@@ 32850
Hezbollah 4973
Holocaust 7894
Hungarian 9945
Hollywood 11716
Hurricane 12610
Himalayan 14129
Hiroshima 17059
Himalayas 21765
Hirschman 23403
Happiness 24654
Hampshire 27773
Huntington 21283
Hensarling 23402
High-Level 24005
Hurrican@@ 35531
Herzegovina 25378
HIV-positive 20373
Humanitarian 23406
HIV-infected 27770
I 565
II 2536
In 3510
It 5693
IT 6360
Is 7631
IP 8978
If 9888
IA 12852
IC 13841
IV 14951
IS 15138
ID 19165
IR 19936
I. 20814
IQ 22310
IL 22842
Il 23408
IB 30185
IZ 35534
IMF 1032
I@@ 3298
III 7895
ICT 8422
IBM 11187
ICC 13074
IPS 13570
IEA 15137
IDA 15905
ISI 16349
Ifo 17301
IFC 17568
IPL 17871
ILO 20816
INA 21284
IVF 21285
IOM 24008
Its 24015
ICJ 24659
IDB 25382
IOC 28636
IDS 31986
ISA 33374
IFT 34620
IFA 35532
Iran 887
Iraq 1327
In@@ 4238
ISIS 4480
IC@@ 5947
IPCC 6459
IS@@ 8465
Im@@ 8979
IN@@ 9029
IF@@ 9887
IP@@ 9995
IR@@ 9996
IAEA 11342
Is@@ 11527
ICTY 12096
IM@@ 12376
Iron 13320
ID@@ 14270
IA@@ 15337
IT@@ 15730
Ir@@ 16124
IRGC 16348
Ig@@ 16821
Ivan 17303
Il@@ 17569
IV@@ 17872
IG@@ 20815
Id@@ 20817
Iowa 20819
ITER 21766
IO@@ 23407
ISPs 24009
Imam 27777
ISCO 35533
India 811
Italy 1810
Islam 3349
Iraqi 4788
Irish 6644
Index 8184
Ide@@ 17060
ICSID 18478
INDCs 19166
ISD@@ 19937
Isa@@ 22312
Imp@@ 22844
Intel 23410
Int@@ 30186
Ind@@ 31595
Ine@@ 31596
ICS@@ 32852
IRG@@ 33952
ING@@ 34621
Il-@@ 34622
Ivo@@ 34625
Israel 1125
Indian 2582
Iraqis 8466
Island 14442
Income 15338
Irving 18480
Impact 19938
Inácio 20379
Import 22311
IMF-@@ 22843
Ivanka 22847
Indi@@ 24011
Indira 27780
INGTON 28635
Inno@@ 28638
Indu@@ 30510
Iraq@@ 30846
Ivan@@ 30847
Icel@@ 31987
Inde@@ 32390
Iran@@ 33375
Ital@@ 33376
Imag@@ 34623
Inte@@ 35535
Islamic 2034
Israeli 2735
Iranian 3169
Ireland 3668
Italian 4299
Indians 6504
Islands 7827
Inter@@ 10426
Iceland 11717
Ibrahim 12377
Islam@@ 12853
Iran-@@ 17302
Itali@@ 21286
Imagine 25383
Il-sung 26125
Indic@@ 27779
Indo-@@ 28637
Initi@@ 32853
Infra@@ 34624
Internet 2440
Islamist 3906
Israelis 4937
Iranians 8110
Istanbul 9288
Italians 9692
Islamism 16351
Imperial 16822
Interpol 17570
Interest 18479
Industry 20818
Intifada 21768
Invest@@ 21769
Illinois 23409
Interior 24014
Internal 24661
India-@@ 26927
Identity 27776
Integr@@ 27781
Indone@@ 29503
Inter-@@ 31217
Imperi@@ 33953
Indonesia 4085
Institute 4239
Islamists 6302
Insurance 13075
Islamabad 15139
Inflation 15532
Institu@@ 15533
Inclusive 22845
Indian-@@ 24013
Inclusion 26126
Israel-@@ 26128
Intelli@@ 33954
Israeli@@ 33955
Investment 4779
Initiative 6409
Industrial 6876
Innovation 14130
Inequality 14621
Indonesian 16123
Institutes 16350
Israeli-@@ 20380
Imperative 24010
Industries 24660
Iranian-@@ 26928
Industri@@ 31988
Information 13702
Institution 14952
Independent 16584
Internet-@@ 19939
Integration 22846
Immigration 27778
Independence 9997
Intelligence 11430
Indo-Pacific 18177
Islamization 24662
Islamophobia 26929
International 1634
Infrastructure 8594
Inter-American 21767
India-Pakistan 24012
Inter-Services 26127
Israel-Palestine 13321
Intergovernmental 9946
Israeli-Palestinian 8076
J 9218
J. 13842
JP 15140
Jr 16824
JD 28639
J@@ 3096
Jim 10683
Joe 15141
JPM 15339
Jan 19167
Jeb 21289
Jew 24663
JFK 27782
Jr. 27784
John 2878
June 3287
July 3636
Jews 4509
Jo@@ 8240
Jean 9889
Ju@@ 10171
Je@@ 11343
José 12738
Juan 15340
Jobs 15906
Jack 17304
Ji@@ 17306
Ja@@ 18481
Jeff 19168
J.@@ 24016
Just 24018
Jang 25384
JGBs 27783
JP@@ 30187
Japan 800
James 5224
JCPOA 8630
Janet 10946
Joint 11897
Jam@@ 14131
Jimmy 14133
Jer@@ 14443
Jared 14622
Jiang 16586
Jones 17307
Jan@@ 17571
Jud@@ 17572
Jab@@ 21287
Jar@@ 21288
Jacob 21770
Jac@@ 22848
Jihad 22850
Jin@@ 22851
Joyce 24665
Juppé 27786
Jap@@ 30188
Joh@@ 30189
Job@@ 30848
Jon@@ 30849
Jak@@ 31218
Jun@@ 33378
Jaz@@ 35536
Jim@@ 35538
Jewish 4096
Jordan 4948
Joseph 6393
Jeremy 10233
Jiabao 11978
Jintao 12378
Janata 14132
Jokowi 20382
Justin 20384
Jersey 20821
Juli@@ 21290
Jama@@ 22313
Jali@@ 23411
Jae-in 24017
Jibril 24664
Jeff@@ 26129
John@@ 26931
Jürgen 27787
Jord@@ 30850
Jose@@ 30851
Janu@@ 32854
Jere@@ 32855
Jour@@ 32856
Jack@@ 33377
Junc@@ 33379
Jae-@@ 33957
Jane@@ 34626
January 3644
Justice 5073
Jinping 5216
Juncker 7331
Johnson 7387
Jong-un 8111
Jacques 9030
Jazeera 11625
Jong-il 12097
Journal 12098
Jeffrey 12854
Jackson 13571
Janeiro 18482
Jean-@@ 18483
Judaism 20383
Jakarta 20820
Judic@@ 27785
Johan@@ 30190
Journ@@ 30852
Jaros@@ 32391
Jacqu@@ 33956
Japan@@ 34627
Jong-@@ 34628
Justi@@ 35539
Japanese 2111
Jonathan 14623
JPMorgan 16585
Japan-@@ 17305
Jarosław 20381
Jean-Luc 28640
Jerusalem 5725
Jordanian 19940
Junichiro 24666
Jerusal@@ 35537
Jawaharlal 22849
Jean-Marie 26930
Jordanians 28641
Jean-Claude 10492
Japanese-@@ 16823
Journalists 22852
Johannesburg 17873
K 8147
K. 25385
K@@ 2264
Kim 3045
KGB 11431
Kyi 12477
KRG 15731
Ken 16352
Kan 16587
Kong 4050
King 6050
Ko@@ 8702
Ki@@ 10061
Karl 10552
KONG 10947
Ku@@ 11807
Ke@@ 12739
Kofi 12740
Kyiv 12741
Kohl 13077
Khan 14271
Koch 17875
Kant 19539
Ka@@ 21771
Ky@@ 22316
Kh@@ 23415
Kuan 24668
Kahn 31219
Korea 1104
Kenya 5047
Kurds 6122
Kyoto 7067
Kerry 8349
Kar@@ 10172
Kur@@ 13704
Kha@@ 14784
Kevin 15732
Kelly 16588
Kabul 16825
Kat@@ 16826
Kam@@ 17308
Ken@@ 17309
Kir@@ 17311
Ker@@ 17573
Key@@ 17574
Koran 17576
Kon@@ 17876
Kel@@ 18178
Kra@@ 18832
Kal@@ 19169
Khmer 19540
Kle@@ 20823
Kemal 21291
Kor@@ 21292
Klaus 22315
Kis@@ 25389
Kumar 25392
Kol@@ 26131
Kab@@ 26932
Kru@@ 26936
Kan@@ 29504
Koh@@ 29507
Kin@@ 30191
Kaz@@ 30511
Kas@@ 31220
Kib@@ 31597
Kac@@ 32392
Kem@@ 32393
Kho@@ 33381
Kla@@ 33382
Kyr@@ 33383
Ki-@@ 33960
Kum@@ 33962
Kah@@ 34630
Kig@@ 34634
Kev@@ 35543
Korean 2625
Keynes 5122
Kosovo 5437
Kuwait 10234
Karzai 13703
Kenyan 15534
Kerala 16827
Kennan 17310
Kibaki 17575
Kadima 18831
Kansas 19538
Khar@@ 19941
Konrad 19942
Kuroda 19943
Kash@@ 20386
Khal@@ 20822
Know@@ 21773
Koreas 21774
Kigali 22853
Kaiser 23413
Kuchma 23416
Kore@@ 24020
Krem@@ 25390
Kudrin 25391
Kili@@ 26934
Kippur 26935
Koso@@ 27788
Karm@@ 29505
Kind@@ 31989
Kadi@@ 33380
Kais@@ 33959
Khat@@ 34633
Kady@@ 35540
Katr@@ 35541
Kingdom 2063
Kremlin 3529
Kurdish 5714
Kennedy 6136
Krugman 6697
Koreans 7119
Kenneth 9820
Kashmir 11432
Ki-moon 13076
Koizumi 13078
Katrina 14134
Kushner 14624
Khatami 14785
Keqiang 16589
Knesset 20824
Kenyans 21772
Kadyrov 22314
Karachi 24019
Karad@@ 24667
Kampala 25386
Karmapa 26130
Kirch@@ 30512
Kyrgy@@ 32857
Kenne@@ 34632
Keyne@@ 35544
Khamenei 6807
Khomeini 14272
Kirchner 14953
Kahneman 23412
Kemalist 25387
Kasparov 26933
Kaczyn@@ 33958
Kindle@@ 33961
Kaczyń@@ 34629
Kaspar@@ 34631
Kazakh@@ 35542
Keynesian 6247
Kissinger 11344
Kaczyński 12611
Kurdistan 13322
Khashoggi 15341
Kaczynski 20385
Kyong-hui 22317
Kavanaugh 23414
Kazakhstan 9031
Khrushchev 10880
Keynesians 14135
Kyrgyzstan 16353
Khobragade 25388
Kuomintang 25393
Khodorkovsky 12612
Kindleberger 17874
Keynesianism 29506
L 6317
Le 5063
Li 9429
La 11528
LO 26937
LA 27789
LF 30513
Ls 32398
L@@ 2260
Law 6280
Lee 7534
Liu 10062
Los 11898
LDP 12613
LAC 16828
Las 17878
LNG 20825
Let 22856
Lin 24022
Luc 31600
Le@@ 6265
Lo@@ 7120
Li@@ 7172
Last 7828
Lula 9758
La@@ 10618
Lu@@ 11263
Life 12272
Land 12379
Left 13203
Lama 13572
LGBT 13990
Lord 13992
Long 15535
Line 15907
LE@@ 16590
Lake 16591
Laos 17877
Lima 18179
Lady 19541
Luiz 19947
Lead 20827
Leon 22855
Lech 23419
Luis 23424
Ly@@ 24024
LG@@ 25394
Leap 25395
Lost 25397
Lega 26133
Latin 2386
Libya 3391
Labor 8511
Lanka 8595
Larry 8779
Laden 9496
Leave 9757
Leone 11719
Lam@@ 12478
Lan@@ 13323
Likud 13991
Lau@@ 14273
Lev@@ 14444
Lenin 15733
Len@@ 16592
Louis 17062
Lin@@ 17578
Lucas 18834
Lib@@ 19945
Lim@@ 19946
Lie@@ 20387
Lom@@ 20388
Leung 20828
López 20830
Level 21293
Lit@@ 21294
Lives 21295
Lat@@ 22318
Les@@ 22320
Livni 22321
Lagos 22854
Lea@@ 23417
Loc@@ 23423
Lab@@ 24021
Lou@@ 24023
Lad@@ 24669
Lon@@ 24672
Lords 25396
Lar@@ 26132
Law@@ 26938
Lis@@ 26939
Liv@@ 26940
Locke 26941
Lop@@ 27792
Lyn@@ 27795
LGFVs 28642
Low@@ 28645
Luc@@ 28646
LIF@@ 31221
Leh@@ 31598
Lor@@ 31599
Lux@@ 31990
Lef@@ 32395
Leg@@ 32396
LGF@@ 33384
Lag@@ 33385
Lav@@ 33386
Lud@@ 33387
Leaks 33963
Luk@@ 33965
London 2038
Labour 5759
League 6154
Lehman 6722
Lisbon 7362
Leader 9219
Libyan 10289
Latvia 13079
Limits 16125
Lahore 16829
Leonid 17879
Lancet 18484
Lind@@ 18833
Luther 18835
Laguna 20826
Lyndon 20829
Levant 21775
Living 21776
Lavrov 22319
Ludwig 22322
Liqu@@ 23420
Little 23421
Lloy@@ 23422
Lash@@ 24670
Lesbos 26134
Lankan 28643
Leon@@ 30192
Less@@ 30853
Ludd@@ 33964
Lead@@ 34635
Linc@@ 34637
Lebanon 3250
Liberal 9890
Liberia 10288
Lagarde 11718
Liber@@ 13458
Libyans 16354
Lincoln 17061
Lessons 17577
Lugovoi 18486
Leaders 23418
Liberty 26135
Long-@@ 26942
Latinos 27790
Liver@@ 27791
Leban@@ 32394
Lithu@@ 32397
Legis@@ 34636
Lebanese 8631
Lawrence 11808
Leninist 19944
Luddites 27793
Luxemb@@ 31991
Lincol@@ 35545
Lithuania 14137
Leviathan 18485
Louisiana 28644
Liberation 10801
Luxembourg 13204
Leadership 14136
Lukashenko 24673
Lukashenka 27794
Lukashen@@ 35546
Legislative 24671
Luxembour@@ 33966
M 4974
MP 16126
M2 17063
Ma 18837
My 19174
M. 20831
MA 21296
Me 28652
M@@ 2300
May 2590
Mao 6781
MDG 8350
MGI 8925
MIT 9891
MBS 10802
MPs 12099
M5S 12380
Man 15342
Mae 15536
MFF 16355
Mr. 16594
Mac 18180
Max 18492
MHP 18836
Men 23429
Mai 24027
Map 24679
Ms. 28655
Modi 4142
Mo@@ 5619
Me@@ 6137
Ma@@ 6460
Mark 7311
MDGs 8052
Mu@@ 8596
Moon 8980
MENA 9122
Mali 9821
Marx 10119
Mc@@ 10803
Mitt 11345
ME@@ 11626
My@@ 11979
MD@@ 12479
Mike 12481
Mi@@ 13080
Make 14138
More 14275
Many 14625
MS@@ 14954
MO@@ 15142
Most 16831
Mill 17067
MF@@ 17312
MH@@ 17579
Mars 18490
Made 18838
Myth 19175
Much 19548
MILF 20389
Mind 20394
MFIs 21297
Marc 21301
Mé@@ 21304
Must 21783
Main 22323
Mary 22858
Musk 22867
MI@@ 24025
MNCs 24026
MV@@ 24674
M-@@ 26136
MM@@ 26943
MN@@ 31601
M5@@ 35547
March 3630
Mar@@ 5304
Morsi 6214
Mario 6441
Mon@@ 6661
Mer@@ 8927
Mal@@ 9123
Mor@@ 9585
Min@@ 9693
Man@@ 9759
Milan 10063
Mac@@ 10356
Monti 10357
Mis@@ 10493
Macri 10739
Men@@ 10948
Mul@@ 12482
Mur@@ 12855
Mas@@ 12955
Mat@@ 12956
Money 12957
Mad@@ 13459
Mag@@ 14445
Mayor 15344
Model 15538
Mic@@ 16356
Mil@@ 16357
Mecca 16593
Med@@ 16830
May@@ 17064
Mes@@ 17884
Mik@@ 17885
Mosul 17886
Mah@@ 18181
Major 18182
Marco 18489
Mit@@ 18493
Mbeki 19171
Minsk 19172
Media 19543
Mig@@ 19545
Moody 19547
Mitch 19951
Moore 19953
Moral 19954
Maria 20392
Mount 20837
Moz@@ 20838
Mid@@ 21303
Mun@@ 22325
Mayer 22859
Means 22862
Meh@@ 22864
Mus@@ 22866
Magna 23426
Mau@@ 24031
Mee@@ 24033
Meles 24034
Malay 24676
Malta 24677
Marie 24680
Mir@@ 24683
Maj@@ 25400
McC@@ 25402
Miami 25403
Moria 25406
Mou@@ 25407
Mel@@ 26143
Mahdi 26945
Mazen 26948
Meiji 26950
Met@@ 27800
Mob@@ 27802
Maf@@ 28649
Moc@@ 28654
Mem@@ 29508
Mol@@ 29510
Mao@@ 30194
Maz@@ 30518
Mot@@ 30522
Mec@@ 30855
Mobil 31992
Mug@@ 31993
Mek@@ 32400
M-P@@ 33967
McA@@ 35550
Middle 1433
Mexico 2157
Muslim 2383
Merkel 3143
Macron 3611
Moscow 4895
Madrid 6018
Marine 6723
Martin 7068
Munich 7896
Market 8241
Maduro 8423
Manuel 9124
McCain 9289
Milton 9497
Mumbai 9892
Michel 12187
Matteo 12480
Morgan 12958
Mari@@ 13705
Miller 13994
Mattis 15343
Manila 16127
Monnet 16128
Mugabe 17582
Malawi 17880
Mervyn 17883
Maliki 18488
Maoist 19170
Mekong 19544
Mach@@ 19948
Mellon 19950
Monday 19952
Museum 19955
Mess@@ 20835
Moss@@ 20836
Mani@@ 21300
Marche 21302
Mand@@ 21777
Marcos 21778
Mirror 21781
Malays 22324
McAfee 22860
Must@@ 22868
Made@@ 23425
Malala 23427
Moment 23430
Mother 23433
Mashal 24030
Mili@@ 24035
Modern 24037
Main@@ 24675
Motors 24684
Moun@@ 24685
M-Pesa 25398
Mankiw 25401
Myriad 25408
MDR-TB 26137
Magu@@ 26138
Marx@@ 26141
Morris 26146
Melt@@ 26951
Mist@@ 26953
Mladić 26954
Magh@@ 30514
Mali@@ 30515
Manu@@ 30516
Mass@@ 30517
Mone@@ 30521
Master 30854
Mich@@ 31222
Mash@@ 32399
Moga@@ 32860
Maha@@ 34639
Mahm@@ 34640
Milo@@ 34644
Mini@@ 34645
Mumb@@ 34646
Muslims 3532
Myanmar 5574
Mubarak 5654
Mexican 5884
Michael 6138
Morocco 6990
Mahmoud 7245
Maynard 8926
Mikhail 8928
Mohamed 9254
Markets 9947
Mandela 9999
Muammar 10553
Moldova 10804
Mueller 10805
Malaria 11720
Morales 12273
Murdoch 13205
Melinda 13843
Mnuchin 13844
Medical 14139
Meeting 15734
Marxism 17881
Maghreb 18487
Marxist 18491
Moder@@ 18494
Mission 18840
Missile 19546
Mahatma 19949
Macro@@ 21298
Matthew 21779
Multi@@ 21782
Madison 22857
McKin@@ 22861
Monro@@ 23431
Manch@@ 24028
Marshal 24029
Miracle 24036
Mousavi 24038
Mundell 24039
Maoists 24678
Marines 26140
Maced@@ 26944
Mande@@ 26946
Mexic@@ 26952
Madonna 27797
Mahar@@ 27798
Midwest 27801
Mladi@@ 29509
Malay@@ 30193
Moldo@@ 30197
Mubar@@ 30198
Micro@@ 30520
Mauri@@ 31602
Mongo@@ 31603
Munde@@ 31604
Murdo@@ 31605
Muham@@ 31994
March@@ 32858
Medic@@ 32859
Moroc@@ 32861
Mosco@@ 33388
Merco@@ 33969
Matte@@ 34641
Medve@@ 34643
Musli@@ 34648
Marra@@ 35549
Moham@@ 35552
Minister 1575
Monetary 2596
Malaysia 5820
Movement 7005
McKinsey 7932
Medvedev 8703
Marshall 9032
Medicare 9071
Ministry 9125
Margaret 9624
Mohammed 9822
Mohammad 10236
Medicaid 10619
Muhammad 11627
Manmohan 12954
Mexicans 13706
Manafort 14446
Military 14448
Managing 14787
Michelle 15537
Mitchell 15735
Medicine 17065
Michigan 17066
Montreal 17581
Maldives 20390
Mauricio 20393
Mahathir 20832
Master@@ 20833
McMaster 20834
Mercosur 21780
Medellín 22863
Moroccan 23432
McDonald 24032
Massacre 24681
Mindanao 24682
Majority 26139
Marxists 26142
Mongolia 26145
Mountain 26147
McNamara 26949
Maritime 28650
Memorial 28653
Michel@@ 30195
Minist@@ 30196
Mechan@@ 30519
Montre@@ 33970
Matthe@@ 34642
Mushar@@ 34647
Muslim@@ 34649
Magnit@@ 35548
Mussol@@ 35553
Myung-@@ 35554
Musharraf 6724
Microsoft 8780
Mechanism 9343
Migration 13993
Melbourne 14447
Macedonia 14786
Milosevic 15345
Ministers 17580
McConnell 17882
Malaysian 18839
Mogherini 18841
Mussolini 19173
Mauritius 19542
Manhattan 20391
Magnitsky 21299
Medicines 23428
Monterrey 25404
Milošević 26144
Myung-bak 26148
Mélenchon 26149
Mogadishu 27803
Marrakesh 28651
Muslim-@@ 30856
Massach@@ 33968
Maastri@@ 34638
Millennium 6281
Maastricht 9998
Management 10235
Manchester 14274
Mozambique 14955
Mitterrand 15346
Morawiecki 25405
Mar-a-Lago 26947
Mazowiecki 27799
Madagascar 28648
Mogadish@@ 35551
Macierewicz 25399
Machiavelli 28647
Multilateral 22865
Mediterranean 5795
Massachusetts 12742
Machiavelli@@ 27796
Muslim-majority 14956
N 5736
No 8277
NA 15736
NP 33389
New 1737
N@@ 2271
NPT 5989
NCD 8545
NGO 8742
Not 10740
NTC 11106
Now 11107
NSA 16595
NAM 19176
NIH 19957
Nye 21306
NBU 23434
NATO 2301
Nazi 6539
Ne@@ 6698
NGOs 7751
News 8512
No@@ 8981
Next 9823
NCDs 9893
NA@@ 11017
Na@@ 11529
Ni@@ 11530
NASA 11809
Nord 14140
Navy 15143
NP@@ 17583
Nu@@ 17586
NT@@ 18842
NE@@ 19956
NI@@ 20395
Nile 20397
NTDs 20841
Nice 20842
Naif 22326
NPLs 22869
Nadu 24040
Niño 24690
N-11 27804
N-@@ 30523
NC@@ 30524
NG@@ 31606
NB@@ 32862
North 1112
Nobel 4300
NAFTA 5201
Nixon 6645
Nazis 9290
Nepal 10427
Nor@@ 10620
New@@ 11810
Nieto 14276
Niger 14450
Nokia 16358
Nigel 16832
Nehru 17068
Nawaz 17585
Nexus 17888
Nov@@ 17889
Nar@@ 18495
Net@@ 18496
Nak@@ 18843
Naz@@ 19958
Nat@@ 20396
NAIRU 20839
Nik@@ 20843
Nouri 22329
Nancy 22870
Nic@@ 23436
Nan@@ 24041
Needs 24042
Nag@@ 24686
Neves 24689
Naf@@ 25409
Najib 25410
Nep@@ 25412
Now@@ 25415
Nas@@ 26955
Never 27806
Nuc@@ 28659
Nem@@ 30200
Nav@@ 31223
Nai@@ 31995
Nex@@ 32402
Nis@@ 33390
Niñ@@ 33973
NCD@@ 34650
Nam@@ 35555
Norway 6215
Nature 13081
Nordic 13206
Nelson 14627
Nazism 15144
Nasser 16129
Nation 16130
Non-@@ 16833
Nikita 18184
Norman 21305
Nissan 24043
Nevada 25413
Normal 25414
Nearly 26152
Nine@@ 26956
Nestlé 28656
NATO@@ 30199
Numb@@ 30857
Nest@@ 32401
Nami@@ 33971
Nations 1917
Nigeria 4586
Nuclear 6361
Nicolas 7724
Network 11628
Nairobi 12381
Navalny 14449
Nicolás 14957
Navarro 17584
Namibia 18183
NEWPORT 20840
Nicol@@ 22871
Nikol@@ 23437
Nothing 24691
NATO-@@ 26150
Natural 26151
Nemtsov 27805
Numbers 27807
Norwe@@ 31607
Neigh@@ 32863
Nairo@@ 34651
Nurem@@ 34653
Niger@@ 35557
National 2172
November 3077
Northern 6089
Narendra 9072
Nicholas 13082
Nigerian 13845
Napoleon 14626
Novartis 16359
Nation@@ 18844
Nagasaki 19549
Napole@@ 29511
Nichol@@ 31996
Netany@@ 34652
Nether@@ 35556
Netanyahu 4544
Nicaragua 12188
Northeast 12189
Nutrition 17587
Norwegian 18185
Nuremberg 19177
Nasrallah 24687
Nietzsche 28657
Nigerians 28658
Nationally 24688
Nations-@@ 25411
Nicaragu@@ 32403
Neighbor@@ 33972
Netherlands 5064
Nationalist 17887
Neanderth@@ 23435
North-South 23438
Neighborhood 22327
Northwestern 22328
Non-Proliferation 10806
O 4913
On 7600
Os 16598
Of 24044
Oh 25418
OS 30201
OA 31608
O@@ 2637
One 6743
OMT 8546
ODA 9126
Oil 10554
Old 11264
Our 11630
Out 17069
OAS 22872
ORT 26957
OMC 33974
ONT 35558
OECD 4317
OPEC 8547
Oslo 10120
Or@@ 10237
Open 10621
Over 12743
OSCE 13083
Op@@ 13707
Ob@@ 14958
ON@@ 15539
OR@@ 15540
OM@@ 16596
Omar 17890
Ol@@ 18186
Ok@@ 18497
On@@ 19178
Ohio 19959
OS@@ 21307
Only 21308
Oval 21784
Oman 22873
Otto 23439
Once 24045
Ot@@ 24047
Ou@@ 24692
Oc@@ 25416
OBOR 26153
Ox@@ 29512
Os@@ 30526
Oz@@ 34655
Obama 1087
Ocean 7312
Orbán 8704
Osama 11346
Order 15909
Ori@@ 17313
Oxfam 19550
Other 22875
Oscar 24046
Off@@ 25417
Ozawa 25419
Oce@@ 26154
Out@@ 26155
Osaka 27810
Osc@@ 30203
Oli@@ 32864
Orb@@ 33392
OEC@@ 34654
Office 6155
Oxford 7752
Olmert 12274
Orange 12856
Over@@ 14141
Orwell 15347
Oliver 20398
Ortega 20399
Occupy 22331
Oregon 22874
Obam@@ 26958
Oper@@ 27809
Occu@@ 31609
Osse@@ 31610
Okin@@ 32404
Octo@@ 35559
October 3986
Olympic 7933
Ottoman 9894
Osborne 11629
Outlook 13708
Ossetia 14959
Obrador 15737
Okinawa 16360
Orleans 16597
Olivier 18187
Offic@@ 26959
Ottom@@ 27811
Olymp@@ 30525
Olympics 9948
Orthodox 12382
Obasanjo 22330
Opport@@ 33391
Obamacare 8664
Operation 15908
Organiz@@ 30202
Orthodo@@ 32865
Opportunity 15541
Organization 3106
Okonjo-Iweala 27808
P 3730
PA 9586
P5 10741
PC 10742
PR 13207
PP 16132
Ps 16603
P. 19551
PD 19960
PO 20400
PS 21309
PI 22332
PE 31997
PV 31998
P@@ 2029
Pen 5694
PiS 7313
PPP 10555
PKK 11631
PLO 11980
Pew 13208
Pax 13995
PAS 14142
PLA 14278
PRI 14451
PMI 17314
PBC 18845
PYD 20401
PCA 21785
PRD 22876
Pay 24050
PRC 25420
Pan 27812
PhD 28663
PAC 31224
PEC 34656
Paul 3645
Plan 4727
Park 7093
PBOC 7246
Pe@@ 7574
Peru 7725
Pact 7858
Pope 8743
Pi@@ 9393
PE@@ 10290
Po@@ 10428
Post 11265
PA@@ 11433
PR@@ 11721
Poor 11981
Ph@@ 12614
Pa@@ 12744
PI@@ 13460
Pl@@ 13709
PISA 14277
Peña 15146
PN@@ 15348
PP@@ 15542
Pu@@ 15739
PM@@ 16361
Pr@@ 17074
PO@@ 17891
Path 19180
Py@@ 21313
Pius 22338
Palo 22877
PPPs 23440
P-@@ 24048
PT@@ 26960
PD@@ 28660
PTAs 28661
Pole 28665
PK@@ 31225
Putin 1400
Party 1614
Prime 1885
Paris 2362
Peace 5364
Per@@ 5855
Pro@@ 6555
Prize 7272
Power 7388
Panel 7753
Peter 7962
Par@@ 8632
Poles 9625
Pre@@ 9949
Pol@@ 10743
Pen@@ 11722
Pan@@ 12100
Pas@@ 12383
Pri@@ 12959
Pic@@ 13846
Peres 14453
Price 14454
Press 15738
Pad@@ 15910
Pal@@ 15911
Pay@@ 15912
Pearl 15913
PDVSA 16131
Palin 16600
Por@@ 16601
PAR@@ 17070
Point 17073
Pap@@ 18188
Pop@@ 18189
Pot@@ 18190
Pur@@ 18499
Perry 19181
Pon@@ 19184
Pence 19963
Pla@@ 19964
Pra@@ 19967
Patel 20403
Prodi 20407
Paulo 20845
Pru@@ 20847
Paper 21311
Perón 21786
Plaza 21788
Pat@@ 22336
Plato 22340
Put@@ 22344
Pemex 22879
Plu@@ 22883
Ponzi 23441
Psy@@ 24697
Petro 25421
Pes@@ 26963
Pep@@ 27813
Phnom 28664
Pin@@ 30527
Pun@@ 30861
Pit@@ 31228
Pak@@ 31999
Pow@@ 32406
Pom@@ 33394
Poland 3112
People 4218
Policy 5014
Polish 5519
Puerto 8665
Public 9344
Powell 10807
Prague 11811
Prince 12483
Poli@@ 12745
Plenum 13324
Panama 15145
Phelps 15914
Philip 16362
Pervez 17072
Pierre 17317
Pati@@ 17588
Pompeo 17893
Punjab 18498
Piñera 19183
Porter 19966
Palace 20402
Pado@@ 20844
Plan@@ 20846
Prices 21789
Papers 22333
Planet 22339
Potter 22341
Prim@@ 22343
Pelo@@ 22878
Pinker 24051
Prus@@ 24054
Path@@ 24694
Priv@@ 24695
Police 26159
Peru@@ 26962
Plat@@ 26965
Powers 26966
Pari@@ 29513
Pash@@ 29514
Paul@@ 29515
Phil@@ 29516
Plen@@ 30205
Prop@@ 30860
Paci@@ 31226
Pier@@ 31227
Prov@@ 31614
Prof@@ 33395
Pear@@ 33975
Pent@@ 34658
Pike@@ 34660
Pacific 4896
Piketty 6760
Program 7273
Project 8053
Premier 9127
Pradesh 11347
Persian 11723
Problem 13325
Poverty 13847
Patri@@ 14279
Promise 15546
Paulson 16133
Protect 16363
Podemos 16834
Power@@ 16835
Peoples 17071
Pandora 17315
Partn@@ 18846
Pashtun 19179
Post-@@ 19185
Private 19553
Process 19554
Paradox 19961
Patrick 19962
Proctor 20406
Prophet 20408
Parties 22335
Publi@@ 23442
Popular 24052
Pyrrhic 24698
Potem@@ 25423
Paribas 26157
Phili@@ 26158
Parti@@ 26961
Provi@@ 27817
Petro@@ 30204
Peter@@ 32000
Premi@@ 32003
Prote@@ 32867
Princ@@ 33977
Prosp@@ 33978
Pompe@@ 34661
Pitts@@ 35561
Pakistan 1852
Portugal 5055
Protocol 7963
Politics 10291
Pentagon 14452
Progress 15544
Produc@@ 16602
Province 16836
Platform 18847
Protec@@ 19186
Planning 19552
Populism 19965
Pinochet 20404
Peshawar 21787
Philippe 22337
Peterson 22880
Phillips 22881
Promis@@ 24696
Paraguay 26156
Princess 26160
Property 27816
Pakist@@ 30858
Paragu@@ 31611
Proble@@ 31613
Philli@@ 32001
Populi@@ 32002
Princi@@ 32004
Palest@@ 32405
Progra@@ 32407
Presid@@ 33976
Parado@@ 35560
President 727
Palestine 4578
Pakistani 5134
Princeton 6379
Peninsula 6877
Political 10238
Politburo 14960
Programme 17075
Pyongyang 18500
Petroleum 19182
Petrobras 21312
Parkinson 22334
Profess@@ 27815
Philipp@@ 31612
Pennsyl@@ 33393
Program@@ 34662
Portugu@@ 35562
Parliament 4164
Protection 8424
Portuguese 14788
Presidents 15147
Petersburg 15543
Principles 15915
Protestant 16364
Pakistanis 16599
Philippine 17892
Prevention 17894
Population 20405
Prosperity 21790
Presidency 22342
Pittsburgh 22882
Poroshenko 24053
Papandreou 28662
Philadel@@ 34659
Palestinian 2330
Partnership 4187
Philippines 5110
Progressive 15545
Protestants 19187
Pakistan-@@ 21310
Palestinians 3048
Pennsylvania 17316
Presidential 18191
Philadelphia 26964
Parliament@@ 34657
Parliamentary 24693
Politkovskaya 25422
Prize-winning 27814
Proliferation 30859
Palestinian-@@ 32866
President-elect 11724
Palestinian-Israeli 24049
Q 18848
QE 3494
Q@@ 7094
QE3 14143
QE2 20848
Qu@@ 7389
QE@@ 17589
Qing 25424
Qutb 27818
Qa@@ 32408
Qatar 5856
Qaeda 5885
Queen 18192
Qat@@ 22884
Que@@ 31229
Quar@@ 25425
Quebec 28666
Qaddafi 8278
Question 22885
Qaeda-@@ 26161
R 3682
RC 14628
RI 16604
RA 18501
RS 22345
R. 24699
RG 32005
R@@ 2183
Red 9033
Rio 9073
RBI 12101
R2P 12384
RMB 12485
Rex 15150
Rim 16366
Ron 17594
Raj 21792
Roh 26970
Re@@ 3392
Ro@@ 6282
Road 6725
Rome 7174
Roma 8243
Ra@@ 8781
Rico 9394
Ru@@ 10239
Ri@@ 10359
Ryan 10622
Rica 11899
REDD 12484
Ross 13998
Rise 14144
Rice 14456
Risk 14963
Rule 15547
RE@@ 16837
Real 17076
Raúl 17318
RM@@ 17590
RO@@ 18849
Rate 18851
Rust 19190
Rock 19555
Rand 20409
Rick 21797
Race 22346
Rich 22352
Rose 22887
Rudd 23450
Ré@@ 26170
Reef 26967
R-@@ 29517
REER 30206
Recep 8351
Royal 9034
Round 9221
River 9694
Roman 9761
Renzi 10358
Right 10556
Rob@@ 12275
Rajan 13209
Rom@@ 13711
Ros@@ 13848
Ram@@ 13996
Res@@ 14629
Rabin 14961
Ran@@ 14962
Romer 15151
Rus@@ 15152
Ren@@ 15349
Rab@@ 16134
Rud@@ 16367
Rev@@ 16838
Ric@@ 16839
Rec@@ 17895
Rad@@ 19188
Risks 19189
Rap@@ 19968
Rouge 19971
Roc@@ 20410
Rac@@ 20849
Rah@@ 21315
Raj@@ 21316
Raz@@ 21317
Rawls 21794
Rel@@ 21795
Rules 21798
Radio 22347
Raisi 22348
Rem@@ 22886
Raqqa 23443
Rates 23444
Reich 23445
Riv@@ 23446
Rot@@ 23447
Rubio 23449
Rural 23451
Raf@@ 25426
Re-@@ 25428
Rey@@ 26167
Robin 26169
Ris@@ 27823
Rhine 28668
Raw@@ 30528
Rou@@ 31616
Rag@@ 32410
RAN@@ 32868
Rum@@ 33982
Red@@ 35564
Russia 640
Robert 4064
Rights 5097
Reagan 5202
Romney 6599
Ronald 6782
Rwanda 6950
Report 7247
Review 8312
Rogoff 9220
Reform 9430
Rodrik 12386
Return 14789
Reddit 15916
Remain 17591
Riyadh 17593
Relief 18195
Rafael 20850
Rupert 21318
Rail@@ 21791
Rescue 21796
Reli@@ 24056
Rising 24058
Region 24700
Reag@@ 25429
Rompuy 25434
Really 26162
Regi@@ 26164
Recent 27819
Ricans 27822
Rhin@@ 31615
Radi@@ 32409
Rogo@@ 32411
Rafa@@ 33396
Rein@@ 33397
Road@@ 33398
Real@@ 33979
Reco@@ 34663
Rakh@@ 35563
Russian 1565
Reserve 2888
Richard 5917
Rouhani 6906
Romania 9395
Rowhani 14280
Ricardo 14455
Refugee 15149
Rosneft 19556
Rodrigo 19970
Russell 22888
Ramadan 25427
Renew@@ 25431
Rwandan 25436
Recon@@ 26163
Roadmap 26168
Reforms 27820
Rakhine 28667
Regul@@ 30207
Reduc@@ 30862
Rwand@@ 30863
Rodri@@ 33981
Republic 3701
Russians 4488
Research 6556
Reinhart 8873
Rousseff 11018
Regional 12385
Rohingya 12746
Rumsfeld 13461
Refugees 13997
Recovery 15148
Romanian 18196
Raghuram 18850
Ramallah 21793
Respon@@ 22350
Rousseau 23448
Renminbi 25432
Ruhollah 25435
Resource 26165
Remain@@ 32869
Rohing@@ 34664
Resili@@ 35565
Rousse@@ 35566
Recession 7173
Roosevelt 7195
Relations 13710
Russia-@@ 17896
Ramaphosa 18193
Rajapaksa 18502
Reduction 18503
Resources 22349
Rajasthan 24055
Remainers 25430
Rhineland 25433
Revisited 26166
Republi@@ 26968
Republican 2591
Revolution 3619
Resolution 10684
Russian-@@ 12276
Resistance 16365
Regulation 18194
Regulatory 18504
Rafsanjani 21314
Resilience 24057
Republic@@ 30529
Republicans 2985
Realpolitik 18852
Renaissance 18853
Responsible 22351
Rockefeller 26969
Represent@@ 33980
Revolutionary 9895
Republican-@@ 27821
Representative 9760
Reconstruction 16605
Responsibility 17592
Representatives 8242
Republican-controlled 19969
S 4033
SA 15153
SS 17078
So 22357
S. 22889
SE 23452
SR 27824
S@@ 1479
Sea 3604
SDR 4929
SDG 5418
San 7095
Sri 7934
SPD 8425
SEC 11348
Sen 11434
Shi 11900
St. 12487
Suu 12616
SGP 14145
Sam 15549
SNP 16135
Sun 17085
Sir 17600
SNB 17897
SWF 18505
SCO 20411
SOE 20412
São 20422
SDF 21320
Six 22895
Shia 4617
SDGs 5316
St@@ 6646
Sh@@ 6699
SOEs 6808
Sa@@ 7332
Su@@ 8633
Se@@ 8782
Star 9588
Silk 10360
SMEs 10494
Si@@ 11108
SA@@ 11531
SWFs 11532
So@@ 11901
Sy@@ 12103
SD@@ 12747
Shah 12748
SDRs 12960
STEM 13210
Seas 14146
SO@@ 14281
SR@@ 14282
Saud 14459
SCAF 14630
Sp@@ 15355
SE@@ 15740
Serb 15918
SB@@ 17077
Sadr 17079
Sk@@ 17321
Save 17596
Safe 18506
Sw@@ 18858
SNCF 19191
SP@@ 19557
Sufi 19568
SL@@ 19972
SS@@ 19973
Sisi 19976
Sein 20853
Some 20855
SARS 21319
SM@@ 21799
Song 21803
Suez 21807
Snow 22896
Side 23456
Sony 24063
SN@@ 24701
Soft 24709
Seed 26172
Sikh 26174
Swat 26986
Step 28674
SW@@ 30864
Sc@@ 30868
Sé@@ 33405
South 1037
Syria 1484
Saudi 2109
State 2275
Spain 2527
Sunni 4018
Sudan 5637
Sha@@ 7390
Seoul 7601
Singh 7785
Sachs 8077
Sch@@ 8279
Sal@@ 8548
Smith 8598
Swiss 8982
Sinai 9950
Soros 11109
Shi@@ 11188
Since 11266
Ste@@ 11435
Sur@@ 11726
San@@ 11812
Sol@@ 11984
Ser@@ 12486
She@@ 12857
Sam@@ 13084
Str@@ 13715
Sin@@ 13850
Steve 13851
Sadat 14283
Silva 14460
Strip 14462
Scott 14631
Shell 14964
Sen@@ 15155
Sil@@ 15156
Staff 15157
Sho@@ 15353
Sahel 15548
Stu@@ 15550
Sandy 15741
Sav@@ 15917
Sou@@ 15920
Stern 15921
Saleh 16136
Stock 16138
Space 16607
Sun@@ 16608
Serbs 16841
Sum@@ 16842
Syn@@ 16843
Sar@@ 17080
Sat@@ 17081
Sab@@ 17319
Sim@@ 17320
START 17595
Susan 17602
Study 17898
SWIFT 18197
Sochi 18201
Stein 18202
Solow 18508
Sub@@ 18511
Sor@@ 18855
Sup@@ 18857
Sec@@ 19192
Sta@@ 19194
Saint 19558
Sarah 19560
Smo@@ 19565
Spe@@ 19566
Sie@@ 20415
Smart 20417
Santa 20851
Scots 20852
Swe@@ 21327
Shu@@ 21802
Steel 21806
Simon 22354
Still 22361
Sonia 22897
Sev@@ 23454
Sel@@ 24060
Shoal 24061
Sik@@ 24062
Spr@@ 24064
Storm 24711
SDR@@ 25437
Sto@@ 25449
Stone 26178
Shias 26978
Sul@@ 26985
Six@@ 27829
Som@@ 27830
Sixth 28671
Swa@@ 28675
Sad@@ 29518
Saf@@ 29519
Suc@@ 29522
Sak@@ 30530
Sau@@ 30531
Sla@@ 30532
Sof@@ 30533
Squ@@ 30534
Sir@@ 31230
Sic@@ 32416
Sci@@ 33400
Sus@@ 33988
SCA@@ 34665
Sud@@ 34672
SAR@@ 35567
See@@ 35570
States 768
Soviet 2179
Syrian 2939
Social 4587
Senate 4696
Sweden 4847
Street 4854
Spring 5111
Saddam 5631
Stalin 6156
Summit 6410
Serbia 6519
School 6970
Shinzo 7274
Square 7602
Saudis 7897
System 8599
Sharon 8825
Sunnis 8826
Syriza 9178
Second 9396
Sharif 10292
Silvio 11349
Salman 11533
Sierra 11813
Sergei 12962
Santos 13462
Stream 13464
Stat@@ 13714
Sunday 13852
Shiite 13999
Single 14148
Sheikh 14284
Survey 14285
Steven 14461
Sand@@ 15154
Should 15354
Supp@@ 15743
Strait 15922
Stuart 16139
Sahara 16368
Sher@@ 17082
Sharia 18199
Sultan 18856
Swaraj 18859
Sydney 19196
Sing@@ 19563
Spence 19567
Sector 19974
Shar@@ 19975
Somali 20419
Sude@@ 20420
Summer 20858
Samuel 21321
Scho@@ 21322
Sechin 21323
Stre@@ 21325
Syri@@ 21328
Star@@ 21805
Safety 22890
Shimon 22892
Shin@@ 22893
Shrine 22894
Six-@@ 23458
Secret 24059
Sartre 24702
Sergey 24706
Shadow 24707
Some@@ 24710
Scheme 25440
Slov@@ 25443
Speech 25445
Stal@@ 25446
Search 26171
Shor@@ 26173
Swedes 26182
Shan@@ 26975
Slav@@ 26981
Soli@@ 26982
Stra@@ 26983
Sendai 27826
Spec@@ 27832
Sove@@ 28673
Sett@@ 30208
Shim@@ 30209
Soci@@ 30210
Sach@@ 30865
Salv@@ 30866
Sant@@ 30867
Scar@@ 30869
Stan@@ 30870
Stig@@ 30872
Ster@@ 31617
Sund@@ 31619
Scot@@ 32412
Send@@ 32413
Shen@@ 32414
Shev@@ 32415
Stag@@ 32875
Stev@@ 32876
Swis@@ 33403
Swit@@ 33990
Safe@@ 34666
Sanc@@ 34667
Scan@@ 34668
Snow@@ 35572
Sput@@ 35573
Sust@@ 35575
Sarkozy 4366
Supreme 4810
Spanish 5337
Summers 5961
Somalia 6907
Sanders 7363
Senator 7632
Silicon 8149
Special 8280
Science 8597
Swedish 9036
Service 9345
Syrians 9626
Society 10064
Stephen 10293
Senkaku 12190
Snowden 12277
Soviets 12858
Stanley 13713
Seattle 13849
Serbian 14147
Speaker 14149
Senegal 14632
Shia-@@ 15352
Sputnik 15742
Shiller 15919
Schul@@ 16606
Schmidt 17597
Section 17598
Studies 17601
Salaf@@ 18198
Siberia 18507
Stearns 18510
Samsung 18854
Salvini 19559
Schuman 19561
Sichuan 19562
Sirleaf 20416
Systems 20421
Sino-@@ 20854
Sebas@@ 21801
Schol@@ 22353
Suharto 22363
Super@@ 22364
Spratly 22899
Stran@@ 22900
Sino-US 23457
Species 23459
Stein@@ 24065
Secre@@ 24705
Shiites 24708
Schmitt 25441
Stevens 26177
Survi@@ 26181
Self-@@ 26973
Success 26984
Schum@@ 27825
Saudi@@ 28669
Société 28672
Sunni@@ 29523
Steph@@ 30871
Struc@@ 31618
Schrö@@ 32870
Shang@@ 32872
Spani@@ 32874
Stock@@ 33402
Saraj@@ 33983
Satur@@ 33984
Secon@@ 33986
Sovie@@ 34670
Stand@@ 34671
Schro@@ 35568
Siber@@ 35571
Security 2187
Shanghai 5782
Scotland 6216
Strategy 7726
Southern 8929
Stanford 9035
Stiglitz 9291
Scottish 9587
Services 11725
Schäuble 11982
Slovakia 11983
Santiago 12102
Schengen 12615
Standard 12963
Sciences 13463
Salvador 14458
Schröder 15350
Standing 16369
Slovenia 17083
Shenzhen 17599
Sunni-@@ 19195
Slobodan 19564
Seehofer 20413
Solution 20418
Sudanese 20857
Sarajevo 21800
Socrates 22358
Somali@@ 22359
Schwar@@ 22891
Saturday 24703
Saudi-@@ 25439
Senators 25442
Sakharov 26971
Shenyang 26976
Sheremet 26977
Sikorski 26979
Siberian 27827
Syndrome 27834
Ségolène 27835
Santorum 29520
Steagall 30535
Strate@@ 30873
Straus@@ 30874
Statis@@ 32006
Sloven@@ 32873
Schmit@@ 33399
Senkak@@ 33401
Schmid@@ 33985
September 2660
Secretary 3228
Singapore 4153
Stability 5545
Southeast 5902
Socialist 9255
Stockholm 11350
Strategic 12388
Samuelson 13326
Schroeder 16137
Soviet-@@ 19193
Solutions 19977
Standards 21324
Spaniards 21804
Sovereign 22898
Sanctions 25438
Socialism 25444
Stalinist 25447
Starbucks 25448
Singapo@@ 26175
Scienti@@ 26972
Stalinism 27833
Sinhalese 28670
Schumpe@@ 32871
Switzer@@ 33404
Stabili@@ 33987
Sustain@@ 33989
Srebren@@ 35574
Solidarity 11814
Securities 12387
Socialists 13327
Schumpeter 13712
Sunni-Shia 14633
Statistics 17322
Shinawatra 18200
Srebrenica 18509
Scientific 23453
Stagnation 23460
Supervis@@ 25450
States-led 26176
Strasbourg 26179
Structural 26180
Shakespe@@ 34669
Sustainable 4966
Sub-Saharan 6188
Switzerland 6557
Saakashvili 14457
Settlements 15351
Scandinavia 16840
Sykes-Picot 19978
Supervision 21326
Subramanian 22362
Scarborough 24704
Shakespeare 26974
Sino-Indian 27828
Scandinavian 12961
Solzhenitsyn 17084
Self-Defense 20414
Strauss-Kahn 20856
Smoot-Hawley 22356
Shevardnadze 23455
Sino-Russian 26980
Soviet-style 27831
Scandinavi@@ 29521
Secretary-@@ 35569
Sino-American 14790
Sino-Japanese 22355
Stabilization 22360
Sustainability 23461
Secretary-General 8148
T 4685
TB 5033
TV 6951
TA 12278
To 13085
TC 15551
TS 17900
T3 19569
TO 21809
Ts 21815
T. 25451
The 1322
T@@ 2102
TPP 2703
Tax 10000
Tea 10294
Tel 10295
TFP 10557
Two 11352
Tom 15159
Ted 15744
Too 15925
Tim 19572
Ten 20860
Taj 22902
TON 31620
TES 34673
TER 35576
TTIP 6283
Tony 7503
This 8112
Th@@ 9762
Time 9824
To@@ 10558
TR@@ 10685
Te@@ 10949
Thai 11189
Ta@@ 13465
Tw@@ 14001
Ty@@ 14634
Tr@@ 14793
Tusk 14794
Test 14965
Tu@@ 14967
Ti@@ 15158
Trap 15160
Tech 17086
TF@@ 18203
TT@@ 18512
Task 18513
That 19571
Tsai 19980
Ts@@ 20863
TE@@ 21808
T-@@ 22365
TA@@ 22901
Town 22907
TN@@ 23462
Term 23464
They 23465
Tory 24066
TO@@ 24712
TVET 24713
Tung 24719
Tz@@ 26994
Tube 33407
Trump 583
Trade 2766
Times 5846
Tokyo 5903
Third 7006
Tri@@ 8513
Tibet 8874
Texas 9896
There 10121
Tur@@ 10495
Turks 10745
Tal@@ 12488
Three 12489
Tra@@ 12965
Trust 13212
The@@ 13716
Tom@@ 13717
Tamil 14000
Tobin 14792
Today 14966
Tru@@ 15356
Tar@@ 15552
Tha@@ 15745
Tre@@ 16142
Truth 16370
Tor@@ 17327
THAAD 17603
Tro@@ 17604
Tesla 18205
Tim@@ 18860
Tiger 19197
Tak@@ 20423
Tig@@ 20424
Tai@@ 20859
Ten@@ 21329
Tam@@ 21810
Tudor 21816
TAR@@ 22366
Temer 22367
Ter@@ 22905
Thiel 22906
Tou@@ 23466
Thein 24716
Timor 24717
Tat@@ 25452
Tunis 25454
Tow@@ 26188
Tower 26189
Tem@@ 26988
Tob@@ 26989
Trial 26992
THA@@ 28676
Tes@@ 29525
Tok@@ 30877
Tus@@ 30879
Tah@@ 31231
Tun@@ 31232
Teh@@ 32007
Tay@@ 32877
Tsa@@ 33406
Taj@@ 33992
Toc@@ 33995
Tud@@ 33996
Tex@@ 34674
Thi@@ 34675
TVE@@ 35577
Tol@@ 35584
Toy@@ 35585
Tsi@@ 35588
Turkey 1403
Treaty 3343
Taiwan 4301
Thomas 6248
Tayyip 8352
Taylor 11436
Target 12191
Tehran 12389
Tahrir 14463
Thirty 14791
Threat 15923
Theory 16140
Truman 16143
Terror 16844
Tele@@ 17323
Thin@@ 17324
Things 17325
Tigers 17326
Tran@@ 17902
Tren@@ 17903
Tariff 19979
Troika 21332
Tsar@@ 21333
Temp@@ 21811
Tories 21813
Thaler 22368
Ther@@ 22370
Tamils 23463
Trou@@ 23467
Take@@ 24714
Turk@@ 25455
Than@@ 26183
Tian@@ 26186
Toyota 26190
Trot@@ 26993
Tali@@ 29524
Thom@@ 29526
Thre@@ 29527
Terr@@ 30211
Thir@@ 30536
Tanz@@ 30875
That@@ 31621
Tuni@@ 31622
Tari@@ 32417
Trum@@ 32879
Thak@@ 33993
Timo@@ 33994
Taiw@@ 35578
Thou@@ 35580
Turkish 3944
Taliban 4302
Twitter 5154
Tunisia 5438
Thaksin 8983
Theresa 9695
Tsipras 10744
Trichet 11437
Tibetan 12279
Trump@@ 13328
Timothy 15924
Tobacco 16141
TARGE@@ 17899
Tripoli 18206
Trading 18861
Tariffs 19570
Tencent 20861
Toronto 20862
Thought 21330
Trudeau 21814
Tarullo 22903
Trans@@ 22908
Trouble 24718
Tolstoy 25453
Theod@@ 26184
Through 26185
Typhoon 26192
Teheran 27836
Tragedy 27839
Test-@@ 28677
Turki@@ 28679
Tahri@@ 33991
Tayyi@@ 35579
Tibet@@ 35583
Treasury 3816
Thailand 5604
Thatcher 7248
Tanzania 11267
Tunisian 15746
Techno@@ 18204
Tribunal 19198
Transd@@ 21331
Trump-@@ 22371
Terminal 24715
Tibetans 26187
Taxation 26987
Trans-@@ 26990
Tropical 27840
Territ@@ 30876
Transi@@ 32878
Tolsto@@ 34676
Tianan@@ 35582
Tribun@@ 35587
Tillerson 11190
Tiananmen 11351
Taiwanese 12964
Terrorism 21812
Tennessee 22904
Thirty-@@ 28678
Twenty-@@ 28680
Turkmen@@ 30878
Thucydi@@ 35581
Transat@@ 35586
Technology 13211
Treasuries 14150
Tymoshenko 14968
Tajikistan 17901
Thucydides 18514
Transition 20425
Thatcher@@ 22369
Throughout 27838
Tocqueville 14286
Territories 27837
Twenty-five 28681
Tuberculosis 17087
Transparency 17328
Twenty-First 18862
Turkmenistan 20426
Trumponomics 26191
Transitional 26991
Trans-Pacific 6677
Transatlantic 10808
Transformation 22909
U 7727
US 128
UN 1667
UK 1712
Up 11191
Us 19575
U@@ 3781
UBI 13466
UAE 15553
UPA 17330
USA 26195
Un@@ 6236
Uber 8353
UN@@ 10686
USSR 13718
US@@ 14635
UMNO 16371
Ur@@ 17088
UKIP 18863
UNEP 19573
Up@@ 19574
USTR 19981
U-@@ 20427
UK@@ 24067
U.S. 26193
Ul@@ 26995
UA@@ 28682
UR@@ 28684
Union 1061
US-@@ 5681
Uni@@ 11534
Uribe 12490
UNRWA 16609
UNHCR 17329
Under 19199
USMCA 20864
Urban 21334
Uttar 21335
UN-@@ 21817
USAID 21819
Until 24722
Upper 26196
UK-@@ 28683
UNF@@ 30880
UST@@ 32418
UNA@@ 32880
Uru@@ 33408
Uri@@ 33997
Utt@@ 34678
UNR@@ 35589
United 525
US-led 7964
Uganda 8783
UNICEF 12617
UNESCO 15747
UNFCCC 17904
UNCLOS 21818
Uigh@@ 24721
U-turn 25456
UNAIDS 26194
Uzbe@@ 26996
Ugan@@ 31233
Ukra@@ 31623
UNES@@ 34677
USAI@@ 35590
Ukraine 1613
Uruguay 12390
Under@@ 20865
US-Iran 25458
Urugu@@ 33998
US-China 9763
US-Japan 16610
US-based 17605
US-South 22910
US-India 25457
Unilever 25460
Ukrainian 6303
Universal 12618
US-backed 24720
Ukraini@@ 32008
University 3069
Ukrainians 10065
Uzbekistan 16372
Underground 25459
V 7898
Vs 14969
VI 28685
V@@ 3387
VAT 15357
Van 18515
VSA 34679
VEN 35591
Vice 8281
Vi@@ 11632
Ve@@ 14287
Vo@@ 15358
VI@@ 19576
Vá@@ 21822
VE@@ 22372
V-@@ 24723
Val@@ 11902
Ver@@ 12104
Vol@@ 13468
Vic@@ 16845
Valls 17606
Van@@ 18516
Vegas 18517
Ven@@ 19577
Vis@@ 23468
Vichy 25461
Vel@@ 26198
Vir@@ 26998
Vil@@ 27842
Vie@@ 29528
Var@@ 30881
Vik@@ 32419
Viktor 7275
Valley 7465
Vienna 9074
Vision 18207
Venice 18864
Venter 19982
Values 20866
Vent@@ 21336
Vill@@ 21337
Valéry 21821
Vene@@ 24068
Versus 24069
Victor 24070
Vargas 24724
Vacc@@ 26197
Viol@@ 31234
Virg@@ 32420
Vien@@ 33409
Volk@@ 34000
Vietnam 3989
Volcker 9222
Vatican 14002
Vaccine 21820
Village 24725
Vice-@@ 26199
Victory 26997
Vicente 27841
Vladi@@ 31235
Vietn@@ 34681
Vladimir 3702
Virginia 16373
Violence 24071
Villepin 24726
Venezuela 3726
Victorian 28686
Victori@@ 34680
Venezuelan 9128
Varoufakis 12749
Vietnamese 17089
Versailles 22911
Volkswagen 25462
Venezuel@@ 33999
Volkswag@@ 34682
Venezuelans 13467
W 5455
W. 4198
We 6266
Ws 32010
WA 34001
War 1423
W@@ 2653
WTO 4224
WHO 7899
Web 8282
Wen 9498
Why 12491
Way 12750
WWI 15161
Who 17608
WEF 19578
West 1298
Wall 4561
When 6331
We@@ 7535
With 7688
What 9179
WWII 9256
Work 11535
Will 12105
Wa@@ 12859
Wo@@ 13853
Wi@@ 14003
Wolf 15162
Wars 16847
Wang 17607
Wh@@ 19201
WM@@ 21338
WH@@ 29529
WW@@ 30212
Wy@@ 30539
Wr@@ 32421
World 1076
White 4388
Woods 7121
Women 9346
Wil@@ 11019
Wal@@ 11633
War@@ 11903
Water 12391
Wor@@ 12392
Wat@@ 14970
Watch 15360
Weber 17091
Wel@@ 17905
Wer@@ 17906
Wrong 17908
While 18518
Wales 20867
Wol@@ 20869
Win@@ 22914
Wen@@ 26999
Wis@@ 31624
Wah@@ 32881
Wik@@ 33410
Warren 10496
Warsaw 10687
Wilson 10950
Walter 15926
Wealth 15927
Watson 17090
Well@@ 17092
Winter 18208
Wilbur 19581
What@@ 21824
Walker 22912
Weimar 22913
Wick@@ 23470
Wiesel 26202
War-@@ 28687
West@@ 28689
Wood@@ 30213
Wind@@ 30538
Weap@@ 30882
Wash@@ 32882
Wolf@@ 32883
Weim@@ 34002
Wiki@@ 34003
With@@ 34004
Western 1476
William 9499
Winston 11353
Workers 11438
Wilders 12619
Without 13719
Wahhabi 15359
Weapons 17331
Willi@@ 17907
Walmart 18865
Working 18866
Water@@ 19200
Woodrow 20428
Windows 21339
Wyoming 24072
Warming 24727
Welfare 25463
War-era 26200
Wolfgang 12492
Wal-Mart 16846
Watanabe 19579
Wester@@ 21823
Wildlife 27000
Wahhab@@ 32009
Wolfowitz 13329
WikiLeaks 20868
Wikipedia 21825
Wisconsin 22373
Wahhabism 27843
Watergate 28688
Westpha@@ 30537
Wal-Mar@@ 34683
Washington 2401
Westerners 13573
Western-@@ 14464
Wolfensohn 16144
Waziristan 19983
Westerni@@ 19984
Westminster 23469
Westphalian 26201
Western-style 19580
X 9129
Xi 2634
X@@ 6347
XVI 28690
XD@@ 32011
Xilai 20429
Xin@@ 27845
Xia@@ 28691
Xiaobo 18867
XDR-TB 27844
Xiaoping 8744
Xinjiang 14636
Xiaochuan 22915
Y 11110
Yi 27847
Y@@ 3817
You 13574
Yes 14151
Yar 18519
Yew 22374
Yom 27001
YORK 2859
York 3213
Year 8634
Yu@@ 12860
Yale 13330
Yo@@ 15554
Ye@@ 16374
YP@@ 19582
Yong 22375
Ya@@ 25464
Yemen 5074
Years 13854
Youth 13855
Young 15361
Yukos 15928
Yor@@ 17093
Yahoo 19202
You@@ 19583
Yasir 25466
Yez@@ 26203
Yal@@ 27846
Yun@@ 30884
Yel@@ 32884
Yuk@@ 32886
YOR@@ 35592
Yellen 8313
Yemeni 16145
Yellow 20430
Yuliya 23471
Yangon 25465
Yasser 25467
Yunnan 27002
Yong@@ 30214
Youn@@ 30215
Yang@@ 31625
Yitz@@ 32885
Yasu@@ 33411
Yelt@@ 33412
Ying@@ 33413
Yeltsin 8784
YouTube 12280
Yitzhak 18868
Yemen@@ 30883
Yasukuni 13331
Yingluck 24728
Yongbyon 27848
Yugosla@@ 29530
Yanukov@@ 34684
Yanukovych 7466
Yugoslavia 9347
Yushchenko 13332
Z 13856
Zs 18522
Z@@ 4517
Zhu 16848
Zhou 10173
Zuma 12393
Zika 14971
Zone 15163
Zhao 15362
Ze@@ 16611
Zero 18520
Zi@@ 18521
Zine 22916
Zh@@ 24729
Zo@@ 32012
Zu@@ 35593
Zak@@ 19584
Zar@@ 22376
Zap@@ 27003
Zemin 27849
Zed@@ 30540
Zha@@ 31236
Zam@@ 31626
Zuc@@ 32013
Zim@@ 34006
Zem@@ 34685
Zedong 12966
Zurich 19986
Zambia 20870
Zidane 26204
Zeal@@ 34005
Zion@@ 34686
Zealand 9130
Zionism 13720
Zionist 16146
Zardari 19985
Zimbabwe 8785
Zoellick 22917
Zimbab@@ 25468
Zionists 28692
Zuckerberg 16612
a 11
as 33
an 93
at 110
al 2729
am 2895
ar 3936
ad 4897
ah 6558
ak 7292
ay 9592
ai 10066
au 11446
ao 13340
ac 14638
ap 17615
ae 18214
ag 19208
aa 21340
ab 21826
aw 25508
ax 31265
aj 32021
and 8
are 47
all 218
any 613
ago 1308
age 1968
aid 2000
act 2127
ate 2585
air 2860
a@@ 3302
add 3774
ask 3899
aim 4110
ans 4115
als 4494
ant 4674
art 5990
ard 6284
ary 6522
ars 6810
amp 7096
ats 7150
ana 7657
ang 8000
ani 8001
ack 8387
ads 8666
arm 8878
ade 9181
acy 9431
ass 9828
ale 10001
ath 10178
ast 10564
ari 11444
ams 11538
ach 11729
app 11818
ash 12194
ada 12496
ano 12497
ama 12755
adi 13213
ace 13722
ame 14010
ain 14291
ake 14292
ala 14293
ami 14296
ase 14298
aps 14472
ata 14804
awi 14983
ays 15172
ado 15556
ara 16382
ald 16619
aya 16625
apt 16863
ali 17612
ati 17924
akh 18527
ave 18538
ane 19213
arc 19220
ady 19591
afi 19592
aba 20871
aka 20876
al- 20877
asy 20894
awa 20898
aks 21347
aro 21360
awe 21365
aev 21836
aca 22380
asi 22946
aly 23482
ank 23484
ail 25482
avi 26260
aar 27004
ape 27037
att 27049
aki 29543
abe 31237
apa 32894
apy 32898
aty 32907
aul 34037
ahu 34704
adu 35608
also 285
able 1332
away 1946
area 2821
ated 3025
ates 3113
an@@ 3260
ally 3487
army 3646
am@@ 3696
arms 3720
al@@ 3823
ar@@ 3918
ab@@ 4261
at@@ 4329
ag@@ 4343
ad@@ 4493
as@@ 4588
ap@@ 4920
ac@@ 5015
aims 5419
acts 5439
au@@ 5465
ance 5606
a-@@ 5886
ator 6157
amid 6507
ages 6540
ably 6621
ak@@ 6744
af@@ 7124
ay@@ 7197
aged 7364
av@@ 7661
az@@ 7861
aren 8667
ants 8830
aw@@ 9546
ades 9825
ah@@ 9953
akin 10067
axis 10241
auto 10690
ai@@ 10746
adds 11020
atic 11194
arts 12284
alas 12394
acks 12752
ards 13215
ased 13724
asis 13861
aded 14152
aled 14294
alls 14974
ater 14980
ases 15168
asks 15371
anic 15561
ax@@ 15569
aker 16377
akes 16378
ante 16621
aces 16851
ancy 16859
anda 17097
ania 17098
apes 17099
agan 17337
anne 17613
anis 18217
ared 18220
alty 18880
arly 18887
ales 19210
aria 19222
aj@@ 19595
apps 19600
arch 20000
ario 20001
aire 20435
aned 20439
anew 20440
ange 20441
arma 20888
ands 21355
abad 21827
ails 21840
aine 21841
atop 21863
adly 22384
aked 22388
atus 22399
ains 22930
ashi 22945
ason 23495
acha 24076
ache 24077
acid 24078
aide 24082
andi 24088
anov 24091
ardo 24760
aste 24762
achi 25475
aise 25483
ager 26220
aura 26257
acle 27009
alid 27024
arid 27041
asts 27883
ault 27888
awry 27891
acre 28697
aint 28708
amed 28713
atch 28737
ause 29553
apse 30226
athy 30553
anks 30893
atly 30902
aust 30906
aped 31253
asia 31257
ahda 31639
ames 31647
anza 31653
atal 31659
atel 32031
auer 32035
augh 32036
agon 32427
ardy 32438
akia 32890
amin 32892
abis 33414
aper 33418
atin 33426
aton 33428
aced 34008
aden 34011
ague 34015
airs 34017
ande 34022
anol 34024
asir 34031
atum 34036
ador 34698
alin 34705
alth 34708
arro 34717
arta 34718
atry 34725
adic 35606
aism 35613
assy 35629
aten 35631
azir 35636
about 306
after 510
among 949
again 1499
areas 1699
alone 1851
avoid 2119
allow 2154
above 2197
along 2315
asset 2523
ahead 2578
argue 2668
aimed 2760
ating 2848
ation 2958
agree 2967
asked 3425
al-@@ 3719
armed 3850
adopt 4229
added 4288
aging 4318
apply 4599
alike 4796
aside 4830
apart 5144
abuse 5305
aware 5466
adapt 5605
anger 5682
ali@@ 6319
alism 6348
acute 6363
arise 6364
ative 6395
ality 6520
ators 6811
alist 7007
ati@@ 7196
acted 7333
alive 7536
an-@@ 7537
ari@@ 7577
admit 7603
ample 7656
angry 7658
att@@ 8025
alter 8514
actor 8550
atory 8745
all@@ 8786
ang@@ 8787
array 8788
and@@ 8931
adult 9131
ass@@ 9133
air@@ 9223
align 9257
avert 9258
amp@@ 9348
ann@@ 9349
alize 9501
ach@@ 9627
ate@@ 9628
are@@ 9765
ast@@ 9829
agent 9897
asi@@ 10002
avi@@ 10124
aries 10297
aff@@ 10361
alarm 10498
aring 10953
ack@@ 11268
ath@@ 11445
arm@@ 11732
ade@@ 12106
ani@@ 12192
aided 12283
arena 12396
acc@@ 12620
ail@@ 12621
acies 12751
ar-@@ 12864
ash@@ 12866
arose 12970
abide 13469
ading 13470
apo@@ 13474
alo@@ 13577
ately 13583
ain@@ 14153
alert 14295
arrow 14297
ables 14465
aides 14468
arity 14474
ano@@ 14641
aci@@ 14795
any@@ 14800
antly 14977
at-@@ 14979
aming 15167
ace@@ 15363
aling 15364
amend 15748
award 15936
abyss 16149
ado@@ 16152
anism 16156
asu@@ 16158
arian 16384
aches 16616
age@@ 16854
ais@@ 16855
ant@@ 16860
atism 16868
await 16869
app@@ 17100
adept 17335
aders 17336
ances 17338
arial 17343
aud@@ 17344
anc@@ 17917
abi@@ 18210
aking 18215
asing 18221
asses 18223
aters 18225
awa@@ 18227
aly@@ 18528
as-@@ 18532
adi@@ 18874
alu@@ 18881
anu@@ 18883
asc@@ 18889
aes@@ 19206
astic 19224
awash 19226
alien 19596
audit 19604
agony 20434
arist 20445
atter 20448
ached 20872
agile 20875
assed 20891
alled 21349
ander 21354
angst 21356
ask@@ 21361
aug@@ 21364
abe@@ 21828
allay 21844
altar 21845
amply 21846
asy@@ 21862
acity 22381
adage 22383
alley 22390
acker 22926
aku@@ 22931
aning 22935
apped 22939
aqu@@ 22941
asted 22947
atist 22948
annex 23485
avail 23499
avo@@ 23500
aim@@ 24083
akh@@ 24084
ashes 24102
andum 24754
aul@@ 24767
awful 24769
abo@@ 25472
aby@@ 25474
alese 25484
aloof 25487
ame@@ 25488
amm@@ 25489
anz@@ 25494
auris 25505
acres 26216
alpha 26225
ard@@ 26238
arism 26240
aster 26244
abh@@ 27005
akers 27020
alous 27028
aping 27038
ature 27052
ained 27859
aller 27866
allas 28710
ament 28714
ana@@ 28715
anche 28716
angle 28718
apace 28725
abu@@ 29533
aca@@ 29534
adays 29536
add@@ 29537
adj@@ 29539
agu@@ 29542
ateau 29551
ayy@@ 29556
abs@@ 30217
arily 30227
athan 30231
auc@@ 30232
agers 30542
anian 30545
arg@@ 30549
atric 30554
ación 30885
acles 30886
antic 30894
asion 30899
amine 31251
aph@@ 31254
art@@ 31256
asive 31258
aties 31259
awi@@ 31263
awk@@ 31264
adise 31633
ailed 31640
alg@@ 31645
apu@@ 31654
attle 31660
ady@@ 32015
ago@@ 32019
anced 32024
asp@@ 32030
athed 32032
athon 32033
atoes 32034
aur@@ 32037
azi@@ 32039
achal 32423
acked 32424
acu@@ 32425
allen 32429
anx@@ 32436
archy 32437
apers 32895
asaki 32903
amese 33415
anity 33416
atest 33425
acing 34009
agr@@ 34014
aires 34016
asure 34032
atiya 34034
attan 34035
adh@@ 34697
allah 34707
antes 34713
arios 34715
agh@@ 35612
anese 35623
around 1023
almost 1219
access 1407
action 1532
across 1564
always 1642
annual 1813
assets 1828
agenda 2079
allies 2423
accept 2549
agreed 2609
amount 2611
answer 2618
attack 2638
argued 3016
abroad 3080
anyone 3097
appear 3339
afford 3661
active 3752
actors 3782
affect 3822
ations 3824
assume 4072
allows 4710
appeal 4711
actual 4829
acting 4883
advice 5280
argues 5281
agency 5796
albeit 5933
asking 6141
assess 6142
adding 6189
adjust 6267
animal 6726
asylum 6746
accord 6783
adults 6909
absorb 6971
abuses 6972
attend 7097
absent 7215
arrest 7250
anemic 7391
agents 7419
alized 7575
aspect 7935
anti@@ 8467
alists 8829
and-@@ 8986
assert 9038
author 9039
adhere 9432
arrive 9435
arises 9502
anyway 9826
assist 10004
affair 10240
absurd 10497
anchor 10623
afraid 11021
all-@@ 11271
abrupt 11727
armies 11819
ate-@@ 11820
agrees 11986
allied 11987
advent 12107
alle@@ 12108
ater@@ 12110
autumn 12111
arming 12193
atomic 12624
abound 12967
alizes 13337
anim@@ 13339
aiming 13471
alli@@ 13576
aspire 13581
assi@@ 14014
abor@@ 14637
arrows 14802
assure 14803
avoids 15171
accuse 15555
ailing 15559
attest 15567
alling 15930
attain 15935
air-@@ 16155
age-@@ 16376
abused 16615
atri@@ 16624
accrue 16850
arch@@ 16864
acious 17334
apathy 17340
auto@@ 17619
acqu@@ 17911
admits 17913
anom@@ 17918
arable 17922
advise 18526
ascent 18533
awaits 18539
addi@@ 18872
adopts 18876
aiding 18879
appe@@ 18884
assa@@ 19223
admire 19590
afloat 19593
arians 19601
asures 19603
aching 19987
aerial 19991
allure 19993
alumni 19994
arisen 20002
arti@@ 20003
aler@@ 20437
anno@@ 20443
artist 20446
avowed 20449
anch@@ 20884
ast-@@ 20892
asthma 20893
adap@@ 21343
apping 21358
assign 21362
aliz@@ 21843
animus 21848
ardent 21854
astute 21861
atro@@ 21864
atters 21866
aven@@ 21872
aboard 22379
admi@@ 22385
ance@@ 22392
abject 22919
aceful 22923
achi@@ 22925
adul@@ 23475
affirm 23478
apples 24098
asse@@ 24104
attach 24108
acy-@@ 24734
ador@@ 24737
agro@@ 24741
allu@@ 24746
alogue 24747
amidst 24751
asto@@ 24763
awaken 24768
acti@@ 25476
anci@@ 25491
aren@@ 25496
atom@@ 25503
actu@@ 26217
ambi@@ 26227
arcane 26236
astray 26245
athe@@ 26248
augu@@ 26256
avenue 26259
albe@@ 27022
ale-@@ 27023
aligns 27025
anem@@ 27030
ange@@ 27031
anians 27032
antine 27035
argu@@ 27040
asting 27044
athers 27047
atings 27048
accede 27851
aceu@@ 27854
adrift 27857
airing 27860
al-N@@ 27861
al-Z@@ 27863
ani-@@ 27870
anni@@ 27873
antics 27875
ary-@@ 27879
ashtra 27881
atives 27884
augurs 27887
acumen 28698
agging 28703
alth@@ 28712
annu@@ 28720
anthem 28721
are-@@ 28730
audi@@ 28740
adop@@ 29540
apit@@ 29547
assu@@ 29550
atures 29552
averse 29555
agon@@ 30219
apar@@ 30224
aspi@@ 30551
ateful 30552
aust@@ 30555
acri@@ 30887
agre@@ 30891
apor@@ 30896
ardi@@ 30897
asions 30900
atol@@ 30903
awat@@ 30907
abst@@ 31238
advi@@ 31244
atized 31260
avan@@ 31261
aver@@ 31262
addafi 31632
aero@@ 31636
alties 31646
ancies 31648
answ@@ 31650
ard-@@ 31656
atable 31658
agno@@ 32018
agri@@ 32020
amaz@@ 32022
aments 32023
abli@@ 32422
allo@@ 32430
angu@@ 32435
atmo@@ 32441
awak@@ 32442
abul@@ 32887
acci@@ 32889
alco@@ 32891
aqui@@ 32899
ardian 32900
arious 32901
asth@@ 32905
ateral 32906
auth@@ 32908
asci@@ 33422
atment 33427
awkins 33430
adhe@@ 34012
alum@@ 34021
andi@@ 34023
aris@@ 34028
arri@@ 34029
atedly 34033
acro@@ 34696
aflo@@ 34702
agmire 34703
amne@@ 34710
arre@@ 34716
ass-@@ 34720
asym@@ 34722
atis@@ 34723
atists 34724
attr@@ 34727
acul@@ 35602
adam@@ 35603
adel@@ 35604
adep@@ 35605
adju@@ 35607
alig@@ 35617
ardu@@ 35625
assing 35628
against 641
another 862
already 864
address 1640
average 1750
ability 1825
achieve 1943
account 2167
attacks 2443
allowed 2557
actions 2799
appears 2814
anti-@@ 2835
adopted 3138
attempt 3335
absence 3415
advance 3581
amounts 3766
affairs 3785
attract 4811
applied 4949
abandon 5235
adverse 5257
assumed 5489
accused 5546
avoided 5747
animals 5962
anxiety 6237
arguing 6249
ancient 6332
aspects 6559
acquire 6809
alleged 6910
article 6928
affects 7216
alizing 7217
applies 7467
assault 7604
answers 7659
arrived 7660
authors 8150
assumes 8187
adviser 8355
arsenal 8427
agendas 8828
appeals 9132
aligned 9500
assured 9696
appoint 10429
approve 10499
anxious 10561
anytime 10562
arrival 10563
atively 10689
adapted 10951
analogy 11111
ation@@ 11195
alcohol 11355
awarded 11447
advised 11537
ational 11636
analyze 11988
arising 11989
anymore 12395
altered 12969
artists 13580
abolish 14005
airport 14008
all-out 14009
alities 14469
accepts 14639
averted 14647
admired 14796
augment 14805
ally-@@ 15367
anti-EU 15369
ampnbsp 15560
anarchy 15749
apology 15932
absor@@ 16613
acutely 16852
amnesty 16857
analyst 16858
asserts 16867
arrests 17101
accords 17333
anybody 17339
awkward 17346
alarmed 17611
aspires 17617
after@@ 17914
alistic 17915
amazing 17916
appease 17920
able-@@ 18211
amplify 18216
annexed 18218
avenues 18226
abstr@@ 18523
arities 18531
attests 18535
airline 19209
appro@@ 19219
archi@@ 19221
abusive 19586
adamant 19588
agro-@@ 19594
astro@@ 19602
activ@@ 19988
anomaly 19995
apolo@@ 19998
aspir@@ 20447
age-old 20874
alter@@ 20880
arbiter 20887
arrives 20890
adheres 21344
affront 21345
amended 21353
apparel 21357
assuage 21363
abysmal 21829
afflict 21838
analy@@ 21847
arche@@ 21853
auction 21867
abetted 22378
arist@@ 22394
abdic@@ 22918
abrog@@ 22920
accuses 22922
achable 22924
acron@@ 22927
adhered 22928
admon@@ 22929
ance-@@ 22933
arduous 22942
ativity 22949
abstain 23472
allow@@ 23481
aroused 23492
arrears 23493
ascri@@ 23494
atingly 23496
abusing 24073
ament@@ 24086
angri@@ 24089
auto-@@ 24110
accru@@ 24732
accrued 24733
aller@@ 24744
amassed 24749
amnesia 24752
anguish 24755
applaud 24757
archaic 24759
abduc@@ 25469
abhor@@ 25470
alizers 25485
alleg@@ 25486
arrange 25497
athlete 25501
acclaim 26210
ariness 26239
assid@@ 26242
atavi@@ 26247
atorial 26250
at-risk 27045
attuned 27051
abounds 27850
acceded 27852
amate@@ 27869
arms-@@ 27878
autop@@ 27889
adjusts 28699
affords 28702
arbit@@ 28728
aster@@ 28735
athle@@ 28738
aberr@@ 29531
abiding 29532
addic@@ 29538
advis@@ 29541
angered 29544
asser@@ 29549
abili@@ 30216
annex@@ 30221
aspor@@ 30229
accla@@ 30541
alloc@@ 30543
asement 30550
autom@@ 30556
awaited 30557
ancho@@ 30892
arsen@@ 30898
atten@@ 30904
attered 30905
achment 31239
adequ@@ 31240
agement 31246
agend@@ 31247
analo@@ 31252
aboli@@ 31627
abysm@@ 31628
accep@@ 31630
accus@@ 31631
admir@@ 31634
affir@@ 31637
alarm@@ 31644
arbon@@ 31655
astri@@ 31657
attor@@ 31661
aggre@@ 32017
aria-@@ 32027
arrhe@@ 32028
affor@@ 32426
alien@@ 32428
allying 32431
ameters 32433
ander@@ 32434
appli@@ 32896
arith@@ 32902
antim@@ 33417
arching 33420
arrog@@ 33421
asper@@ 33424
acqui@@ 34010
al-Ah@@ 34018
altru@@ 34020
archa@@ 34027
absur@@ 34687
accur@@ 34689
acidi@@ 34691
acities 34692
acoly@@ 34694
advan@@ 34699
adver@@ 34701
ameli@@ 34709
animo@@ 34712
anxie@@ 34714
ashvili 34719
abrup@@ 35595
abund@@ 35596
acces@@ 35597
accom@@ 35598
agger@@ 35611
akening 35614
amoun@@ 35619
andered 35621
andre@@ 35622
arran@@ 35626
assas@@ 35627
avail@@ 35635
approach 1088
advanced 1778
although 1892
actually 2087
anything 3003
argument 3030
achieved 3141
accounts 3237
activity 3268
allowing 3403
addition 3442
agencies 3511
alliance 3641
analysis 3650
affected 3951
apparent 4101
accepted 4138
annually 4245
adequate 4432
advances 4659
attempts 4767
approval 5002
academic 5041
avoiding 5607
appeared 5666
approved 5683
actively 5746
analysts 5797
al-Assad 5949
anywhere 5963
adopting 6019
autonomy 6020
absolute 6091
adoption 6177
assuming 6349
advisers 6411
accurate 6506
arguably 6521
advocate 6878
attitude 6886
ambition 7069
aircraft 7420
arrested 7468
attacked 7605
adjusted 7689
acquired 7859
accident 7965
alarming 8078
amounted 8388
applying 8831
assembly 8832
audience 8833
abundant 8875
admitted 8876
abortion 9037
activist 9075
averaged 9077
appetite 9224
al-Qaeda 9433
activism 9590
agreeing 9952
ation-@@ 10123
affluent 10362
allocate 10363
aluminum 10559
attended 10565
asserted 10809
announce 11193
aversion 11274
analyses 11539
advocacy 11815
airports 11816
assessed 12286
absorbed 12493
arsenals 12622
athletes 12623
all-time 12754
answered 12863
adapting 12968
anchored 13214
abstract 13333
academia 13334
attached 13475
articles 13579
altering 13859
accuracy 14006
abruptly 14288
accusing 14289
afforded 14290
analyzed 14470
asset-@@ 14646
arriving 14801
airlines 15166
attained 15169
appealed 15565
assigned 15753
aspiring 15933
adhering 16151
auspices 16159
aligning 16379
atically 16385
attracts 16386
airspace 16617
amenable 16856
arrogant 16866
advisory 17095
assaults 17102
assisted 17103
averting 17345
assemble 17618
abnormal 17909
adequacy 18873
advising 18878
aviation 18890
achieves 19203
affirmed 19207
alienate 19211
animated 19214
awaiting 19225
abducted 19585
adaptive 19589
averages 19606
above-@@ 20431
addicted 20432
airplane 20436
anathema 20438
arranged 20889
ative-@@ 20895
altruism 21351
accorded 21831
accoun@@ 21832
alarmist 21842
antidote 21852
attering 21865
auster@@ 21868
autocrat 21870
assuring 22396
absolu@@ 22921
arrivals 22943
artistic 22944
attorney 22950
awakened 22952
adjacent 23474
affili@@ 23477
afflicts 23479
appalled 23487
appoints 23488
aquifers 23489
arbitr@@ 23490
ationary 23497
attenu@@ 23498
activate 24079
an-style 24087
anointed 24090
atrocity 24107
abandons 24730
al-Ahmar 24742
amending 24750
anarch@@ 24753
applause 24758
auctions 24764
audacity 24766
absten@@ 25473
agrarian 25480
anonym@@ 25492
asteroid 25500
absent@@ 26206
absurdly 26208
achments 26212
acolytes 26214
aggreg@@ 26221
anatom@@ 26228
ancestry 26229
archae@@ 26237
assign@@ 26243
astron@@ 26246
ationist 26249
aciously 27008
acquires 27010
admirers 27012
allevi@@ 27027
alphabet 27029
assesses 27042
atheists 27046
attacker 27050
ailments 27858
al-Nusra 27862
alchem@@ 27864
amassing 27868
awarding 27890
accompli 28693
advisors 28701
aggres@@ 28706
agnostic 28707
allotted 28711
annexing 28719
archit@@ 28729
automate 28742
armament 29548
author@@ 29554
announ@@ 30222
appeti@@ 30225
ascend@@ 30228
assemb@@ 30230
ambigu@@ 30544
appren@@ 30548
afford@@ 30889
after-@@ 30890
adjust@@ 31241
affirm@@ 31245
appreh@@ 31255
aggrav@@ 31638
aissance 31641
al-Sha@@ 31642
andering 31649
authored 31662
autocr@@ 31663
afflic@@ 32016
angering 32025
applau@@ 32026
astero@@ 32439
astoni@@ 32440
academ@@ 32888
antiqu@@ 32893
associ@@ 32904
applic@@ 33419
ashvil@@ 33423
attend@@ 33429
as-usual 34030
acetamol 34690
assess@@ 34721
attitu@@ 34726
acetam@@ 35599
activi@@ 35601
advent@@ 35609
advert@@ 35610
appoin@@ 35624
atlantic 35632
attain@@ 35633
agreement 1307
according 1408
attention 2190
advantage 2528
available 2537
austerity 2614
authority 2846
announced 3049
achieving 3669
aggregate 3945
ambitious 4303
addressed 4470
arguments 4930
ambitions 5065
advocates 5268
aftermath 5317
activists 5638
awareness 5857
attitudes 6052
abandoned 6090
alliances 6140
alongside 6178
accession 6318
affecting 6412
attempted 6541
appointed 6647
accounted 6829
appealing 7293
accepting 7418
advancing 7504
allocated 7655
attracted 7690
alization 8079
automatic 8188
advocated 8284
assessing 8356
academics 8827
arbitrary 8932
addresses 8984
allegedly 9076
attacking 9503
assertive 10177
avoidance 10882
apartheid 10952
apparatus 11022
admission 11270
accidents 11439
amendment 11441
amounting 11442
asserting 11635
autocrats 11637
alleviate 11817
adjusting 11985
automated 11990
assembled 12285
assertion 12397
audiences 12398
abundance 12494
acquiring 12495
alienated 12861
ambiguous 12862
alignment 13086
appearing 13087
attribute 13217
addiction 13335
adherence 13336
ambiguity 13338
autocracy 13341
abilities 13575
accompany 13721
attending 13725
abolished 13857
absorbing 13858
analogous 14011
appalling 14012
analyzing 14155
ancestors 14156
architect 14473
arrogance 14475
adversary 14640
anonymous 14642
adversely 14797
afflicted 14973
anxieties 14978
admitting 15165
averaging 15170
analytics 15368
assurance 15372
arbitrage 15752
associate 15934
abolition 16147
abortions 16148
adherents 16150
aggravate 16154
analogies 16381
avoidable 16387
amplified 16620
antagon@@ 16861
antitrust 16862
adventure 17094
after-tax 17096
awakening 17104
answering 17614
apartment 17919
apologies 18219
asymmetry 18534
authentic 18536
abduction 18869
addictive 19205
animosity 19215
anonymity 19216
apologize 19218
augmented 19605
adulthood 19990
applauded 19999
artillery 20004
attackers 20006
admirable 20433
antipathy 20444
al-Maliki 20878
attaining 20896
accessing 21341
acquain@@ 21342
airplanes 21346
algorithm 21348
adjudic@@ 21834
arresting 21855
assaulted 21857
assisting 21859
acquiesce 22382
approving 22393
anchoring 22934
anti-euro 22937
authorize 22951
adversity 23476
arization 23491
activated 24080
adamantly 24081
amelior@@ 24085
applicant 24099
armaments 24100
assigning 24105
abstained 24731
aerospace 24738
affection 24739
affirming 24740
alternate 24748
audacious 24765
adaptable 25477
agreeable 25481
amorphous 25490
arranging 25498
articul@@ 25499
atization 25502
attrition 25504
absurdity 26207
allocates 26224
amazingly 26226
anecdotal 26230
appraisal 26234
appreci@@ 26235
attendant 26251
attendees 26252
attentive 26253
attorneys 26254
accentu@@ 27006
advisable 27014
affluence 27015
afternoon 27016
aggressor 27018
agonizing 27019
assistant 27043
animal-@@ 27871
ascendant 27880
accumul@@ 28695
acquies@@ 28696
anecdot@@ 28717
antimal@@ 28724
assimil@@ 28733
ationists 28739
autonom@@ 28743
annihil@@ 29545
anticip@@ 29546
antibio@@ 30223
actionary 30888
apologi@@ 30895
ationally 30901
adventu@@ 31243
aggress@@ 31248
agricul@@ 31249
acceler@@ 31629
adolesc@@ 31635
al-health 31643
anthrop@@ 31651
artific@@ 32029
apprais@@ 32897
adverti@@ 34013
alienable 34019
antidot@@ 34025
apparat@@ 34026
acquisi@@ 34695
alitarian 34706
anderth@@ 34711
across-@@ 35600
anathem@@ 35620
asylum-@@ 35630
automob@@ 35634
additional 2522
activities 2728
agreements 2812
assistance 3091
associated 3419
addressing 3683
adjustment 3712
aggressive 4450
approaches 4464
accounting 4598
attractive 4728
apparently 5001
advantages 5306
assessment 5338
accelerate 5365
attempting 5393
atmosphere 5520
artificial 5667
assumption 5783
affordable 5948
acceptable 6176
altogether 6678
automation 6784
acceptance 6828
appreciate 6952
allocation 7149
aggression 7334
adequately 8186
abandoning 8283
adaptation 8354
accessible 8549
autocratic 8551
attracting 8705
attributed 8789
annexation 8877
already-@@ 8985
autonomous 9040
accomplish 9180
appearance 9182
ambassador 9434
accurately 9951
attraction 9955
atrocities 10005
accumulate 10122
absolutely 10174
advocating 10175
anticipate 10176
accustomed 10296
achievable 10688
analytical 11192
automobile 11273
admittedly 11354
authorized 11540
algorithms 11634
announcing 11731
assurances 12109
accordance 12281
attainment 12625
asymmetric 13088
allocating 13472
amendments 13578
aggravated 13723
articulate 13860
appointing 14013
alienation 14154
appropri@@ 14471
antibiotic 14643
architects 14645
antagonism 14798
ammunition 14975
annualized 14976
attachment 14981
attendance 14982
allegiance 15365
affiliated 15557
afterwards 15558
attributes 15568
applicable 15751
admiration 15929
aspiration 16157
ameliorate 16380
absorption 16614
airstrikes 16618
associates 16623
abundantly 16849
administer 16853
arithmetic 16865
approached 17342
afflicting 17610
abolishing 17910
appointees 17921
assertions 17923
astounding 18224
adventures 18525
accidental 18871
appliances 18885
approxim@@ 18886
alizations 19212
adolescent 19989
antiquated 19997
altruistic 20881
amplifying 20882
apologized 20885
applicants 20886
allowances 21350
ambivalent 21352
accusation 21833
affiliates 21837
anti-trust 21850
antibodies 21851
automotive 21871
aberration 22377
alarmingly 22389
ascendancy 22395
attainable 22398
augmenting 22400
alienating 22932
accompli@@ 24074
anti-Sem@@ 24093
anti-trade 24096
assassin@@ 24103
astronom@@ 24106
admissions 24736
al-Shabaab 24743
assembling 24761
abnormally 25471
advertised 25478
auspicious 25506
abdication 26205
acquiesced 26215
alcoholi@@ 26222
anti-Assad 26231
al-Hanashi 27021
all-too-@@ 27026
anti-China 27033
apolitical 27876
aggregated 28704
alignments 28709
anthropo@@ 28722
apartments 28726
aristocr@@ 28731
assimilate 28734
automakers 28741
accommod@@ 29535
advantaged 30218
anachron@@ 30220
apocalyp@@ 30546
appointe@@ 30547
antioxid@@ 31652
acceptably 34007
accompan@@ 34688
acknowle@@ 34693
algorith@@ 35616
authorities 2166
alternative 2457
agriculture 3631
appropriate 3863
accompanied 4658
anniversary 5582
acknowledge 5847
achievement 6051
accountable 6139
aspirations 6394
arrangement 6461
accordingly 6505
adjustments 6700
antibiotics 6727
assumptions 6745
accelerated 6908
anticipated 7728
approaching 7829
association 7860
application 7900
accumulated 7999
advertising 8930
assessments 9397
accommodate 9589
accusations 9764
appreciated 9827
appointment 9954
allegations 10068
adversaries 10881
asset-price 11023
automobiles 11638
advancement 12282
acquisition 12753
articulated 12865
astonishing 14015
allocations 15366
atmospheric 15373
appearances 15566
advertisers 16153
arbitration 16383
appeasement 16622
affirmative 17609
abandonment 18209
adolescents 18213
anti-Muslim 18529
autocracies 18537
accelerates 18870
acupuncture 19204
accompanies 19587
apocalyptic 19599
adventurism 20873
alleviating 20879
aquaculture 21359
affiliation 22386
ambassadors 22391
asymmetries 22397
accelerator 23473
aggravating 23480
ambivalence 23483
artemisin@@ 24101
authorizing 24109
alleviation 24745
affirmation 25479
algorithmic 26223
anti-Israel 26232
attribution 26255
accentuated 27007
acrimonious 27011
antioxidant 27036
arbitrarily 27039
accountants 27853
allegiances 27865
alterations 27867
animosities 27872
appreciates 27877
attractions 27885
attributing 27886
adventurous 28700
aggregation 28705
administr@@ 31242
acknowled@@ 32014
authentic@@ 32038
alternati@@ 32432
advantage@@ 34700
al-property 35615
ambiguously 35618
agricultural 3357
arrangements 4256
appreciation 4780
alternatives 5236
announcement 6320
achievements 6362
accelerating 6442
applications 7008
accumulation 7122
acknowledged 7123
availability 7421
architecture 7576
accomplished 8185
aggressively 8426
associations 11024
administered 11269
artificially 11272
acceleration 11728
accumulating 11904
anti-Semitic 12756
attributable 13216
acquisitions 14007
accompanying 14467
anticipation 14799
acknowledges 14972
appointments 15370
anti-Western 15563
anticipating 15564
advantageous 16375
appreciating 17341
apprehension 17616
acquiescence 18212
assassinated 18222
arms-control 18888
all-powerful 19992
asymmetrical 20005
annihilation 20442
accidentally 21830
anti-dumping 21849
aspirational 21856
assimilation 21858
agribusiness 22387
anti-poverty 22938
apprentice@@ 22940
antagonizing 23486
antagonistic 24092
adaptability 24735
anti-missile 24756
anthropolo@@ 25493
appropriated 25495
accommodated 26211
afterthought 26219
asset-backed 26241
authenticity 26258
adjudication 27855
anti-liberal 28723
apparatchi@@ 28727
astronomical 28736
alitarianism 31250
authoritarian 3957
approximately 8024
automatically 8746
assassination 10003
anti-Semitism 10560
accommodation 11440
acknowledging 11536
appropriately 12757
alternatively 13473
assertiveness 13582
accommodating 14466
antimicrobial 14644
anti-American 15562
anti-European 15750
accommodative 17332
anti-Japanese 19217
announcements 19597
anachronistic 20883
authorization 20897
affordability 21839
astonishingly 21860
authoritative 21869
antidepress@@ 24097
accessibility 26209
acidification 26213
administrator 26218
advertisement 27013
agglomeration 27017
administering 27856
anthropogenic 27874
accomplishing 28694
authoritari@@ 34728
administration 1373
accountability 4904
administrative 7249
asylum-seekers 10954
anti-immigrant 11356
attractiveness 14299
administrators 18875
antiretroviral 18882
advertisements 21835
accomplishment 24075
anti-austerity 24094
authoritarians 25507
anti-inflation 26233
anti-terrorism 27034
assassinations 27882
anti-corruption 8635
administrations 9591
accomplishments 15164
acknowledgement 18524
anti-democratic 19996
anti-government 24095
authoritarianism 9292
advanced-country 11730
across-the-board 17912
anti-immigration 18530
advanced-economy 18877
anti-Americanism 19598
anti-competitive 22936
asset-management 28732
anti-establishment 11443
anti-globalization 15931
b 4524
be 38
by 53
bs 9630
bi 12758
ba 12867
bo 13092
but 54
big 1785
bad 2040
b@@ 2519
buy 3365
ban 5294
bit 6123
ble 6488
bid 6648
bin 6812
bet 7578
box 8055
bed 8113
bar 9135
ber 9225
bly 11025
boy 11541
bes 12288
bus 12976
bay 16391
bag 17106
bow 19231
bic 21878
bal 23502
bos 24786
bon 25524
bat 27058
beg 27061
bia 27065
bug 27918
bel 30233
bec 30911
bie 30913
bio 30915
bor 32452
bul 32454
bol 33435
bur 33439
bak 34038
bas 34730
been 220
both 614
back 1114
best 1357
bank 1541
book 2970
base 3275
boom 3488
body 3692
bond 3818
be@@ 3900
bear 4154
born 4400
bill 4407
bold 4835
bo@@ 5066
bi@@ 5877
bu@@ 5964
bomb 6462
blow 6508
bloc 6623
bias 7151
bulk 8114
beat 8357
bail 8706
br@@ 8790
ba@@ 9134
baby 9293
bust 9353
bl@@ 10007
boys 10125
ball 10364
berg 10625
busy 11112
band 11357
boon 11450
bles 11734
bets 11991
belt 12112
bent 12196
burn 12291
bled 12501
beef 12626
bits 12869
bans 13089
boat 13219
boss 13220
bite 13344
bars 13584
bind 13862
by@@ 13866
bers 14302
blue 14477
bing 14809
bury 14812
bare 15174
bout 15376
buys 15379
bble 15570
bang 16388
bode 16630
bert 16873
bend 17623
bull 17628
blog 18232
burg 18238
bird 18891
buck 19611
bags 20008
boil 20015
bone 20016
blew 21371
bbed 21876
bark 22403
bowl 22409
bara 22954
bore 22969
bred 22972
beta 23507
bids 23508
bots 23514
bell 24778
boot 25525
b-@@ 26261
bons 26277
bean 27059
beer 27896
bian 27902
bish 27908
brew 28759
bugs 29560
bial 30235
bane 30909
bath 32910
bery 32912
bris 32918
baab 33431
buro 33440
bott 34739
bund 34742
bras 35646
banks 732
being 821
based 1434
bring 1941
began 1947
build 2100
boost 2147
bonds 2177
basic 2444
below 2534
basis 2586
begin 2952
built 3230
broad 3459
break 3741
blame 3868
bound 4139
begun 4267
board 4481
block 5075
badly 5293
black 5351
brain 5477
birth 5547
blood 5705
books 6217
ber@@ 6560
ban@@ 6622
bills 6879
broke 7422
brand 7755
bar@@ 7863
blind 7866
burst 8314
brief 8468
brink 8469
bases 8600
borne 8707
bli@@ 8879
bra@@ 8881
bro@@ 8935
bombs 9078
bri@@ 9352
bal@@ 9398
bio@@ 9504
bas@@ 9629
bears 9830
bur@@ 9899
bleak 10008
booms 10070
bul@@ 10181
brave 10883
bru@@ 11641
boats 11735
backs 12195
ble@@ 12500
bel@@ 12627
bling 12629
bor@@ 12630
bol@@ 12973
blunt 13091
bon@@ 13093
bre@@ 13346
birds 13478
blocs 13585
by-@@ 13865
ben@@ 14016
bit@@ 14159
blo@@ 14160
brunt 14478
beset 14808
bat@@ 15374
bread 15573
boast 15756
bully 15758
but@@ 15943
bac@@ 16160
boo@@ 16162
big@@ 16874
brake 16876
breed 16877
bud@@ 17111
binge 17348
bouts 17351
bonus 17626
bic@@ 17925
buc@@ 17929
beg@@ 18540
bodes 18546
blows 18893
basin 20009
baz@@ 20011
bot@@ 20018
bogus 20455
bad@@ 20899
bec@@ 21368
blu@@ 21373
brush 21375
bumpy 21376
buyer 21377
binds 22405
bub@@ 22410
bells 22959
bir@@ 22962
bla@@ 22963
blogs 22966
buses 22977
busts 22978
bluff 23512
boxes 23516
brute 23517
bun@@ 23518
beach 24111
bil@@ 24116
bones 24119
boots 24121
bribe 24123
be-@@ 24777
belts 24779
bis@@ 24780
blown 24782
bored 24785
bou@@ 24787
brick 24790
bbing 25511
bbled 25512
beast 25513
bi-@@ 25520
bet@@ 26264
blank 26270
bunch 26284
bands 27056
beans 27060
brate 27079
byp@@ 27090
bom@@ 27910
brown 27917
bumps 27919
bites 28752
boils 28755
bag@@ 30558
boy@@ 30561
bin@@ 30914
buy@@ 30917
beral 31267
bab@@ 31664
bered 32044
buo@@ 32048
bians 33433
bourg 33436
baked 34729
bucks 34741
busch 34743
become 715
better 948
before 979
beyond 1579
budget 1706
behind 2071
became 2110
border 2831
burden 2994
belief 3738
backed 4116
bubble 4169
battle 4545
bottom 4589
borrow 4660
barely 4865
buying 5003
bigger 5203
bodies 5476
brings 5490
brutal 5505
broken 5859
begins 6333
back@@ 6479
blamed 7010
bought 7175
bridge 7365
behave 7830
behalf 8080
bloody 8189
barrel 8244
ballot 8389
basket 8390
buyers 8602
benign 8834
banned 8933
bitter 8934
beings 9295
breaks 9351
boards 9505
bright 10009
branch 10365
belong 10624
breast 10747
burned 11197
buffer 11359
banker 11822
boosts 12113
broker 12290
biases 12400
breach 12631
biased 12759
brains 12760
blocks 12870
babies 12971
brands 12975
bosses 13094
bailed 13342
barred 13476
buried 13587
builds 13864
beauty 14158
beli@@ 14300
boasts 14305
bullet 14652
banner 14984
big-@@ 14985
bloo@@ 14987
bribes 14989
bank@@ 15173
beaten 15375
book@@ 15571
boring 15572
bear@@ 15937
breath 15941
bio-@@ 16394
beacon 16628
bolder 16875
bypass 16880
bother 17109
brac@@ 17110
blin@@ 17625
bran@@ 17627
biting 17926
bombed 17927
births 18231
bottle 18235
breeds 18236
beside 18541
best@@ 18542
blames 18543
boldly 18547
buy-@@ 18899
bund@@ 19233
bility 19609
basing 20010
bounds 20019
buoyed 20022
blow@@ 20453
butter 20457
band@@ 20901
bric@@ 20908
bull@@ 20909
buster 20910
blan@@ 21370
betray 21877
basi@@ 22955
bath@@ 22956
blical 22964
bogged 22967
boom@@ 22968
brow@@ 22974
bung@@ 22975
baff@@ 23501
basics 23505
bili@@ 23509
boun@@ 23515
bearer 24112
biop@@ 24117
buck@@ 24125
button 24127
backer 24770
basins 24776
blacks 24781
bomber 24783
boomed 24784
balked 25510
bene@@ 25519
bition 25521
brazen 25527
burner 25532
barren 26262
beware 26266
bomb@@ 26275
bounce 26279
brakes 26281
bursts 26285
behest 27062
blun@@ 27074
bott@@ 27078
braz@@ 27080
bribed 27085
buff@@ 27087
batt@@ 27893
bemo@@ 27899
binary 27904
biom@@ 27905
beck@@ 28747
buil@@ 28762
bump@@ 28764
ber-@@ 29558
ble-@@ 29559
bering 30234
blur@@ 30236
boar@@ 30237
brid@@ 30240
bail@@ 30908
beau@@ 30910
brahim 30916
bond@@ 31271
berger 31666
biot@@ 31667
blam@@ 31668
bill@@ 32045
banked 32443
barb@@ 32444
beac@@ 32445
blat@@ 32451
bour@@ 32915
brates 32916
bick@@ 33434
buoy@@ 33438
bass@@ 34039
blas@@ 34041
bloc@@ 34737
blue@@ 34738
barr@@ 35638
bigu@@ 35643
blog@@ 35644
brea@@ 35647
brit@@ 35648
because 490
between 568
billion 913
believe 1594
balance 1827
banking 1910
benefit 1976
brought 2480
borders 2764
biggest 3046
becomes 3191
broader 3344
bankers 3527
budgets 4697
broadly 4875
bubbles 4938
bailout 5022
backing 5798
binding 6487
bolster 6649
blocked 7754
bargain 7786
biology 7865
bombing 7867
beliefs 7901
boosted 8391
bearing 8668
burdens 8671
burning 8708
booming 9350
breakup 9436
bridges 9697
battles 10006
besides 10180
barrier 10566
broaden 10567
brother 11196
beneath 11275
beating 11358
blaming 11449
bonuses 11639
barring 11733
betting 11823
bizarre 11824
banning 12868
bidding 13218
belongs 13343
best-@@ 13477
bloated 14017
briefly 14018
barrels 14157
block@@ 14304
bombers 14306
buildup 14651
bipolar 14810
black@@ 15175
bullets 15377
biomass 15755
breathe 16164
bashing 16389
bedrock 16392
break@@ 16398
backers 16626
bailing 16870
behaved 16872
bribery 16878
bigotry 17107
blunder 17108
blatant 17349
boycott 17352
buffers 17353
ballots 17620
battery 17622
branded 17928
bastion 18228
blowing 18233
blanket 18544
bluntly 18545
brewing 18896
brokers 18897
bulwark 18898
blurred 19228
boasted 19229
blessed 20013
blood@@ 20014
borrows 20017
bluster 20454
ballo@@ 20900
behaves 20902
bewil@@ 20904
bank-@@ 21366
boomers 21374
back-@@ 21873
bail-@@ 22402
biotech 22406
bonanza 22408
beaches 22957
biome@@ 22961
blindly 22965
buoyant 22976
barrage 23504
brief@@ 24124
breadth 24788
baggage 25509
begging 25514
beloved 25516
bench@@ 25517
bending 25518
brain@@ 25526
broad@@ 25530
bullish 25531
bicycle 26267
blinded 26271
blue-@@ 26272
bond-@@ 26276
budge@@ 26282
blogger 27072
bread@@ 27081
bullied 27088
bedev@@ 27894
bedroom 27895
belated 27898
bioph@@ 27906
birth@@ 27907
blended 27909
betra@@ 28750
bitumen 28753
brittle 28760
bulli@@ 28763
balan@@ 29557
bound@@ 30560
brigh@@ 30562
buffe@@ 30563
benef@@ 30912
besto@@ 31268
bicyc@@ 31269
bizar@@ 31270
borough 31272
burea@@ 31669
behem@@ 32043
bless@@ 32046
beare@@ 32446
bedro@@ 32447
beque@@ 32449
belli@@ 32911
billi@@ 32913
bridled 34042
burge@@ 34043
behin@@ 34732
brink@@ 34740
barri@@ 35639
besie@@ 35642
boom-@@ 35645
business 1242
benefits 1291
behavior 2290
building 2296
becoming 2424
barriers 3431
bringing 3928
believed 3990
billions 4310
boosting 4414
balanced 4848
believes 5282
backlash 5858
balances 6021
breaking 6250
bailouts 8002
borrowed 8601
blocking 8880
backdrop 9898
bankrupt 10242
bacteria 11448
burdened 11542
brothers 11640
branches 11825
blessing 11905
backward 12498
bullying 12871
backstop 12972
bombings 12974
biofuels 13726
breeding 13863
below-@@ 14648
brutally 14650
baseline 14807
build-up 14811
blockade 15177
brighter 15574
backbone 15754
behaving 15938
birthday 15940
battered 16161
betrayal 16393
borrower 16395
boundary 16397
builders 16400
battling 16627
backfire 17105
buttress 17112
bleeding 17350
betrayed 17624
belonged 18229
blunders 18234
bothered 18548
bottom@@ 18549
bloggers 18892
breaches 18895
beholden 19227
boldness 19230
brokered 19610
bursting 19612
branding 20020
built-in 20021
bitterly 20451
breakout 20456
besieged 20903
barbaric 21367
balkan@@ 21875
backyard 22401
buybacks 22411
boycotts 22970
break-up 22971
bridging 22973
blowback 23511
breached 24122
buffeted 24126
bargains 24775
brethren 24789
blood-@@ 25522
baseless 26263
boasting 26274
barracks 27057
blurring 27075
border@@ 27077
breakers 27082
breathed 27084
brigades 27086
boosters 27911
broadens 27915
brain-@@ 28758
boycot@@ 30238
breath@@ 30239
buttre@@ 30241
bombar@@ 30559
bearable 31266
breast@@ 31274
barbar@@ 31665
battle@@ 32041
behavi@@ 32042
built-@@ 32453
borrow@@ 32914
brilli@@ 32917
bulwar@@ 33437
belong@@ 34040
believ@@ 34733
beralism 34735
bitter@@ 34736
bacter@@ 35637
bassad@@ 35640
burden@@ 35649
beginning 2438
bilateral 2797
borrowing 3590
benefited 5350
borrowers 5352
buildings 7423
breakdown 8636
budgetary 8670
benchmark 9183
balancing 9294
believing 9296
beautiful 10069
ballistic 10179
broadband 10626
blueprint 10691
behaviors 12287
better-@@ 12289
basically 12499
brilliant 12502
believers 12628
brutality 12632
bloodshed 13090
broadcast 13095
bolstered 13586
belonging 14301
blackmail 15176
bottom-up 15178
brightest 15757
bordering 16163
batteries 16390
breathing 16399
broadened 18550
border-@@ 18894
barometer 19607
backfired 20007
bacterium 20450
blatantly 20452
bickering 21369
blindness 21372
bacterial 21874
bio-fuels 22960
bypassing 22979
barbarism 23503
belatedly 23506
bellige@@ 24113
boom-bust 24120
byproduct 24128
backwards 24771
banknotes 24773
bankrup@@ 24774
behemoths 25515
breakaway 25528
breakfast 25529
betraying 26265
biosphere 26269
boardroom 26273
bourgeois 26280
budget-@@ 26283
ballooned 27055
bellicose 27064
bilater@@ 27066
biography 27068
biologist 27069
blackouts 27070
blinkered 27071
bombard@@ 27076
breakneck 27083
bandwagon 27892
best-case 27901
boycotted 27912
breaching 27913
brokering 27916
burdening 27920
battali@@ 28745
befitting 28748
beverages 28751
bloodbath 28754
broadca@@ 31275
bureauc@@ 31276
boardro@@ 32047
benefic@@ 32448
billion@@ 32450
backwar@@ 32909
busines@@ 34044
bassadors 34731
bellico@@ 34734
businesses 2379
bankruptcy 4950
beneficial 6007
background 6092
bargaining 7009
benefiting 7787
biological 7864
boundaries 8054
bipartisan 8669
behavioral 9766
blockchain 11992
broadening 11993
burgeoning 13221
bolstering 13345
biomedical 14986
burdensome 15378
benchmarks 16629
benevolent 19608
buttressed 20023
bitterness 22407
ballooning 22953
blasphem@@ 23510
best-known 24114
bestseller 24115
birthplace 24118
banking-@@ 24772
broadcasts 24791
biograph@@ 26268
borderless 26278
believable 27063
blueprints 27073
beginnings 27897
bequeathed 27900
billboards 27903
bystanders 27922
barbarians 28744
by-product 28765
business@@ 30564
balance-@@ 32040
bureaucr@@ 32919
benefici@@ 33432
bureaucracy 6761
bondholders 8428
bureaucrats 8470
broad-based 10243
businessmen 10298
battlefield 12399
billionaire 14649
businessman 14653
backgrounds 14806
blue-collar 14988
beleaguered 15939
bottlenecks 16396
backsliding 17347
beneficiary 18230
belligerent 20012
bond-buying 20906
business-@@ 21879
bond-market 23513
brilliantly 27914
bourgeoisie 28757
broadcaster 28761
bottlenec@@ 31273
breakthrough 7505
biodiversity 7538
bureaucratic 7606
billionaires 14476
brinkmanship 15942
bankruptcies 17621
broadcasting 18237
breathtaking 19232
battleground 22404
bloodletting 25523
backwardness 27053
bilateralism 27067
battlefields 28746
bureaucrac@@ 35650
balance-sheet 7862
breakthroughs 9079
beneficiaries 9399
biotechnology 14303
bureaucracies 16165
breastfeeding 20907
balance-of-@@ 27054
boom-and-bust 28756
behind-the-@@ 35641
burden-sharing 16401
businesspeople 16879
billion-dollar 20905
business-cycle 27089
best-performing 28749
behind-the-scenes 22958
business-as-usual 26286
business-friendly 27921
balance-of-payments 11821
beggar-thy-neighbor 16871
c 5848
ch 5548
ce 8392
co 10955
cy 13108
ck 13227
cs 13735
ca 14019
can 178
cut 2355
c@@ 3991
car 5533
cap 8604
ces 10126
cal 12114
che 12294
ced 12633
cer 12977
com 13482
cry 13598
cow 13870
cio 18906
cat 19615
cle 20916
cup 21403
chi 21889
cia 23529
cel 24133
con 24153
cue 27149
cop 27970
cus 27988
cil 31679
cht 32051
cet 32924
cos 34062
case 1169
come 1206
cost 1462
care 1848
call 2212
cuts 2387
came 2390
city 2866
core 2882
cash 3533
coal 3877
ch@@ 3982
co@@ 4273
cars 5188
coup 5189
code 6268
cast 6624
cope 6628
cell 6662
ci@@ 6681
camp 6785
cu@@ 6880
crop 6974
cold 7219
cure 7940
ched 8082
ce@@ 8115
ca@@ 8245
calm 8552
card 8553
curb 8673
ches 9226
club 10072
cl@@ 10627
cite 11114
cy@@ 11362
cool 11453
cing 13226
coin 13589
copy 13595
corn 14487
cher 15184
chip 16407
cr@@ 16640
caps 16881
cult 16894
cede 17361
cows 17644
cies 18556
c-@@ 19234
cake 19235
cent 19239
clan 19242
cage 19613
cozy 19634
cusp 20053
ck@@ 20463
cats 20912
cons 20929
cian 21385
chat 22986
clad 22988
clue 24149
cook 27138
crew 27147
czar 27153
cate 27937
cuit 27984
cers 28772
cz@@ 28819
cane 29562
coni 30929
cord 30932
chet 31279
chon 31677
cial 31678
cils 31680
cise 31681
cker 32052
cism 32926
ctor 32936
chin 33453
chal 34047
ctic 34066
cury 34067
cean 34747
cely 34748
cess 34751
cape 35653
cuse 35678
could 301
clear 1193
costs 1235
cause 1905
close 1998
comes 2061
civil 2090
cases 2150
claim 2477
class 2861
child 3081
calls 3118
con@@ 3869
cycle 3870
carry 4065
court 4188
chief 4272
clean 4380
cheap 4510
cover 4675
crime 4676
cyber 5083
chaos 5318
co-@@ 5632
crash 5888
chain 5919
count 5950
cells 6068
crops 6104
chose 6143
camps 6679
can@@ 6887
cha@@ 7198
com@@ 7199
check 7218
car@@ 7607
cor@@ 7757
cre@@ 7789
catch 7903
cur@@ 8191
che@@ 8247
crude 8360
cited 8429
cards 8471
ching 8515
clash 8709
coast 8836
clout 8882
crowd 8939
chair 9259
civic 9400
cliff 9506
cra@@ 10013
cross 10074
cul@@ 10501
chi@@ 10693
clo@@ 10811
cro@@ 10886
color 10956
col@@ 11028
curve 11203
chess 11543
cou@@ 11654
craft 11742
cru@@ 11830
cat@@ 12198
climb 12202
clock 12295
cop@@ 12403
cap@@ 12504
cents 12761
clubs 12763
codes 12764
cho@@ 12873
chart 12978
cease 13224
cloud 13229
cruel 13356
cli@@ 13480
crown 13597
ce-@@ 14020
cal@@ 14161
cas@@ 14481
cep@@ 14482
coins 14992
coups 14998
cam@@ 15180
caste 15182
crack 15190
crazy 15191
curse 15193
cable 15575
cares 15759
chips 16166
cla@@ 16409
ch-@@ 16632
cling 16636
cites 16884
crony 16893
clu@@ 17120
coral 17127
cow@@ 17128
chers 17363
cri@@ 17373
cer@@ 17632
charm 17633
cab@@ 17930
cians 18555
cubic 18574
clues 19244
cated 19616
cle@@ 19620
coc@@ 19622
crush 19635
clone 20032
cocoa 20033
corps 20047
creed 20051
cured 20052
cared 20459
cheer 20460
coo@@ 20932
casts 21380
chest 21384
cargo 21881
cem@@ 21885
cries 21911
cau@@ 22416
credo 22441
cel@@ 22984
cot@@ 23001
cyc@@ 23006
cit@@ 23532
cos@@ 23554
chasm 24137
cheat 24139
choke 24143
crats 24161
cad@@ 24792
cav@@ 24799
cages 25533
ceded 25540
chunk 25544
cin@@ 25545
crave 25575
carte 26294
cen@@ 26302
chase 26305
cil@@ 26308
carve 27097
clans 27108
cloth 27111
cracy 27143
caj@@ 27924
canny 27928
coz@@ 27977
creep 27978
coach 28788
cum@@ 28815
cures 28816
cus@@ 29571
cence 30242
cious 30567
cir@@ 30568
cally 30919
chman 30924
chpin 30925
chill 31280
cry@@ 31289
chmen 31676
crete 32067
cy-@@ 32068
cac@@ 32455
chant 32459
chard 32460
crisy 32471
cut@@ 32937
cular 33471
cyn@@ 34068
chell 34753
ck-@@ 34757
crisis 551
change 673
cannot 976
course 1005
create 1487
common 1521
credit 1641
called 1744
cities 2114
coming 2214
caused 2430
choice 2583
carbon 2626
crises 2628
claims 2631
chance 2973
center 3129
capita 3290
causes 3372
closer 3500
choose 3545
cancer 3762
crimes 4252
costly 4415
charge 4686
chains 4910
closed 4982
courts 5308
combat 5409
caught 5715
commit 5748
couple 6022
circle 6581
career 6680
chosen 6728
checks 7011
cycles 7012
conf@@ 8473
counts 9507
corner 9631
cement 9698
compel 10569
comply 10813
comp@@ 10957
chan@@ 11113
crunch 11117
clause 11198
comm@@ 11649
couldn 11655
crowds 11743
clever 11827
coffee 11828
cour@@ 11911
citing 12201
covers 12768
char@@ 12872
coined 13230
covert 13487
copper 14028
convey 14167
chairs 14656
church 14658
care@@ 14814
client 14817
cali@@ 15179
caring 15181
clam@@ 15185
clouds 15382
cont@@ 15390
cancel 15944
critic 15957
cotton 16175
cher@@ 16406
coping 16415
cattle 16882
cohort 17121
cartel 17356
cation 17359
ceased 17360
cell@@ 17362
comb@@ 17365
clou@@ 17635
clinic 17934
causal 18240
cleric 18243
chec@@ 18903
chur@@ 18905
column 18909
coun@@ 18914
call@@ 19236
chorus 19241
coer@@ 19245
colors 19246
cost@@ 19252
clin@@ 20031
capped 20458
chem@@ 20461
copies 20474
cler@@ 20918
campus 21378
cent@@ 21382
castes 21882
casual 21883
cens@@ 21886
cock@@ 21890
cracks 21909
carpet 22414
carved 22415
chim@@ 22422
clim@@ 22423
clow@@ 22425
curbed 22444
cables 22980
crip@@ 23003
ceding 23523
census 23524
chiefs 23528
crum@@ 23557
camp@@ 24130
ceas@@ 24132
cere@@ 24136
chil@@ 24141
chop@@ 24144
colony 24152
crow@@ 24162
crying 24163
cynics 24167
cadres 24793
chro@@ 24803
clic@@ 24808
confer 24816
ced-@@ 25539
charts 25541
chau@@ 25542
circus 25547
clamor 25549
cliché 25551
closes 25552
corpus 25570
calmed 26289
candid 26290
casino 26297
caucus 26298
caveat 26300
circ@@ 26309
corp@@ 26336
cove@@ 26339
camera 27091
cess@@ 27105
coff@@ 27113
comedy 27116
conc@@ 27125
conv@@ 27136
county 27141
craw@@ 27144
calmly 27925
canals 27927
casu@@ 27935
ceph@@ 27941
chenko 27946
chor@@ 27948
clique 27953
cris@@ 27981
curi@@ 27986
curing 27987
clumsy 28786
coasts 28789
cooler 28802
cousin 28806
cradle 28807
cruise 28810
crun@@ 28812
crus@@ 28813
custom 28817
colo@@ 29566
cred@@ 29568
cric@@ 29569
cryp@@ 29570
cham@@ 30243
come@@ 30246
coal@@ 30569
copy@@ 30578
cili@@ 30926
crates 30933
clum@@ 31281
cele@@ 31672
conn@@ 31684
cool@@ 31690
cohe@@ 32055
coll@@ 32056
cratic 32066
chment 32462
collar 32463
can-@@ 32920
cann@@ 32921
cash@@ 32922
cate@@ 32923
chic@@ 32925
codi@@ 32929
canc@@ 33441
cart@@ 33443
casc@@ 33444
cauc@@ 33447
choc@@ 33454
coco@@ 33457
cong@@ 33464
cumb@@ 33472
carb@@ 34045
caus@@ 34046
clan@@ 34052
cron@@ 34064
clar@@ 34758
coccal 34760
curs@@ 34766
cutt@@ 34767
cal-@@ 35651
chae@@ 35658
cially 35662
culo@@ 35672
culp@@ 35673
country 380
capital 842
current 944
central 996
climate 1077
control 1365
century 1653
created 1799
changes 1818
clearly 2128
certain 2459
company 2545
complex 2566
concern 2661
crucial 2832
culture 2873
changed 3150
context 3261
critics 3901
causing 3952
cutting 4042
choices 4134
closely 4330
calling 4389
capable 4451
compete 4532
carried 4555
concept 4627
claimed 4746
creates 4887
contain 4951
corrupt 5034
centers 5112
chronic 5135
capture 5145
correct 5147
charges 5339
counter 5575
content 5620
conduct 5760
careful 5918
closing 6053
cheaper 6158
chances 6334
classes 6413
cabinet 6426
command 6542
citizen 6729
charged 6813
customs 7044
channel 7070
classic 7367
courage 7370
consume 7581
college 7692
combine 7756
consent 7831
carries 7902
compare 7936
covered 7939
ceiling 8116
closest 8151
coastal 8285
connect 8393
contest 8710
collect 8793
clients 8835
coupled 9299
clarity 9548
caution 9593
credits 9595
comfort 9700
confirm 9702
cynical 9704
careers 9767
contact 9770
circles 9832
compact 9834
courses 9836
clearer 10071
counted 10302
clinics 10367
crossed 11455
chooses 11646
cleaner 11647
condemn 11652
clashes 11737
convert 11741
crowded 11829
cholera 11995
cushion 11998
curtail 12119
chaotic 12199
centric 12293
contend 12298
cronies 12300
chaired 12506
council 12639
curbing 12640
cheaply 12979
clarify 12980
cost-@@ 12982
chapter 13097
crafted 13107
convene 13233
charity 13349
concede 13484
concert 13730
costing 13734
curious 13736
culprit 14311
cartels 14480
casting 14655
cooking 14665
cooling 14666
carnage 14815
cocaine 14991
comment 14994
couples 14997
charter 15183
clauses 15186
clothes 15381
cyber@@ 15582
cash-@@ 15760
closure 15763
coffers 15764
cancers 15945
changer 15947
conce@@ 16169
cameras 16631
cleared 16885
cricket 16892
city-@@ 17118
crushed 17130
carrier 17355
catch@@ 17358
clerics 17634
commons 17638
climbed 17933
cluster 18244
counsel 18253
chasing 18553
colon@@ 18559
cosmo@@ 18569
crashed 18571
conceal 18911
cross@@ 18916
cruelty 18917
custody 18918
chicken 19240
clari@@ 19243
captive 19614
checked 19617
clean@@ 19621
consist 19629
circuit 20029
commu@@ 20037
confuse 20041
corners 20046
crashes 20050
chlor@@ 20462
captain 20911
chaebol 20913
chamber 20914
coexist 20919
colli@@ 20923
conquer 20928
curtain 20934
carrots 21379
close@@ 21388
coal-@@ 21389
check@@ 21888
commits 21891
compass 21893
condi@@ 21897
conqu@@ 21899
consult 21902
calorie 22412
capping 22413
colum@@ 22427
conve@@ 22437
cunning 22443
chiefly 22987
conform 22997
carto@@ 23520
catches 23521
chauv@@ 23527
class@@ 23534
cleanup 23536
cohorts 23538
collu@@ 23539
compu@@ 23545
censors 24134
cheer@@ 24140
chron@@ 24145
coaster 24150
crack@@ 24160
cascade 24796
civic@@ 24807
coaches 24811
conte@@ 24820
cracked 24826
crystal 24829
calming 25534
canni@@ 25535
carri@@ 25538
conduit 25562
cowar@@ 25574
custo@@ 25578
caveats 26301
centi@@ 26303
cheered 26306
choking 26307
clashed 26313
cold-@@ 26320
convict 26334
creator 26340
crosses 26341
crusade 26342
cardi@@ 27095
cartoon 27096
clogged 27110
condone 27126
coven@@ 27142
cumul@@ 27150
capit@@ 27929
caric@@ 27932
certi@@ 27942
chimera 27947
colored 27957
confers 27960
confess 27961
cruel@@ 27983
carni@@ 28769
certify 28774
cheated 28777
cherish 28779
cleaned 28783
clich@@ 28784
commute 28791
condoms 28795
crumble 28811
coast@@ 29565
crowd@@ 30250
capri@@ 30565
child@@ 30566
contr@@ 30577
cover@@ 30580
cushi@@ 30581
cements 30921
chair@@ 30922
champ@@ 30923
circu@@ 30927
conom@@ 30930
criti@@ 30934
centr@@ 31277
cogni@@ 31282
condu@@ 31285
calyp@@ 31670
cheap@@ 31674
chick@@ 31675
consp@@ 31687
corro@@ 31691
claim@@ 32053
clear@@ 32054
care-@@ 32456
chequer 32461
coali@@ 32928
consu@@ 32933
cryst@@ 32935
case-@@ 33445
cease@@ 33449
charted 33452
color@@ 33458
come-@@ 33459
chess@@ 34049
clamp@@ 34051
capac@@ 34745
chall@@ 34752
chement 34754
citiz@@ 34756
cliqu@@ 34759
combu@@ 34761
comings 34762
coura@@ 34765
calam@@ 35652
carbo@@ 35654
carbons 35655
chast@@ 35659
chole@@ 35661
credi@@ 35671
continue 1255
citizens 1305
currency 1363
children 1409
conflict 1540
consider 1736
campaign 1783
capacity 1899
contrast 2213
collapse 2239
creating 2279
critical 2308
concerns 2316
creation 2541
contrary 2765
compared 2867
cultural 2871
consumer 3107
changing 3291
combined 3571
controls 3662
credible 3903
complete 4097
confront 4541
civilian 4562
coverage 4931
criminal 5056
chemical 5113
computer 5136
concrete 5478
creative 5583
contract 5668
constant 6035
conclude 6269
claiming 6335
convince 6397
channels 6427
criteria 6444
coherent 6929
captured 7098
creditor 7100
cyclical 7220
colonial 7251
carrying 7335
clinical 7336
cultures 7539
cohesion 7633
choosing 7729
chairman 7868
comprise 7937
confined 8118
champion 8246
centered 8315
covering 8555
cautious 8791
contains 8885
centrist 9137
commonly 9401
category 9547
counting 9594
comments 9833
consumed 9835
concepts 10128
commerce 10245
consists 10301
customer 10435
crossing 10698
capitals 10810
confused 10959
cross-@@ 11202
coercion 11544
catalyst 11642
complain 11650
composed 11651
convened 11739
contempt 11909
combines 12203
canceled 12292
compound 12297
catch-up 12505
confirms 12635
converge 12637
charisma 12762
catalyze 13096
clothing 13099
communal 13102
calculus 13222
clearing 13228
contacts 13232
crimin@@ 13236
circum@@ 13588
contexts 13591
calamity 13727
cleaning 13867
catching 14307
coercive 14660
colleges 14993
critique 15192
clusters 15383
cohesive 15384
comple@@ 15388
cyber-@@ 15395
ceremony 15576
colonies 15577
crushing 15580
common@@ 15765
consul@@ 15770
credited 15955
cynicism 16177
calories 16402
cervical 16403
charging 16404
churches 16408
colossal 16410
creators 16418
cheating 16633
child-@@ 16634
compares 16638
crowding 16641
coinci@@ 16887
comeback 16888
councils 16891
credibly 17129
crafting 17372
conver@@ 17643
cutbacks 17646
chambers 17932
contents 17941
checking 18241
conquest 18247
corridor 18252
crippled 18255
cannabis 18551
carriers 18552
chilling 18554
clearest 18557
clerical 18558
contra@@ 18567
credit@@ 18572
cronyism 18573
chickens 18904
commands 18910
conceded 18912
cracking 18915
captures 19237
casualty 19238
confis@@ 19248
civil-@@ 19619
commun@@ 19625
connects 19628
consumes 19631
currents 19636
cellular 20024
chaebols 20025
civili@@ 20030
contests 20043
custom@@ 20054
congress 20469
conserve 20470
coincide 20920
collec@@ 20922
compar@@ 20925
culprits 20933
classi@@ 21386
clinging 21387
creature 21401
ceilings 21884
condemns 21896
congen@@ 21898
counties 21907
conceive 22432
courting 22440
crowd-@@ 22442
collects 22990
contours 22998
conveyed 22999
creeping 23002
circuits 23530
civility 23533
colorful 23540
comedian 23542
conducts 23546
confines 23548
corrup@@ 23553
crashing 23556
cheapest 24138
classify 24146
cleavage 24147
closures 24148
correc@@ 24156
cataly@@ 24797
cheering 24801
circular 24804
circuses 24806
climbing 24809
codified 24812
competes 24813
cosmetic 24825
circul@@ 25546
compli@@ 25559
concep@@ 25561
contam@@ 25565
costlier 25572
calendar 26288
cashless 26296
citation 26310
coaching 26317
coalesce 26318
compla@@ 26324
consum@@ 26330
campuses 27092
carcin@@ 27094
centri@@ 27103
clever@@ 27109
co-exist 27112
coloni@@ 27115
comman@@ 27117
compiled 27122
congre@@ 27129
credence 27146
cartoons 27933
chasti@@ 27945
clashing 27949
clear-@@ 27950
climates 27952
clueless 27954
comfor@@ 27958
competed 27959
confid@@ 27962
connot@@ 27966
convenes 27969
corpor@@ 27971
covertly 27976
culmin@@ 27985
cushions 27989
cancel@@ 28766
cancer@@ 28767
careless 28768
climatic 28785
co-opted 28787
compul@@ 28793
convicts 28801
caregi@@ 29563
commis@@ 29567
coales@@ 30245
cooper@@ 30249
combat@@ 30570
compan@@ 30571
compas@@ 30572
condem@@ 30574
contex@@ 30576
calcul@@ 30918
ce-based 30920
conclu@@ 30928
concer@@ 31284
conduc@@ 31286
contro@@ 31287
candid@@ 31671
centen@@ 31673
clean-@@ 31682
concei@@ 31683
consci@@ 31685
consor@@ 31686
convul@@ 31689
curren@@ 31692
calibr@@ 32049
commen@@ 32058
config@@ 32061
confin@@ 32062
counters 32065
champi@@ 32458
consen@@ 32467
client@@ 32927
cease-@@ 33448
celebr@@ 33450
center@@ 33451
compet@@ 33461
consol@@ 33466
contin@@ 33468
corner@@ 33469
cussions 33473
coerci@@ 34054
commit@@ 34055
confir@@ 34057
crypto@@ 34065
calend@@ 34744
capsul@@ 34746
cigare@@ 34755
connec@@ 34763
convic@@ 34764
cardio@@ 35656
chemic@@ 35660
cleare@@ 35663
cultiv@@ 35674
cumber@@ 35675
countries 158
companies 1030
community 1605
challenge 1615
certainly 2200
currently 2235
corporate 2317
continued 2434
continues 2550
consumers 2627
committed 2891
consensus 2906
coalition 3006
creditors 3336
continent 3393
conflicts 3463
commodity 3561
candidate 3599
concerned 4129
criticism 4452
centuries 4503
concluded 4511
contracts 4563
conducted 4644
convinced 4877
customers 5004
condition 5225
carefully 5366
component 5381
civilians 5440
connected 5492
collapsed 5633
competing 5887
communism 5920
campaigns 6190
communist 6304
committee 6480
computers 6489
cooperate 6600
confident 6702
character 6973
confirmed 7314
contained 7315
completed 7368
contagion 7634
countless 7758
childhood 7869
condemned 8286
cognitive 8358
concerted 8883
considers 8884
criminals 8938
combating 8987
certainty 9080
crisis-@@ 9083
construct 9184
collected 9699
celebrate 9768
ceasefire 9831
counter@@ 9958
conscious 10129
crackdown 10130
compelled 10247
criticize 10248
competent 10300
channeled 10366
comprises 10368
carbon-@@ 10431
correctly 10500
crucially 10570
constrain 10696
credit-@@ 10697
confusion 10748
conceived 10958
combining 11115
computing 11276
consuming 11360
colleague 11452
champions 11644
chemicals 11645
civilized 11736
classical 11906
collapses 12116
comparing 12117
capturing 12197
contested 12299
candidacy 12503
convicted 12638
concludes 12765
conducive 12875
confronts 12981
commander 13350
criterion 13355
cleansing 13479
crumbling 13488
caliphate 13728
comprised 13729
classroom 14023
confusing 14025
crippling 14029
cultivate 14031
curricula 14032
contrasts 14166
converted 14310
chemistry 14657
calculate 14813
coherence 14818
coincided 15385
conundrum 15391
corrected 15393
categor@@ 15761
childcare 15948
complaint 15950
compounds 15951
compreh@@ 15952
charities 16405
customary 16642
cherished 17117
collusion 17364
conserv@@ 17369
curtailed 17374
consulted 17640
contender 17642
compliant 17936
copyright 17943
cigarette 18242
countered 18254
curiosity 18256
complicit 18561
clear-cut 18908
conspir@@ 18913
corrosive 19251
collision 19623
columnist 19624
corridors 20048
counsel@@ 20049
common-@@ 20466
consisted 20471
citizenry 20915
cleavages 20917
competi@@ 20926
cessation 21383
conquered 21900
convening 21905
creatures 21910
celebrity 22417
centenary 22418
centrally 22419
ceremon@@ 22420
contrac@@ 22436
claimants 22989
commanded 22993
corrupted 23000
crossings 23004
causality 23522
composite 23544
corollary 23551
curiously 23558
catalyzed 24131
colonized 24151
crypto-@@ 24164
canceling 24794
capitul@@ 24795
circumv@@ 24805
cynically 24830
chocolate 25543
clampdown 25550
comment@@ 25555
commodi@@ 25557
concealed 25560
coordin@@ 25569
cascading 26295
causation 26299
clarified 26312
clearance 26314
coastline 26319
consulate 26329
contain@@ 26331
control@@ 26333
cautioned 27100
chastened 27107
companion 27120
compens@@ 27121
conferred 27127
contemp@@ 27133
continual 27134
curtail@@ 27151
cacophony 27923
certified 27943
charlat@@ 27944
cognition 27955
commented 28790
complying 28792
contented 28797
continu@@ 28799
cost-free 28804
courtroom 28805
creations 28808
campaig@@ 29561
change-@@ 29564
courage@@ 30579
convinc@@ 31288
certain@@ 32050
conting@@ 32063
congrat@@ 32466
convers@@ 32469
country@@ 32470
catacly@@ 33446
compati@@ 33460
concili@@ 33462
conflag@@ 33463
conjunc@@ 33465
consump@@ 33467
crediting 33470
citizen@@ 34050
complac@@ 34056
consequ@@ 34058
contigu@@ 34061
courtro@@ 34063
center-@@ 35657
comfort@@ 35664
conflic@@ 35666
confron@@ 35667
conveni@@ 35668
challenges 1466
conditions 1729
corruption 2307
commitment 2314
confidence 2393
commercial 3183
considered 3326
candidates 3366
collective 3398
currencies 3468
capitalism 3518
contribute 3637
conference 3825
continuing 3864
compromise 4274
completely 4648
controlled 4687
consistent 4886
conclusion 4983
concerning 5146
colleagues 5340
compelling 5806
comparable 6009
challenged 6625
comparison 6701
components 6786
confronted 6787
criticized 6815
constitute 6855
capitalist 7043
convincing 7099
complexity 7200
constantly 7252
connection 7294
compensate 7424
collateral 7579
counter-@@ 7663
collection 7788
capability 8081
compliance 8084
censorship 8190
commission 8430
creativity 8516
conviction 8672
comprising 8794
continuous 9081
coordinate 9082
cumulative 9260
coalitions 9297
containing 9354
complaints 9437
committing 9701
casualties 10010
compounded 10011
correction 10183
calculated 10244
compatible 10246
capital-@@ 10299
conspiracy 10369
categories 10432
constraint 10433
collapsing 10568
conducting 10628
capitalize 10692
competence 10812
commentary 10884
capacities 11027
complained 11029
complement 11030
critically 11116
continuity 11361
classified 11451
celebrated 11643
climate-@@ 11648
convenient 11653
countering 11656
convention 11740
connecting 11908
cyberspace 11999
committees 12204
compassion 12205
completing 12206
coal-fired 12401
championed 12507
conception 12874
collecting 13100
completion 13103
conversion 13105
condemning 13231
campaigned 13347
contingent 13353
courageous 13354
contracted 13592
conversely 13594
crossroads 13596
combatants 13868
curriculum 13871
circumvent 14022
conscience 14026
culminated 14030
comprehend 14163
concession 14164
childbirth 14308
chancellor 14483
complacent 14485
culturally 14488
conceptual 14663
chauvinism 14816
compulsory 14995
complicate 15188
cigarettes 15380
collabor@@ 15386
constitu@@ 15389
combustion 15578
cultivated 15581
channeling 15762
concluding 15768
curtailing 15958
correcting 16174
communists 16411
competitor 16412
complicity 16413
cumbersome 16419
communiqué 16637
correlated 16639
charitable 16883
centrality 17114
challenger 17115
classrooms 17119
commanding 17122
contagious 17124
converting 17126
commanders 17366
calibrated 17629
commerci@@ 17637
criticisms 17645
cease-fire 17931
commemor@@ 17935
congestion 17938
consisting 17939
counteract 17944
cyclically 17945
consensual 18248
contradict 18568
country-@@ 18570
continents 19249
characters 20027
comforting 20034
conclusive 20468
contractor 20473
consulting 20931
cautiously 21381
contention 21396
cooperated 21398
consortium 21901
contextual 21904
converging 21906
clinicians 22424
consequent 22434
contending 22435
calculates 22981
ceremonies 22985
confirming 22995
certific@@ 23525
circulated 23531
co-founder 23537
constrains 23550
corrective 23552
calamities 24129
century-@@ 24135
contenders 24154
counseling 24158
countrymen 24159
cautionary 24798
correspond 24823
criticizes 24827
caricature 25537
college-@@ 25553
confluence 25563
conformity 25564
calamitous 26287
capricious 26292
caregivers 26293
co-authors 26316
conserving 26327
convoluted 26335
corrupting 26337
celebrates 27101
communic@@ 27119
computer@@ 27124
creatively 27145
campaigner 27926
carbohyd@@ 27930
catalyzing 27936
central-@@ 27938
conflicted 27963
correlates 27972
corrobor@@ 27973
centrali@@ 28770
chessboard 28780
clean-tech 28782
conspiring 28796
contiguous 28798
customized 28818
construc@@ 30247
consumer@@ 30248
congress@@ 30575
consolid@@ 30931
concentr@@ 31283
collater@@ 32057
competen@@ 32059
contribu@@ 32468
compatri@@ 32931
complexi@@ 32932
controll@@ 32934
clandest@@ 33455
consider@@ 34059
contempl@@ 34060
centrifu@@ 34749
concomit@@ 35665
counterv@@ 35670
current-@@ 35676
curricul@@ 35677
cooperation 1779
consumption 1893
competition 2215
communities 2619
competitive 2826
credibility 3548
commitments 3703
combination 3914
contributed 4199
constraints 4337
consequence 5269
complicated 5307
challenging 5394
considering 5595
confronting 5834
catastrophe 6008
coordinated 6179
constrained 6252
convergence 6396
concessions 6561
commodities 6582
competitors 6626
cooperative 6814
contraction 7152
connections 7608
comparative 7662
consolidate 7904
controlling 7938
centralized 8003
comfortable 8083
containment 8120
constitutes 8359
citizenship 8472
continental 8711
center-left 8792
complacency 8837
composition 8838
conclusions 8936
counterpart 8937
contentious 9703
compromises 9769
concentrate 9956
conditional 9957
controversy 10012
communicate 10073
contributes 10182
constructed 10434
conflicting 10629
consecutive 10630
calculation 11026
correlation 11031
compromised 11199
conferences 11200
coincidence 11907
convenience 11910
campaigning 11994
credentials 11997
charismatic 12115
criticizing 12404
compensated 12634
contemplate 12876
circulation 13098
colonialism 13101
countryside 13106
capitalized 13223
celebration 13225
corporation 13235
capitalists 13348
comparisons 13351
collaborate 13481
contributor 13593
conventions 13733
contracting 13869
campaigners 14162
constituted 14165
continually 14309
coefficient 14484
consumer-@@ 14486
conflict-@@ 14664
cooperating 14667
celebrating 14990
contractors 15189
commissions 15387
cornerstone 15392
coexistence 16167
conceivable 16170
consistency 16171
culminating 16176
corrections 16416
chronically 16635
compounding 16889
contradicts 17125
cultivating 17131
calculating 17354
consciously 17368
convictions 17942
conspicuous 18249
conceivably 18562
confidently 18563
conjunction 18564
centerpiece 18901
circulating 18907
commemorate 19247
contractual 19250
championing 20026
commentator 20035
commonplace 20036
concomitant 20039
contingency 20044
complaining 20467
constituent 20930
compatriots 21391
conditioned 21393
congratul@@ 21394
consultants 21395
convertible 21397
cultivation 21402
centrifuges 21887
currency-@@ 21912
comfortably 22428
complicates 22431
corporatist 22438
challengers 23526
complements 23543
consolation 23549
counterfe@@ 23555
chimpanzees 24142
culpability 24165
celebrities 24800
co-authored 24810
computer-@@ 24815
confinement 24817
consumerism 24819
contradic@@ 24821
corporatism 24822
corresponds 24824
combustible 25554
competences 25558
contrasting 25567
controver@@ 25568
credit-card 25576
centimeters 26304
clandestine 26311
clientelism 26315
compression 26325
contempor@@ 26332
cataclysmic 27098
categorical 27099
certainties 27104
collections 27114
consultancy 27132
convulsions 27137
crystalli@@ 27148
care-giving 27931
centrifugal 27939
conglomer@@ 27964
congressmen 27965
countenance 27974
checkpoints 28778
cholester@@ 28781
condomini@@ 28794
correspon@@ 28803
culmination 28814
chimpanze@@ 30244
conceptions 30573
character@@ 31278
commensur@@ 32930
capacity-@@ 33442
clearingh@@ 33456
chemical-@@ 34048
clienteli@@ 34053
consequences 1814
construction 3382
considerable 3478
conventional 3624
conservative 3753
corporations 3836
constitution 3895
capabilities 4465
cross-border 4804
counterparts 4836
coordination 4884
contribution 4952
compensation 5380
considerably 5441
consistently 5442
contributing 5878
concentrated 6251
constructive 6443
catastrophic 6463
contemporary 6583
civilization 7366
commentators 7580
collectively 7691
conservation 8119
central-bank 8554
calculations 8603
connectivity 8605
center-right 9136
conversation 9438
cosmopolitan 10885
consultation 11277
consequently 11738
constituency 11996
continuation 12118
constituents 12636
consolidated 12767
coordinating 13234
complicating 13483
conservatism 13485
constraining 13590
condemnation 13731
characterize 14021
commensurate 14024
constructing 14027
clean-energy 14659
commissioned 14661
compromising 14662
codependency 15187
cutting-edge 15194
complexities 15766
confirmation 15769
continuously 15771
cooperatives 15772
capital-flow 15946
corporate-@@ 15953
commissioner 16168
cost-benefit 16890
catastrophes 17357
contributors 17370
celebrations 17631
conditioning 17937
contaminated 17940
commercially 18245
communicable 18560
compensating 19626
conveniently 19632
chemotherapy 20028
commodity-@@ 20465
contemplated 20472
crowdfunding 20475
conciliatory 20927
complemented 21392
cancellation 21880
communicated 21892
competencies 21894
concessional 21895
consumer-led 21903
championship 22421
capitalizing 22983
colonization 22991
community-@@ 22994
carbon-based 23519
combinations 23541
confidential 23547
convincingly 24155
cheerleaders 24802
complication 24814
civil-rights 25548
capitulation 26291
competitions 26323
chairmanship 27106
constituting 27131
contractions 27135
case-by-case 27934
collectivi@@ 27956
consensus-@@ 27967
continent-@@ 27968
centralizing 28771
conveniences 28800
controllable 31688
conciliation 32060
catastroph@@ 32457
centuries-@@ 34750
circumstances 3401
comprehensive 3482
contributions 4876
characterized 5319
consolidation 5329
congressional 5491
confrontation 5506
communication 5726
controversial 5975
collaboration 6191
concentration 6762
consideration 6830
conservatives 7369
civil-society 7469
complementary 10127
corporate-tax 10631
consequential 10694
contradictory 11201
corresponding 11454
contradiction 11545
civilizations 11826
collaborative 12296
consciousness 12766
complications 13352
conversations 13486
consolidating 13732
consultations 15579
constitutions 16172
contemplating 16173
conglomerates 16414
counterweight 16417
clearinghouse 16886
cap-and-trade 17113
characterizes 17116
collaborating 17636
comparatively 17639
cash-strapped 18239
concentrating 18246
contraception 18250
contamination 18566
conspicuously 19630
communicating 20038
configuration 20040
controversies 20045
collaborators 20921
collective-@@ 22426
commemoration 22429
commissioners 22430
confederation 22433
conflagration 22996
cosmopolitans 24157
cross-country 24828
contingencies 25566
currency-swap 25577
compatibility 26322
constellation 26328
computational 27123
congratulated 27128
connectedness 27130
cooperatively 27139
cyber-attacks 27152
centuries-old 27940
criminalizing 27980
crisis-ridden 27982
certification 28773
controversi@@ 32064
confidence-@@ 32465
constitutional 4025
communications 6093
considerations 6627
climate-change 8117
cost-effective 9298
constituencies 10695
characteristic 12200
conditionality 12402
contradictions 13104
capitalization 14479
concentrations 15767
convertibility 17371
cardiovascular 17630
contractionary 18251
carbon-dioxide 18900
centralization 18902
confrontations 19627
counterbalance 19633
consumption-@@ 20042
collateralized 20464
countervailing 21400
capital-market 22982
cryptocurrency 23005
classification 23535
cyber-security 24166
constructively 24818
counterparties 26338
comprehensible 32464
cosmopolitan@@ 35669
competitiveness 3159
current-account 3187
characteristics 8316
capital-account 10430
countercyclical 14996
climate-related 15949
confrontational 17123
consumption-tax 17641
community-based 20924
commodity-price 21390
cosmopolitanism 22439
correspondingly 25571
countermeasures 25573
criminalization 27979
cryptocurrencies 12301
counter-cyclical 15954
creditworthiness 15956
constitutionally 18565
chemical-weapons 19618
country-specific 21908
carbon-intensive 25536
counterintuitive 27140
climate-friendly 27951
counterterrorism 27975
characterization 28776
counterproductive 8839
capital-intensive 14654
counter-terrorism 21399
commercialization 25556
conflict-affected 26326
capacity-building 27093
crisis-management 28809
counter-productive 15394
commander-in-chief 26321
central-government 27102
characteristically 28775
confidence-building 17367
command-and-control 22992
commodity-exporting 27118
d 3292
do 434
de 2269
ds 4954
da 7337
dy 8558
di 9440
du 15967
dt 16906
did 950
day 1847
don 2680
d@@ 2836
due 3484
die 4812
ded 5330
des 5821
der 6192
den 7906
dly 8153
dry 10077
dge 10889
dam 10960
dog 11366
dom 14038
del 14315
dit 14674
dar 16178
dal 17375
dor 17385
dow 17387
dim 18581
dia 20064
din 20486
dip 21926
dic 23023
dos 23038
dug 24866
dan 25580
ddy 25584
dev 27178
dgy 27179
dig 28007
dle 28025
dum 28872
dez 30942
dis 31298
dus 32949
dup 34081
debt 700
does 790
down 1163
data 1504
deal 1586
done 1786
days 2489
deep 2542
de@@ 2839
drug 3160
di@@ 3299
ding 4427
drop 4581
died 4666
do@@ 5103
dead 5353
draw 5456
didn 5534
date 5879
d-@@ 6010
dark 6398
door 6415
deny 6490
dire 6747
du@@ 6955
duty 7542
drag 8608
da@@ 8940
ders 9773
drew 10440
dose 10818
diet 11748
dies 11913
dual 11915
dent 12002
dams 12641
dest 12642
dogs 13361
dare 13737
defy 13874
dawn 14490
dy@@ 15403
dear 15774
dust 15968
doom 16187
dr@@ 16425
dd@@ 16895
dged 17949
dish 17952
dian 18927
ddle 19253
deaf 19254
dier 19262
dump 20492
dium 20957
dirt 21414
dges 21925
dash 22447
dens 22456
dily 23027
doms 23579
dock 24191
deen 24836
duck 24865
deem 25590
dial 25600
dice 25601
dism 25605
dles 25610
dull 25615
dung 25616
duce 26377
déjà 26378
desk 27175
dows 27196
dded 28821
duly 28871
demy 30586
dean 30935
dite 30946
dend 31293
dg@@ 31295
dity 31699
d-up 32069
dé@@ 32082
deau 34069
dees 34072
dari 34768
dder 34769
dict 34785
dney 34798
dule 34802
dong 35699
dren 35701
dums 35703
doing 1881
death 2561
dis@@ 2922
doubt 3078
drive 3293
drugs 3388
debts 3855
doesn 4533
deals 4698
daily 4768
dream 5260
drawn 5493
delay 6023
de-@@ 6238
donor 6663
draft 7541
drove 7638
dying 7694
dec@@ 7759
den@@ 7907
deter 8433
dozen 8434
def@@ 8841
depth 9085
der@@ 9086
doors 9442
dri@@ 9443
dered 9772
drone 9902
dealt 10131
dic@@ 10184
drama 10251
dirty 10438
deb@@ 10699
drain 10703
drops 10819
dra@@ 11121
dar@@ 11912
downs 11914
draws 12124
don@@ 12407
doses 12645
dan@@ 13109
decay 13110
dro@@ 13112
dates 13237
del@@ 13599
dre@@ 13603
diets 13741
dom@@ 13743
drift 13744
dairy 13872
dol@@ 14037
dig@@ 15199
dam@@ 15583
dev@@ 15587
din@@ 15777
doc@@ 15780
dress 15781
deeds 15962
dared 16420
dem@@ 16421
dogma 16648
dge@@ 16902
drink 17139
des@@ 17380
devil 17653
dried 17953
duc@@ 17954
dding 18257
dness 18584
dated 18919
dog@@ 19266
dence 19640
defer 20937
dians 20946
dur@@ 20960
dwarf 20961
did@@ 21412
dru@@ 21422
dious 22460
dot@@ 22462
dup@@ 22466
dance 23007
dense 23016
diest 23566
dless 23577
dow@@ 23582
dents 24175
dging 24185
dwell 24195
dil@@ 24854
dings 24856
dison 24861
dares 25581
day@@ 25583
dited 25609
drill 25614
demic 26349
demos 26352
digit 26362
dor@@ 26375
dat@@ 27154
daw@@ 27155
ddled 27991
det@@ 28003
ditch 28022
dures 28032
doves 28863
dread 28866
drown 28868
dul@@ 28870
duped 28873
dyn@@ 29578
dys@@ 29579
doz@@ 30261
dinal 30589
do-@@ 30592
dir@@ 30944
div@@ 30948
dable 31290
dedly 31291
dical 31297
dop@@ 31700
drums 31701
dio@@ 32076
dau@@ 32474
derly 32475
dicts 32480
diary 33485
dened 34073
dep@@ 34777
dea@@ 35680
denly 35683
dives 35696
demand 1004
during 1040
dollar 1655
decade 1676
debate 1944
direct 2351
damage 2671
driven 2822
depend 3410
deeply 3471
danger 3519
deaths 3582
degree 3830
desire 3896
decide 4066
deeper 4117
defend 4156
defeat 4189
design 4319
double 4482
donors 5005
divide 5191
define 5934
denied 6543
doubts 6703
driver 6748
decent 6831
deemed 7101
demise 7941
deepen 8004
dozens 8057
differ 8121
deadly 8193
denial 8361
deploy 8474
down@@ 8638
devise 8795
debtor 8840
drives 9444
duties 9445
deputy 9706
doctor 10370
doomed 10371
detect 10437
detail 10632
devote 10633
dreams 10634
dismal 10751
device 10888
drones 11037
dubbed 11367
delays 12001
domain 12644
divert 12775
deli@@ 13238
derive 13600
derail 13876
dearth 14033
dampen 14168
desert 14169
dead@@ 14491
defuse 14822
dition 14828
defl@@ 15196
divi@@ 15201
dating 15396
delu@@ 15585
denies 15775
dinner 15963
depths 16180
diesel 16182
devi@@ 16645
draw@@ 16650
dering 16899
desp@@ 16901
daring 17647
dashed 17648
defied 17651
disp@@ 17656
divine 17661
dele@@ 17947
devoid 18260
dictum 18580
dearly 19255
dental 20060
doub@@ 20073
droves 20075
domino 20491
dation 20935
desc@@ 20943
diff@@ 20947
deal@@ 21914
decree 21916
defect 21917
deni@@ 21919
dish@@ 21930
drinks 21940
darker 22446
doubly 22464
dram@@ 22465
depart 23017
digits 23026
disarm 23029
donate 23037
deri@@ 23565
dismay 23573
dist@@ 23575
doom@@ 23580
damned 24168
dest@@ 24181
dilu@@ 24186
deceit 24833
defies 24837
demo@@ 24842
deters 24852
deem@@ 25591
dengue 25594
dovish 25612
dwarfs 25617
deaf@@ 26343
dening 26353
dented 26355
debris 27156
demons 27168
deport 27172
dili@@ 27183
doping 27195
drum@@ 27197
dent@@ 27998
detain 28004
dilute 28010
dispel 28018
doning 28026
drying 28029
dumped 28031
der-@@ 28836
disd@@ 29575
dark@@ 30251
ddling 30252
desi@@ 30255
digi@@ 30257
diment 30258
defe@@ 30584
dela@@ 30938
depl@@ 30940
dial@@ 31296
disc@@ 31698
dece@@ 32071
dise@@ 32078
door@@ 32081
damp@@ 32473
disu@@ 32481
defi@@ 32940
demi@@ 32941
demp@@ 32942
dities 32947
duci@@ 32948
dwar@@ 32950
deca@@ 33475
deep@@ 33477
dge-@@ 33484
dict@@ 33487
dovi@@ 33490
deci@@ 34071
drin@@ 34080
decl@@ 34770
del-@@ 34774
demics 34775
devo@@ 34784
dingly 34788
diso@@ 34791
distan 34795
dizz@@ 34797
doll@@ 34799
drow@@ 34800
dubi@@ 34801
docu@@ 35697
dole@@ 35698
dot-@@ 35700
decades 1251
despite 1281
deficit 1727
decline 1950
defense 2254
develop 2376
disease 2704
dollars 2712
digital 2886
demands 2968
deliver 3056
depends 3434
decided 3748
default 3832
dynamic 3891
driving 3976
defined 4130
divided 4143
diverse 4984
debates 5226
destroy 5237
dealing 5270
dispute 5382
doctors 5479
dangers 5807
dropped 5835
discuss 6144
details 6305
distant 6481
dilemma 6524
deserve 6601
dignity 6730
doubled 7102
degrees 7176
devices 7177
drivers 7221
devoted 7296
dioxide 7338
declare 7470
drawing 7472
display 7636
debt-@@ 7790
delayed 8005
deposit 8056
damaged 8192
debtors 8431
disrupt 8607
dubious 8712
denying 8747
drought 8797
dismiss 9406
despair 9549
durable 9550
dissent 9708
desired 9837
destiny 10502
derived 10749
debated 10814
dictate 10816
divorce 11120
decides 11546
defines 12000
drug-@@ 12006
drastic 12408
debacle 12508
dragged 12646
dynasty 12647
devised 12772
designs 12878
dumping 13113
discern 13239
disdain 13742
descent 13877
distort 14035
divides 14036
desires 14170
data-@@ 14489
demon@@ 14492
deepest 14668
deduc@@ 14821
diver@@ 15400
density 15586
devalue 15588
direc@@ 15590
damages 15773
domains 15965
derives 16181
drafted 16649
defects 17132
deprive 17136
depress 17378
dormant 17386
dressed 17388
differs 18261
distr@@ 18267
donated 18269
deposed 18924
defying 19257
doubted 19267
dreamed 19268
densely 19641
devol@@ 19643
dislike 19650
dispose 19651
dreaded 19654
drowned 19655
détente 19656
dealers 20055
decom@@ 20057
deepens 20058
deton@@ 20063
diamond 20065
derided 20483
digging 20485
demor@@ 20940
depar@@ 20941
deser@@ 20944
discord 20950
decency 21405
diffuse 21413
disgust 21417
dot-com 21420
dual-@@ 21423
demar@@ 21918
deep-@@ 22450
deflect 22453
decor@@ 23008
decrees 23009
defiant 23011
dietary 23024
diverge 23034
doubles 23039
dwind@@ 23041
dedness 23559
domin@@ 23578
downing 23583
defends 24173
despots 24180
dynam@@ 24196
damning 24831
darkest 24832
deplo@@ 24844
descend 24848
detec@@ 24850
disgu@@ 24860
dwarfed 24867
deceive 25587
decim@@ 25588
defeats 25592
drained 25613
death@@ 26344
deple@@ 26357
diluted 26363
disma@@ 26368
debun@@ 27159
degrade 27163
deniers 27169
denti@@ 27170
depic@@ 27171
dations 27990
defunct 27993
desal@@ 27999
dissu@@ 28020
dualism 28030
denom@@ 28830
depos@@ 28833
depra@@ 28835
disab@@ 28845
disgr@@ 28850
dislo@@ 28852
doctr@@ 28859
drachma 28865
dream@@ 28867
ducible 28869
defin@@ 29572
disco@@ 29574
domes@@ 29577
decei@@ 30253
deter@@ 30256
degra@@ 30937
diabe@@ 30943
defen@@ 31292
disci@@ 31299
dispu@@ 31302
digit@@ 31696
deal-@@ 32070
decre@@ 32072
despo@@ 32476
dically 32479
divor@@ 32482
drach@@ 32483
diame@@ 32945
defam@@ 33478
deman@@ 33480
dialo@@ 34074
dwell@@ 34082
dedic@@ 34771
defic@@ 34772
degre@@ 34773
deriv@@ 34779
derness 34780
desig@@ 34781
datab@@ 35679
decad@@ 35681
deleg@@ 35682
deran@@ 35685
dest-@@ 35688
dgingly 35689
digni@@ 35691
domestic 1179
decision 2018
deficits 2195
directly 2889
diseases 3309
designed 3330
declared 3483
disaster 3546
dramatic 4338
dialogue 4381
disputes 4712
dominant 4906
declined 4953
decisive 5023
damaging 5249
downturn 5259
downward 5341
deposits 5716
directed 5761
dominate 6193
dynamics 6239
delivery 6336
division 6350
doctrine 6365
demanded 6562
dynamism 6911
deployed 7071
declines 7153
describe 7201
disorder 7202
defeated 7295
director 7425
detailed 7471
distinct 7637
defining 7832
downside 7966
distance 8197
distress 8317
distrust 8362
diminish 8517
daunting 8637
diabetes 8796
defaults 8988
dictator 8989
disputed 8991
deserves 9042
disagree 9186
droughts 9187
doubling 9355
decrease 9508
daughter 9596
deciding 9632
document 9709
dividend 9959
drinking 10252
disposal 10303
discover 10891
defended 11032
defenses 11033
deprived 11118
depended 11206
deepened 11363
discount 11364
duration 11550
delicate 11657
diaspora 11747
divisive 11833
dividing 12004
deadline 12120
dropping 12207
develops 12302
diplomat 12303
district 12306
depleted 12877
diarrhea 13111
delaying 13490
debating 13738
dictates 13740
defiance 13873
dilemmas 13878
drilling 14040
deadlock 14312
destined 14493
deterred 14494
delusion 14670
disarray 14672
detained 14826
database 14999
delivers 15001
dictated 15003
disclose 15004
doubtful 15006
disabled 15398
devising 15589
disbur@@ 15591
denounce 15776
distract 15779
dealings 15959
diverted 16186
dragging 16426
deferred 16643
displace 16647
deserved 16900
degraded 17134
derailed 17379
detected 17652
displays 17657
drafting 17662
dynastic 17663
destroys 18578
disguise 18928
dissolve 18929
drowning 18932
despotic 19260
dwellers 19269
darkness 19637
depicted 19642
design@@ 20062
diamonds 20066
dishon@@ 20071
dressing 20074
duplic@@ 20493
deline@@ 20938
discer@@ 20949
dispar@@ 20952
disper@@ 20953
downfall 20958
defender 21406
diagnose 21411
disrup@@ 21419
depend@@ 21920
detached 21923
doorstep 21938
declares 22448
devotion 22459
defusing 23012
democrat 23015
dissip@@ 23031
distorts 23032
dollar@@ 23036
draining 23584
drifting 23585
deported 24176
deputies 24177
designer 24178
dispense 24189
donation 24192
dreadful 24193
dementia 24841
derision 24847
diplom@@ 24857
disgrace 24859
disposed 24862
downplay 24864
dampened 25579
demago@@ 25593
deprives 25596
deserted 25598
despised 25599
diminu@@ 25603
doldrums 25611
deceased 26345
deciph@@ 26346
decouple 26347
devalued 26359
discrete 26366
disobe@@ 26369
divorced 26373
doctoral 26374
decadent 27160
dedicate 27161
destro@@ 27176
discreet 27186
dispen@@ 27189
disunity 27192
dogmatic 27193
delegate 27995
differed 28006
dization 28023
dizzying 28024
dopamine 28027
d-and-@@ 28820
decaying 28824
deranged 28838
destin@@ 28840
dialec@@ 28842
disban@@ 28848
discre@@ 28849
dispas@@ 28854
dispir@@ 28855
dissuade 28857
domini@@ 28861
doomsday 28862
downtown 28864
demoli@@ 29573
defaul@@ 30254
distur@@ 30260
decent@@ 30582
democr@@ 30585
dentally 30587
deport@@ 30588
discus@@ 30590
dystop@@ 30593
dismis@@ 30945
ditional 30947
dorman@@ 30949
disman@@ 31300
discar@@ 32077
dispat@@ 32079
d-the-@@ 32472
devast@@ 32477
diamon@@ 32478
declin@@ 32938
diagno@@ 32944
debili@@ 33474
declar@@ 33476
deploy@@ 33482
dichot@@ 33486
decade@@ 34070
disple@@ 34078
distor@@ 34079
depriv@@ 34778
detail@@ 34782
dictat@@ 34786
diffic@@ 34787
dispos@@ 34792
dissid@@ 34794
distan@@ 34796
descri@@ 35686
desira@@ 35687
drough@@ 35702
democracy 1189
different 1285
difficult 1342
developed 1707
decisions 2331
dangerous 2439
direction 3004
diplomacy 3612
declining 3878
described 4026
determine 4079
deflation 4102
dependent 4311
dominated 4546
delivered 4729
demanding 5098
displaced 5204
diversity 5258
dominance 5784
destroyed 5799
deepening 6069
desperate 6105
disasters 6159
divisions 6218
discussed 6270
desirable 6763
defending 6856
diplomats 6975
depending 7609
dismissed 7665
departure 7730
diagnosis 7760
discourse 7762
discovery 7871
dimension 8196
depressed 8432
dividends 8942
disappear 9087
declaring 9402
dedicated 9439
defensive 9633
dictators 9707
districts 9839
documents 10076
democrats 10132
distorted 10185
describes 10249
designing 10436
disregard 10439
denounced 10701
defenders 10815
deploying 10887
directors 10890
detention 10962
diffusion 11034
diversify 11210
decreased 11278
disorders 11457
deterrent 11745
disrupted 12003
donations 12005
diagnosed 12121
disparate 12304
dismantle 12774
displayed 13492
dominates 14039
disparity 14171
downgrade 14172
defeating 14313
deficient 14669
discredit 14673
daughters 14819
deception 14820
delegates 14823
divergent 14829
detainees 15002
detection 15197
directing 15200
diversion 15401
draconian 15594
dissident 15778
downturns 15966
depletion 16179
disclosed 16184
detriment 16423
distances 16424
disguised 16646
defaulted 16897
demand-@@ 17135
dispersed 17138
dwindling 17140
deterring 17381
deduction 17946
directive 18262
databases 18575
decimated 18576
disturbed 18930
decidedly 19256
depriving 19259
diagnoses 19261
dignified 19645
diverting 19653
disagreed 20068
discarded 20070
dissolved 20072
deceptive 20477
differing 20484
dollar-@@ 20490
depleting 20942
dishonest 20951
devastate 21409
deadliest 21913
descended 21922
dismissal 21932
doctrines 21937
downgra@@ 21939
dampening 22445
defective 22452
detecting 22458
double-@@ 22463
delegated 23013
deviation 23022
dithering 23033
downsides 23040
departing 23564
digitized 23567
doubtless 23581
debatable 24169
decoupled 24171
despotism 24179
devaluing 24183
developer 24184
deceler@@ 24834
degrading 24838
delinqu@@ 24839
delusions 24840
denfreude 24843
deserving 24849
dialogues 24853
diligence 24855
decreases 25589
digitally 25602
discounts 25604
demagogue 26348
depiction 26356
discipl@@ 26364
dissipate 26372
downright 26376
delighted 27164
depreci@@ 27173
destruc@@ 27177
dichotomy 27182
disagrees 27184
dispelled 27188
disquie@@ 27190
duty-free 27198
dystopian 27199
deference 27992
deliver@@ 27997
destitute 28001
dictating 28005
disgraced 28014
distanced 28021
drawbacks 28028
decadence 28823
deceiving 28825
depicting 28832
deposited 28834
derailing 28837
designers 28839
detailing 28841
diasporas 28843
disturb@@ 30591
decade-@@ 30936
deliber@@ 30939
detaine@@ 30941
displac@@ 31301
distric@@ 31303
depress@@ 31693
diarrhe@@ 31694
distinc@@ 32080
decreas@@ 32939
der-in-@@ 32943
develop@@ 33483
diaspor@@ 34075
denomin@@ 34776
dismemb@@ 34790
diversi@@ 35695
developing 1154
democratic 1549
diplomatic 2786
difference 2933
determined 4059
discussion 4182
depression 5190
discipline 5443
dependence 5467
delivering 6464
definition 6523
difficulty 6563
disastrous 6602
discovered 6788
disruptive 6954
disruption 7013
diminished 7178
deployment 7610
discontent 7761
deterrence 7908
destroying 8194
discourage 8518
decisively 8606
disturbing 8992
documented 9043
deliberate 9084
dependency 9509
distressed 10014
dimensions 10250
diagnostic 10503
delegation 10700
distribute 10752
discussing 10964
divergence 11119
disclosure 11208
depositors 11547
describing 11548
disposable 11549
depressing 11744
developers 11746
domination 11749
disorderly 12123
dissidents 12305
depreciate 12509
devastated 12510
designated 12769
determines 12771
deductions 13357
department 13358
disability 13360
directions 13602
demagogues 13875
deficiency 14034
definitive 14314
disconnect 14317
discretion 14318
downstream 14675
dominating 15402
distorting 15593
decreasing 15961
disrupting 15964
distracted 16185
directives 16903
definitely 17133
dismantled 17137
denouncing 17377
day-to-day 17649
discounted 17654
distortion 17658
distribu@@ 17659
diminishes 17950
derivative 18258
discomfort 18263
dismissing 18266
double-dip 18585
decoupling 18921
detractors 18926
divestment 18931
displacing 19264
deleverage 20059
dedication 20478
deficit-@@ 20480
depressive 20482
dispatched 20488
decarbon@@ 20936
demography 20939
distancing 20955
distinctly 20956
drought-@@ 20959
defensible 21407
devolution 21410
downgraded 21421
deposit-@@ 21921
disease-@@ 21929
deductible 22449
defamation 22451
delegating 22454
defaulting 23010
deliveries 23014
defendants 23560
decrimin@@ 24172
displaying 24190
durability 24194
deplorable 24845
determin@@ 24851
disappears 24858
dispersion 25606
deregulate 26358
deviations 26360
disrespect 26370
dissimilar 26371
demobili@@ 27166
diagnosing 27180
degenerate 27994
digital-@@ 28008
defense-@@ 28826
demolished 28828
demolition 28829
disappoint 28846
dismissive 28853
dissenting 28856
dissemin@@ 30259
difficul@@ 31695
disingen@@ 32946
defined-@@ 33479
demonstr@@ 33481
document@@ 33489
discoura@@ 34077
deterior@@ 34783
disputable 34793
differen@@ 35690
distingu@@ 35694
development 804
democracies 3362
differences 3420
destruction 4073
discussions 4855
devastating 4905
demographic 4975
demonstrate 5016
destructive 6414
declaration 6445
devaluation 6629
differently 6682
desperately 6953
distributed 7611
disarmament 7635
degradation 7870
distinction 7872
derivatives 7942
disparities 8006
diminishing 8026
distortions 8152
determining 8195
distinguish 8198
disruptions 8248
disappeared 9088
discredited 9089
dangerously 9185
debt-to-GDP 9705
destination 9774
destabilize 9901
description 10571
diversified 11035
dismantling 11209
discoveries 11365
devastation 12405
disciplines 12406
dysfunction 12409
deteriorate 12770
discouraged 12773
denominated 12983
departments 12984
drastically 13241
depreciated 13359
determinant 14316
descendants 14824
desperation 14825
disaffected 14827
dissolution 15005
decade-long 15195
deep-seated 15584
distinctive 15592
disciplined 16183
discovering 16905
divergences 17384
disillusion 18265
documentary 18268
diagnostics 18579
dimensional 18582
disregarded 18583
demand-side 18922
deprivation 19258
definitions 19639
discourages 19646
discrepancy 19647
discrimin@@ 19648
distraction 19652
decades-old 20056
deployments 20061
dictatorial 20067
deep-rooted 20479
dislocation 20487
demograph@@ 21408
disapproval 21415
disposition 21418
debt-fueled 21915
detrimental 21924
discernible 21928
democratize 22455
deportation 23018
depressions 23019
demonstra@@ 23562
disclosures 23568
disseminate 24863
data-driven 25582
deal-making 25585
deregulated 25597
displeasure 25607
denominator 26354
debt-equity 27157
defenseless 27162
demagoguery 27165
democrati@@ 27167
designation 27174
disentang@@ 27187
disturbance 27191
domestic-@@ 27194
destitution 28002
disaster-@@ 28011
delegations 28827
disgruntled 28851
distressing 28858
documenting 28860
decision-@@ 30583
disappoin@@ 31697
destabili@@ 32074
disconcer@@ 34076
disenchan@@ 35692
distribution 3593
developments 3826
dramatically 4098
demonstrated 4219
depreciation 5420
dictatorship 5991
difficulties 6024
deregulation 7253
deleveraging 7582
deflationary 7664
demonstrates 7905
deliberately 8556
domestically 8842
disagreement 9404
displacement 9838
disadvantage 10817
deficiencies 10961
double-digit 11036
discouraging 11831
disappointed 12122
deteriorated 12643
declarations 13489
differential 13601
demographics 13739
digitization 14495
devaluations 14671
deliberation 15000
debilitating 15397
denomination 16898
disciplinary 17382
distributing 17383
debt-service 17650
disturbances 17660
disabilities 17951
determinants 18259
destabilized 18577
decades-long 18920
destinations 18925
disconnected 19263
deceleration 19638
disinflation 19649
disappearing 20069
definitively 20481
dissatisfied 20954
decelerating 21404
discriminate 21416
disastrously 21927
distinctions 21935
desirability 22457
diversifying 22461
disaffection 23028
denuclearize 23563
dislocations 23572
dispossessed 23574
distributive 23576
decisiveness 24170
deteriorates 24182
disenchanted 24187
debt-ceiling 25586
depreciating 25595
demilitari@@ 26350
differenti@@ 26361
discrediting 26365
disingenuous 26367
deliberative 27996
descriptions 28000
disintegrate 28016
disseminated 28019
dependencies 28831
denucleari@@ 32073
developed-@@ 32075
der-in-chief 35684
destabilizing 6888
determination 7125
dysfunctional 7833
disappointing 8990
demonstrating 9041
deteriorating 9403
disagreements 9405
deterioration 9634
decentralized 9771
deforestation 9900
dictatorships 10572
demonstration 11204
demonstrators 11205
disadvantaged 11207
distinguished 11279
discretionary 11832
disappearance 12985
differentials 15198
debt-financed 16896
disadvantages 16904
disillusioned 17655
deliberations 17948
disengagement 18264
democratizing 18923
distinguishes 20489
dissemination 21934
distortionary 21936
developmental 23021
differentiate 23025
documentation 23035
discrepancies 23569
dismemberment 24188
depreciations 24846
demilitarized 26351
diametrically 27181
disconcerting 27185
disaster-risk 28012
disincentives 28015
disintegrated 28017
disenfranch@@ 29576
developing-@@ 31294
disillusion@@ 34789
discrimination 5596
disintegration 7540
demonstrations 7693
democratically 8557
distributional 10702
disappointment 10963
disinformation 12879
drug-resistant 13362
discriminatory 13491
demonetization 17376
distinguishing 19265
differentiated 19644
development-@@ 20945
diplomatically 20948
disenchantment 23030
disintegrating 23571
decolonization 24835
digitalization 28009
discriminating 28013
debt-deflation 28822
decision-making 4155
democratization 9227
diversification 9441
decision-makers 11456
dissatisfaction 15399
decarbonization 15960
destabilization 16422
disillusionment 21931
desertification 23020
defined-benefit 23561
disenfranchised 23570
differentiation 28844
disappointments 28847
distinguishable 33488
disproportion@@ 35693
disproportionate 8941
denuclearization 10075
decentralization 20476
developed-country 16644
deficit-reduction 24174
disproportionately 9090
developing-country 10750
dollar-denominated 13240
dispute-settlement 21933
dispute-resolution 25608
debt-restructuring 27158
e 2574
er 2096
es 2605
ed 2736
en 4027
el 5549
et 6526
ek 9551
ey 12210
ef 14496
ez 15603
em 16909
ex 17148
ep 25628
ev 26398
ei 28881
eu 29588
eh 30264
ew 30272
end 902
era 2604
e@@ 2775
ers 2874
ent 4992
ens 6704
eye 6832
ery 7834
eat 7967
est 8288
els 10186
eve 10253
ess 10756
ell 11281
etc 12410
ely 12880
ets 13366
ect 13604
ena 14173
ere 15784
ert 16913
ero 17962
ese 18593
esh 18594
egg 18933
ene 19666
eng 19667
ern 20505
esa 20969
ema 21428
eed 21943
eva 21950
efs 22472
eus 23058
ear 24198
ego 24201
ems 24874
eds 26380
eer 27205
ela 27206
ede 28035
eth 28059
edy 28879
ety 29587
ech 30262
erk 30268
eld 30953
evo 30962
ece 31304
eff 31305
elt 32489
ean 32951
eps 33505
esn 34821
ext 35728
even 283
each 1335
ever 1623
euro 1644
easy 2313
en@@ 3019
else 3262
er@@ 3543
exit 4086
el@@ 4618
e-@@ 4677
es@@ 4986
ends 5165
em@@ 5295
eyes 5396
earn 5621
ec@@ 5965
ease 5992
ed@@ 6240
ence 6366
ev@@ 6546
evil 6651
ex@@ 7073
edge 7612
ents 8319
east 8798
ep@@ 9229
ef@@ 10504
ency 10893
eg@@ 12125
ez@@ 12309
ey@@ 12650
ened 12779
ei@@ 13606
eled 14041
ered 14174
emit 14677
envy 14678
et@@ 14679
echo 14830
eggs 15203
ears 15595
epic 15783
eu@@ 15785
enty 17959
ects 18586
eyed 19283
esse 20087
ense 20967
edly 21942
eb@@ 22469
ella 22475
enko 23048
ests 23056
eras 23595
esty 23599
e.g. 24197
edes 24200
erie 24884
ee@@ 25619
ente 26392
eves 26399
ew@@ 27227
erto 28056
exam 28063
ells 28883
escu 28904
erly 29586
enly 30266
esis 30269
ecki 30952
elli 30954
eous 30956
empt 31307
eral 31315
eded 32083
eful 32485
eing 32486
elds 32487
emex 32492
erra 32962
egal 34086
eiji 34087
enda 34091
enge 34093
e.@@ 34803
eder 34805
eh@@ 34809
elty 34813
enig 34814
erve 34819
esel 34820
ezza 35730
every 1299
early 1561
ended 3479
equal 3542
event 4034
eight 4080
elite 4230
exist 4518
enter 4730
extra 5410
enjoy 5535
enemy 5685
eager 6025
end@@ 6416
ering 6417
entry 6525
er-@@ 6931
earth 7014
ent@@ 7072
est@@ 7508
ently 7794
ening 8559
error 8639
equ@@ 8677
exp@@ 9188
empty 9228
eng@@ 9300
euros 9302
ess@@ 9356
erode 9408
enact 9510
elect 9710
ear@@ 9775
ement 9776
eli@@ 9840
emb@@ 9960
ell@@ 10372
el-@@ 10635
exile 10704
ed-@@ 11280
ented 11658
es-@@ 12882
exc@@ 12987
ex-@@ 13245
ens@@ 13364
ethos 13365
exact 13367
ero@@ 13609
envoy 13749
en-@@ 13881
exert 13886
ech@@ 14319
erupt 14500
emp@@ 14831
eness 15010
eased 15596
elled 15597
essed 15599
eff@@ 16189
essay 16194
eas@@ 16427
eling 16655
email 16656
ender 16659
err@@ 17145
eni@@ 17391
emo@@ 17668
equip 17960
evade 17967
emi@@ 18274
enced 18936
erect 18944
ego@@ 19270
eth@@ 19276
exits 19280
ected 19658
ele@@ 19659
ences 19664
eries 19669
erred 19670
eye@@ 19680
earns 20077
edi@@ 20498
eless 20499
expel 20509
exual 20974
erson 21435
esses 21437
evils 21439
eding 21941
ester 21949
eaten 22468
ensen 22478
et-@@ 22480
ental 23051
estic 23055
ethic 23057
erral 23596
ector 24199
eline 24203
epoch 24211
eld@@ 24871
ensue 24880
exams 24889
erals 25629
excel 25641
emits 26385
eping 26395
edged 27203
edges 27204
eller 27208
erial 27222
erous 27223
esp@@ 27225
eland 28036
entos 28050
epi@@ 28051
evo@@ 28061
eerie 28880
elder 28882
elu@@ 28885
ember 28887
esame 28903
ext@@ 29592
ene@@ 30265
eable 30594
ectly 30595
enses 30598
eag@@ 30950
eties 30959
esa@@ 31316
eco@@ 31702
elt@@ 31706
eting 31718
edict 32484
ellow 32488
ept@@ 32497
erity 32500
esome 32501
eij@@ 32953
entia 32958
erb@@ 32961
exu@@ 32964
eme@@ 33495
epest 33504
esc@@ 33508
etr@@ 33510
exo@@ 33512
eik@@ 34088
epo@@ 34102
evi@@ 34106
etary 34823
evers 35722
energy 941
enough 1347
ensure 1562
effort 1829
either 1916
effect 2089
entire 2384
export 2718
events 2741
expect 2792
equity 2925
easily 2948
extent 3057
enable 3229
easing 3254
ethnic 3506
expand 3594
easier 3758
elites 3879
engage 3883
ending 4170
excess 4175
emerge 4401
escape 4888
extend 5024
except 5166
estate 5622
engine 6055
exists 6306
empire 6509
exceed 6584
earned 6764
ethics 7255
expert 7543
enti@@ 7732
excuse 8156
entail 8249
entity 8318
errors 8943
eroded 9409
employ 9711
evolve 9843
expose 10078
enting 10895
enjoys 11040
eating 11834
ements 11835
endure 11836
ent-@@ 12512
elling 12777
enters 13115
enrich 13493
equals 13608
embody 13880
ential 13882
euro@@ 14501
embark 15008
elec@@ 15204
equi@@ 15206
expire 15208
evenly 15601
exempt 15602
ection 16428
emig@@ 16429
exodus 16431
echoed 16651
ective 16652
ende@@ 16912
evic@@ 17147
eighth 17389
echoes 17665
entr@@ 17670
editor 17955
erodes 17963
essing 17965
emails 18273
efully 18589
end-@@ 18591
euph@@ 18595
enmity 18939
envi@@ 18941
ession 19671
exiled 19674
expe@@ 19676
emul@@ 20080
exhi@@ 20507
ecting 20963
emer@@ 20966
exac@@ 20970
educ@@ 21424
eigh@@ 21425
elev@@ 21426
elicit 21427
erable 21433
erring 21434
erupts 21436
encing 21944
enders 21945
edit@@ 22471
emis@@ 22477
exotic 22485
empi@@ 23045
enroll 23049
ensued 23050
evol@@ 23060
ener@@ 23593
erup@@ 23597
ension 24210
erated 24212
ever@@ 24214
eco-@@ 24868
ennial 24878
eschew 24888
elders 25621
embryo 25623
enings 25626
evokes 25638
extr@@ 25644
exer@@ 26400
e-mail 27200
ectors 27201
ecture 27202
elic@@ 27207
embe@@ 27210
ex-KGB 27228
exal@@ 27230
eleg@@ 28038
emin@@ 28041
enjo@@ 28047
epit@@ 28052
esteem 28057
else@@ 28884
eluded 28886
emor@@ 28888
encies 28891
enzy@@ 28899
erased 28901
ership 28902
excise 28910
eyeb@@ 28919
ecraft 29580
elli@@ 29581
eman@@ 29582
ensu@@ 29584
erec@@ 29585
expl@@ 29590
econ@@ 30263
essive 30270
exam@@ 30273
exha@@ 30274
eville 30961
enab@@ 31308
entive 31313
est-@@ 31317
eler@@ 31705
ensive 31712
erad@@ 31715
ese-@@ 31716
ethn@@ 31717
elines 32084
exor@@ 32090
enom@@ 32495
eptive 32498
erci@@ 32499
egre@@ 32952
eption 32959
easi@@ 33491
ecom@@ 33492
endo@@ 33499
enever 33500
erings 33506
estion 33509
edings 34084
embo@@ 34089
emit@@ 34090
ensn@@ 34097
este@@ 34104
etho@@ 34105
evid@@ 34107
east@@ 34804
efield 34808
elands 34810
elas@@ 34811
epig@@ 34817
exec@@ 34826
edding 35705
elings 35708
empl@@ 35712
enac@@ 35713
enem@@ 35715
entral 35718
eth-@@ 35720
exce@@ 35723
economy 427
example 681
efforts 1257
effects 1815
exports 1901
extreme 2750
elected 2819
earlier 2868
experts 3367
emerged 3512
equally 3647
explain 3663
exactly 4131
embrace 4416
enabled 4433
exposed 4606
engaged 4654
expense 4723
enhance 4837
eastern 5205
ethical 5331
enemies 5608
entered 5772
enacted 6054
erupted 6180
evident 6219
enforce 6321
element 6544
enables 6603
exploit 7016
express 7017
enjoyed 7203
elderly 7371
evolved 7639
engines 8008
entails 8009
ever-@@ 8028
exceeds 8086
erosion 8154
emerges 8475
extends 8561
examine 8713
episode 8748
empower 8844
earning 8993
endless 9091
essence 9301
emulate 9407
expects 9447
existed 9636
ensures 9903
evasion 10188
endured 10373
elusive 10441
exclude 10636
educate 10753
explore 10821
ensuing 10966
embassy 11038
endemic 11039
embargo 11282
erratic 11919
ensured 12209
extract 12308
escaped 12648
earners 12776
eroding 13243
endorse 13747
expands 13752
exiting 14043
empathy 14320
enter@@ 14324
emperor 14832
endgame 15406
eternal 15408
euro-@@ 15409
exclu@@ 15410
explo@@ 15411
evening 15600
employs 15970
essions 15972
editors 16653
empires 16911
ethanol 16914
emotion 17141
exemp@@ 17149
eagerly 17664
embryos 17666
emitted 17667
exhibit 17672
elitist 17956
endowed 17957
erected 17961
eminent 18275
editing 18587
edition 18588
exposes 18598
engages 18938
evolves 18946
extra@@ 19281
elegant 19660
encro@@ 19665
execute 19673
easiest 20078
explode 20090
ections 20497
eloqu@@ 20501
exten@@ 20512
earnest 20962
emitter 21429
entials 21946
excuses 21951
entro@@ 23052
escal@@ 23054
excited 23061
espouse 23598
event@@ 23602
elevate 24202
enlarge 24209
escap@@ 24213
exhaust 24216
expires 24218
el-Sisi 24870
enomics 24879
eration 24883
erships 24885
ecology 25618
ethic@@ 25632
evacu@@ 25634
evisc@@ 25637
extre@@ 25646
edifice 26379
emper@@ 26386
ence-@@ 26387
enraged 26389
enshr@@ 26390
embar@@ 27209
epochal 27221
escor@@ 27224
exhor@@ 27231
eclip@@ 28033
embol@@ 28039
endor@@ 28046
e-based 28874
echoing 28875
ectural 28878
enclave 28892
even-@@ 28906
execu@@ 28911
expec@@ 28914
enfor@@ 29583
entic@@ 30267
effor@@ 30597
esche@@ 30599
expan@@ 30601
echno@@ 30951
enhan@@ 30955
evalu@@ 30960
entre@@ 31314
estim@@ 31318
exist@@ 31319
eleph@@ 31704
enlar@@ 31708
ensable 31711
expon@@ 31720
expos@@ 31721
episo@@ 32088
extor@@ 32091
ensible 32496
elation 32954
engul@@ 32956
expla@@ 32963
effic@@ 33493
emble@@ 33494
enorm@@ 33501
entit@@ 33502
erron@@ 33507
exces@@ 33511
exper@@ 33514
effec@@ 34085
ensla@@ 34096
entable 34098
entious 34099
enty-@@ 34101
exter@@ 34111
ercep@@ 34818
echan@@ 35704
empha@@ 35710
envis@@ 35719
excep@@ 35724
economic 227
eurozone 1096
election 1247
emerging 1336
exchange 1768
expected 1945
evidence 2050
external 2374
everyone 2377
existing 2474
ensuring 3188
enormous 3404
entirely 3501
equality 4304
educated 4667
elements 4739
earnings 4789
examples 4790
expanded 4805
enabling 4820
exercise 5057
extended 5099
estimate 5670
emphasis 5684
enhanced 6337
exposure 6418
explains 6428
embraced 6491
entering 6545
engaging 6889
explicit 6890
employed 7015
electric 7254
epidemic 7276
enduring 7339
equipped 7444
entities 7507
eventual 7509
endorsed 7731
excluded 7733
embedded 8007
entitled 8027
evolving 8944
enforced 9044
equities 9138
episodes 9261
exceeded 9635
emission 9777
emotions 9841
examined 9844
excesses 9961
evaluate 10187
executed 10304
exporter 10506
embodied 10754
efficacy 10820
eligible 10892
extremes 10896
engineer 10965
everyday 11284
exported 11285
enriched 11552
exciting 11553
enjoying 11750
elevated 11916
employee 11917
escalate 12008
embarked 12511
exposing 12649
employer 12881
embodies 13363
entrants 13748
equation 13750
escaping 13884
enacting 14321
expenses 14326
endeavor 14498
enhances 14833
explored 15012
excludes 15207
earliest 15969
econom@@ 16188
energies 16191
eruption 16193
exploded 16195
endanger 16658
expelled 16661
embraces 16910
enrolled 17144
electing 17390
entailed 17392
expedi@@ 17396
entrance 17958
espoused 17964
early-@@ 18270
elephant 18590
emitters 18934
enclaves 18937
erecting 18945
enlarged 19271
envelo@@ 19273
envision 19274
euphoria 19278
engulfed 19668
extra-@@ 19679
epitom@@ 20085
emitting 20503
extern@@ 20513
electr@@ 20964
enviable 21432
entrench 21947
envisage 21948
eastward 22467
embolden 22476
ensively 22479
eight-@@ 23042
elicited 23043
employ@@ 23046
enablers 23047
extoll@@ 23064
emulated 23592
evacuate 23600
evange@@ 23601
exempted 23607
empowers 24208
entren@@ 24881
es-based 24887
elabor@@ 25620
energize 25625
eschewed 25630
evapor@@ 25635
extinc@@ 25643
extric@@ 25647
ensnared 26391
entirety 26394
enamored 27212
enmeshed 27217
entang@@ 27218
enticing 28049
equating 28053
eclipsed 28876
emphatic 28889
enshrine 28895
enslaved 28896
entially 28898
exerting 28912
export@@ 29591
effici@@ 30596
essional 30958
excess@@ 30963
encomp@@ 31309
energi@@ 31310
entional 31311
enligh@@ 31709
enrich@@ 31710
entation 31713
ention@@ 31714
exempl@@ 31719
ellation 32085
emanci@@ 32086
embezz@@ 32491
eminence 32493
encryp@@ 32494
extrac@@ 32502
engine@@ 32955
endeav@@ 33498
expend@@ 33513
ender-@@ 34092
enopho@@ 34094
enroll@@ 34095
entran@@ 34100
eradic@@ 34103
eviden@@ 34108
exhaus@@ 34110
edific@@ 34806
euthan@@ 34824
excell@@ 34825
existent 34827
experi@@ 34828
elations 35706
elimin@@ 35707
emisin@@ 35709
endments 35714
explic@@ 35727
exuber@@ 35729
economies 799
education 1130
effective 1471
emissions 1900
elections 2001
elsewhere 2359
essential 2451
economics 2632
expansion 2823
excessive 2917
establish 2969
encourage 3027
efficient 3226
estimated 3310
economist 3460
electoral 3464
estimates 3553
expensive 3837
expanding 4028
employees 4275
extremely 4348
emergence 4471
eliminate 4525
exception 4619
emergency 4740
executive 4878
expressed 5114
equipment 5395
employers 5669
exporters 5717
expertise 5836
explained 5921
evolution 6026
extensive 6070
extremism 6071
existence 6285
enhancing 6912
emphasize 6930
emotional 7222
extremist 7256
engineers 7793
equitable 7795
extending 8122
exchanges 8155
ecosystem 8287
exclusive 8289
extension 8363
exclusion 8435
embracing 8609
exporting 8640
empirical 8674
energy-@@ 8675
empowered 8799
exercises 8886
exploited 9045
explosion 9189
everybody 9446
excellent 9904
exhausted 10016
excluding 10189
exceeding 10255
evidently 10442
execution 10505
eradicate 10574
enshrined 10894
explosive 11041
exploring 11660
epidemics 12126
enforcing 12780
expecting 12781
ethnicity 12883
encounter 12986
employing 13114
euro-zone 13244
egregious 13605
educating 13745
examining 13751
elaborate 13879
exercised 14042
espionage 14325
emanating 14497
exemption 14834
envisaged 16192
electri@@ 16654
editorial 16907
energetic 17142
enriching 17143
ethically 17146
epicenter 17393
evaluated 17671
educators 18271
enactment 18276
equity-@@ 18278
endorsing 18592
entrusted 18940
equitably 18942
expedient 18947
escalated 19275
embarking 19661
embroiled 19662
expansive 19675
expulsion 19678
earmarked 20076
equations 20086
evidenced 20088
executing 20089
eagerness 20494
exploding 20510
extracted 20514
embryonic 20965
entangled 20968
exchanged 20971
export-@@ 20973
endlessly 21431
expresses 21440
electro@@ 22474
exemplary 22483
econome@@ 23587
enlarging 23594
ex-Soviet 23604
exasper@@ 23605
eminently 24207
exogenous 24217
elephants 24872
endeavors 24875
endowment 24876
erstwhile 24886
express@@ 24891
extortion 24892
elevating 25622
envisages 25627
exuberant 25648
embassies 26384
eurobonds 26397
exposures 26401
encompass 27214
energized 27216
entertain 27219
ephemeral 27220
extingu@@ 27234
erroneous 28055
estranged 28058
emulating 28890
engulfing 28894
epidemi@@ 28900
espousing 28905
ever-more 28909
exhibited 28913
extradite 28918
exagger@@ 29589
experim@@ 30275
epigene@@ 30957
embarra@@ 31306
encoura@@ 31707
environ@@ 32087
executi@@ 32089
enthusi@@ 32957
equival@@ 32960
employe@@ 33497
earthqu@@ 34083
exacerb@@ 34109
elector@@ 34812
establi@@ 34822
emphasi@@ 35711
enforce@@ 35716
especially 1150
employment 1660
economists 1902
experience 2011
eventually 2514
efficiency 3300
everything 3455
everywhere 3721
equivalent 4118
engagement 4402
encouraged 5017
extremists 5808
executives 5977
expression 6095
electorate 6160
enterprise 6683
experiment 6731
eliminated 6789
emphasized 6790
explicitly 6858
expectancy 7297
entrenched 7443
ecosystems 7506
exacerbate 7666
earthquake 7791
ecological 7792
encourages 8058
enthusiasm 8085
exceptions 8199
escalating 8250
escalation 8251
electronic 8394
enrichment 8560
export-led 9637
emphasizes 9778
exploiting 10017
enormously 10573
enrollment 10755
explaining 10757
empowering 11211
extraction 11213
el-Qaddafi 11551
engineered 11837
expressing 12010
evaluation 12127
e-commerce 12208
endangered 13242
excitement 13246
eighteenth 13607
excellence 13610
envisioned 15407
extinction 15412
endowments 15782
exercising 15973
evaluating 16430
emboldened 16657
exorbitant 16660
exuberance 16662
electrical 16908
estimating 17966
exemptions 17969
elementary 18272
extrapol@@ 18279
exchanging 18597
externally 18600
eradicated 18943
ethnically 19277
evacuation 19672
encounters 20082
eliminates 20500
emigration 20502
expansions 20508
extracting 20515
exhaustion 22484
embodiment 23044
epigenetic 23053
executions 23062
eight-year 23588
exhibition 23608
emblematic 24206
explosions 24219
expropri@@ 24220
expatriate 24890
evaporated 25636
extravag@@ 25645
extractive 26402
endogenous 27215
euthanasia 27226
exaggerate 27229
elasticity 28037
encapsul@@ 28043
encryption 28044
encyclical 28045
exhausting 28064
economical 28877
encumbered 28893
extermin@@ 30602
entionally 31312
economy-@@ 31703
efficien@@ 34807
expendit@@ 35725
experien@@ 35726
environment 2051
established 2327
effectively 2623
electricity 3623
experienced 3678
enterprises 3791
essentially 4135
encouraging 4190
educational 4495
explanation 4688
engineering 4985
enforcement 5860
eliminating 5976
expenditure 6094
equilibrium 6650
existential 6765
exacerbated 6857
experiences 6913
exclusively 7340
enlargement 7473
excessively 7667
efficiently 7968
expectation 8087
exemplified 8678
experiments 8714
elimination 8843
exceptional 8845
enlightened 9092
eradication 9842
emphasizing 10133
empowerment 10134
exaggerated 10254
exploration 11659
entitlement 11918
examination 11920
endorsement 12778
electronics 13746
establishes 13885
encountered 14322
expressions 14327
eradicating 14499
egalitarian 14676
eligibility 15007
emergencies 15009
electorates 15405
enforceable 15971
exceedingly 17395
exacerbates 17968
endangering 18277
extensively 18599
emotionally 18935
extravagant 19282
early-stage 19657
earthquakes 20495
economic-@@ 20496
ever-larger 20506
evaluations 22481
ever-closer 22482
evangelical 23059
electorally 23589
employer-@@ 23591
exemplifies 23606
exponential 23610
embarrassed 24205
encompasses 25624
election-@@ 26383
enhancement 26388
enthusiasts 26393
expatriates 27232
explanatory 27233
enslavement 28048
equivalents 28054
ethnicities 28060
expropriate 28916
eurozone-@@ 30271
exchange-@@ 30600
embarrass@@ 32490
emerging-@@ 33496
enthusias@@ 35717
eth-century 35721
expectations 3092
economically 3907
establishing 4157
expenditures 5609
experiencing 5623
expansionary 6766
evolutionary 8476
exploitation 9303
explanations 9905
environments 10015
exacerbating 10967
enthusiastic 11212
experimental 12009
entitlements 15011
embarrassing 15205
economy-wide 15404
encompassing 20081
entrepreneur 20083
expansionist 20972
encroachment 21430
ecologically 22470
expansionism 23063
ever-growing 23603
emancipation 24204
exaggeration 24215
embezzlement 24873
estrangement 25631
exaggerating 25639
examinations 25640
exploitative 25642
efficiencies 26381
emphatically 27211
encirclement 27213
emissions-@@ 28042
ex-communist 28062
ever-greater 28908
extinguished 28917
entreprene@@ 34815
environmental 2093
establishment 3613
exchange-rate 4466
effectiveness 4819
entrepreneurs 5174
extraordinary 5576
exceptionally 10575
entertainment 11283
externalities 12988
encouragement 14323
expropriation 19677
embarrassment 20079
environment@@ 20084
employment-@@ 20504
exponentially 20511
eurozone-wide 21438
early-warning 23586
experimenting 23609
enlightenment 24877
efficiency-@@ 26382
extermination 28065
extrapolation 28066
entanglements 28897
export-driven 28915
evidence-based 17394
exceptionalism 18596
establishments 26396
ever-expanding 28907
entrepreneur@@ 34816
emerging-market 4367
environmentally 8676
entrepreneurial 9552
extraordinarily 11661
economic-policy 12007
experimentation 12307
export-oriented 13887
economic-growth 15202
electrification 16190
ever-increasing 19279
economic-reform 24869
epidemiological 24882
entrepreneuri@@ 33503
entrepreneurship 8519
energy-intensive 15598
energy-efficient 17669
enthusiastically 19272
emerging-economy 19663
euro-denominated 25633
emerging-country 28040
environmentalists 13883
eighteenth-century 22473
emissions-reduction 23590
economic-development 28034
f 6124
ff 9511
ft 11288
fy 13756
fe 20095
fa 24221
fi 26416
fs 26429
fo 30969
for 23
far 743
few 1098
f@@ 3564
fit 5967
fix 6586
ful 7474
fed 10135
fat 12412
fan 12513
fly 13369
flu 13753
fee 16433
fts 17155
fer 17399
ffs 17972
foe 17974
fun 17978
für 20101
fin 22495
fty 22506
fog 23621
fic 25652
fig 28076
fle 28080
fez 30966
fur 32510
from 81
fact 945
free 1449
face 1488
find 1650
food 1748
five 1773
full 1872
four 1906
fall 1907
form 1908
fear 2048
feel 2949
fail 2998
fund 3319
fuel 3337
fell 3445
fair 3496
fast 3983
firm 4074
flow 4368
fate 4649
felt 4699
fire 4806
fe@@ 5639
fill 5966
fl@@ 6145
feed 6194
fine 6446
farm 6585
fi@@ 6749
fish 6933
fold 7126
film 7223
fo@@ 7668
fa@@ 7796
fied 8089
ff@@ 8320
fake 8477
fu@@ 8479
fees 8563
feet 9639
flat 9641
foot 10020
fled 10507
fits 11042
flag 11043
feat 11369
flee 11458
fans 12211
flaw 13117
fade 14328
fare 15209
file 15210
fore 15211
fies 15415
fool 15979
fend 16198
foes 16205
fray 17976
flip 18282
fury 18284
fats 20977
ford 20985
feld 22492
ffed 22494
flew 22498
flux 22499
fiat 23070
fist 24902
fuse 25667
fait 26405
fame 26407
fret 26426
fuss 26431
fond 27245
fort 28083
fr@@ 28084
fted 30284
fing 30607
fers 31723
ffic 32095
frog 32099
f-@@ 32503
ffee 32506
first 560
force 1494
firms 1609
focus 1781
funds 1952
found 1987
fight 2441
fully 2491
flows 2644
favor 3117
faces 3170
faced 3318
final 3405
forms 3489
fears 3767
field 3977
fuels 3992
front 4019
fewer 4220
faith 4526
facts 4668
fixed 5155
for@@ 5397
false 5421
fails 5444
falls 5809
fresh 6126
facto 6253
finds 6465
fifth 7179
flaws 7734
fac@@ 7969
forge 8252
forth 8290
foods 8436
fraud 8566
fault 8679
feels 8846
fin@@ 8995
fre@@ 9046
flood 9262
fired 9410
fying 9448
farms 9638
fires 9640
fruit 9964
fatal 10018
floor 10019
forum 10081
fur@@ 10082
freer 10306
fever 11922
flu@@ 12129
films 12652
frame 12656
fil@@ 12784
fla@@ 12885
fines 12990
fat@@ 13248
filed 13495
fun@@ 13497
freed 13613
folly 13754
fle@@ 13888
fence 14503
float 14680
fro@@ 15014
franc 15212
ful@@ 15417
fan@@ 15604
fol@@ 15786
fluid 15978
fel@@ 16197
fixes 16202
flags 16203
faded 16432
fer@@ 16434
fic@@ 16435
fli@@ 16436
flo@@ 16437
feeds 16664
flies 16668
files 16916
fra@@ 16920
fif@@ 17400
fleet 17402
far@@ 17674
fifty 17973
fri@@ 17977
fes@@ 18281
frank 18955
fix@@ 19686
fav@@ 20094
fared 20519
fon@@ 20523
fai@@ 21441
fig@@ 21447
fir@@ 21448
fit@@ 21450
flock 21964
fairy 22488
fetus 22493
fru@@ 22505
fal@@ 23066
fis@@ 23076
focal 23080
fancy 23611
fet@@ 23613
fiber 23615
ffing 24226
forgo 24232
farce 24894
fills 24897
flash 25658
froze 25664
flesh 26420
fares 27237
fec@@ 28070
faire 28920
ffe@@ 28925
fom@@ 28931
fuz@@ 28949
fam@@ 30278
fee@@ 30280
fab@@ 30603
fem@@ 30605
fting 30613
fated 32093
festo 32966
flung 32968
fea@@ 33517
fus@@ 33522
fecta 34829
foc@@ 34831
faç@@ 35733
future 809
fiscal 933
former 1379
forces 1539
failed 1873
forced 2483
family 2615
facing 2657
follow 2869
faster 3037
factor 3495
fallen 3673
figure 4051
fueled 4125
formal 4183
fossil 4564
fourth 4592
father 4955
female 4993
funded 5494
famous 5584
fields 5718
foster 6036
formed 6254
flight 6429
flawed 6493
fellow 6527
friend 6587
fought 6705
fairly 6991
forest 7046
forget 7180
freely 7224
feared 7372
firmly 7510
filled 7695
fore@@ 8565
favors 8641
freeze 9141
floods 9304
fronts 9358
firing 9907
fixing 10822
flying 11371
framed 11557
frozen 11558
fierce 11663
fire@@ 11838
fusion 11839
forged 12130
futile 12132
fruits 12213
foot@@ 12653
famine 12783
fairer 13247
form@@ 13249
for-@@ 13496
finish 13612
fringe 13614
fabric 14044
forums 14681
free@@ 15013
four@@ 15416
finger 15605
farmer 15975
fights 16200
fran@@ 16208
flames 16667
fading 16915
flag@@ 17151
faiths 17970
flowed 18283
fences 18602
facile 18948
forego 19287
frac@@ 19288
feeble 19683
fester 19684
faulty 20093
floo@@ 20098
fiasco 20521
frenzy 20525
func@@ 20526
façade 20978
fickle 20981
fear@@ 21444
fish@@ 21449
fuel@@ 21453
farm@@ 21955
finite 21960
frothy 21968
fathom 22491
fodder 22500
filing 23071
finest 23074
format 23084
foun@@ 23086
feud@@ 23614
fifths 23617
flimsy 23620
fooled 23623
falter 24222
farmed 24224
fili@@ 24227
frag@@ 24236
far-@@ 24893
fervor 24896
filter 24898
floors 24905
frames 24908
fron@@ 24909
flared 25657
fanned 26410
fungal 26430
fall@@ 27235
fiel@@ 27240
flurry 27244
ffield 28074
fier@@ 28075
ferv@@ 28924
flavor 28928
fleets 28929
foment 28932
frayed 28942
fund@@ 28945
funnel 28946
furi@@ 28947
feed@@ 29593
flow@@ 29595
fair@@ 30276
flir@@ 30281
fren@@ 30283
film@@ 30606
firm@@ 30608
fric@@ 30612
fail@@ 30964
fisted 30968
fati@@ 31321
ffered 31323
ffic@@ 31324
fool@@ 31325
flou@@ 32096
foli@@ 32097
feck@@ 32505
forb@@ 32969
fant@@ 33516
fiably 33519
fasc@@ 34112
fiable 34114
flim@@ 34115
figh@@ 34830
feat@@ 35734
fias@@ 35737
fulf@@ 35742
foreign 904
further 1243
finance 1584
finally 1836
failure 1935
freedom 2370
funding 2463
factors 2563
federal 2724
forward 2776
focused 2833
falling 3047
farmers 3119
failing 4253
friends 4268
figures 4289
finding 4512
fragile 4856
forcing 5250
fueling 5422
feeling 5823
feature 5889
fulfill 5978
founded 6684
forests 6833
favored 6932
follows 6935
focuses 7045
fashion 7257
fishing 7511
farming 7544
forever 7583
factory 8059
formula 8947
flowing 9139
futures 9142
founder 9908
fallout 9962
forming 10080
fortune 10305
fleeing 10374
footing 10375
fantasy 11122
four-@@ 11287
fearing 11368
fertile 11554
fastest 11662
forging 11923
foolish 12012
free-@@ 12013
fascist 12128
fraught 12131
fiction 12310
fascism 12411
fatigue 12514
fearful 12515
fast-@@ 12651
faction 12782
food-@@ 12786
foresee 12787
farther 12989
feeding 13494
filling 13611
five-@@ 14045
fathers 14175
fallacy 14502
freeing 14836
fuel-@@ 15015
frankly 15788
feder@@ 15976
fitting 15977
flooded 16204
fighter 16665
fulness 16672
fingers 16917
flights 17152
full-@@ 17677
furious 17678
fateful 18601
fixated 18951
fosters 18952
framing 18954
faculty 19284
fifteen 19285
figured 19286
fatally 19682
fanfare 20092
fervent 20096
flexing 20097
funders 20100
fact-@@ 20517
fitness 20522
fear-@@ 20979
fintech 20982
forfe@@ 21451
faraway 21954
flaun@@ 21961
frigh@@ 21966
fringes 21967
factual 22487
falsi@@ 22489
famines 22490
freight 22504
face-@@ 23065
falsely 23067
floated 23077
flowers 23079
foresaw 23081
forgive 23083
forth@@ 23085
flash@@ 23619
fraying 23626
front@@ 23627
funeral 23628
ference 24225
forbids 24229
fine-@@ 24900
fire-@@ 24901
finan@@ 25653
fissile 25656
flexi@@ 25659
funne@@ 25666
females 26414
firef@@ 26417
fashi@@ 27239
foren@@ 27246
feren@@ 28072
footage 28082
femin@@ 28923
flat-@@ 28927
fooli@@ 28934
forec@@ 28935
fullest 28944
furnish 28948
ffici@@ 29594
false@@ 30277
favor@@ 30279
forci@@ 30282
footh@@ 30609
formity 30611
fair-@@ 31320
ferti@@ 31322
fossi@@ 31326
found@@ 31327
fanci@@ 31722
faceted 32504
fraud@@ 32507
frequ@@ 32508
fresh@@ 32509
fusions 32511
forgi@@ 32970
flation 33520
fasci@@ 34113
foreg@@ 34116
force@@ 34832
fruit@@ 34834
followed 2849
fighting 3227
families 3380
failures 4724
financed 4922
flexible 4994
focusing 5104
function 5176
features 5822
finances 6125
famously 6271
familiar 6367
forecast 6419
feasible 6492
findings 6528
foremost 6564
friendly 6630
frequent 6976
fraction 7298
founding 7373
fairness 7426
football 7640
fighters 7873
facility 8088
freedoms 8395
formally 8478
feelings 8562
first-@@ 8564
frontier 8611
favorite 8715
fication 8887
factions 8994
feedback 9597
flooding 9963
finished 10079
flourish 10823
floating 11044
formerly 11555
fortunes 11556
fiscally 12884
founders 12887
friction 12888
favoring 13116
farmland 15413
featured 15414
fostered 15787
failings 16196
fluctu@@ 16438
fixed-@@ 16666
forceful 16919
front-@@ 17154
forcibly 17403
fracking 17975
feminism 18280
fiercely 18603
finger@@ 18604
faithful 18949
freezing 19289
forgiven 19687
friend@@ 19691
fanatics 20091
fabric@@ 20516
feminist 20520
foothold 20524
futility 20527
fanciful 20976
forman@@ 21452
fulfills 21454
fascists 21956
figuring 21958
fleeting 21963
foregone 21965
fruitful 21969
fixation 22496
formul@@ 22502
far-left 23068
firewall 23075
foreseen 23082
follow@@ 23622
finalize 24228
flagging 24903
flouting 24906
formulas 24907
fortress 25662
factored 26404
feckless 26413
flagship 26419
fragment 26425
farewell 27238
firmness 27241
fissures 27242
fructose 27248
faltered 28921
flirting 28930
foresees 28937
frater@@ 28941
franch@@ 29597
famili@@ 30604
fisher@@ 30967
flouri@@ 31724
forest@@ 31726
frustr@@ 31728
fully-@@ 31729
feroci@@ 32094
ferences 32965
fficient 32967
fortun@@ 34117
facili@@ 35731
fanati@@ 35732
fettered 35736
fits-all 35738
fracti@@ 35740
frivol@@ 35741
financial 409
following 2042
financing 2291
framework 2575
favorable 5951
forecasts 6914
followers 6934
functions 7181
factories 7392
far-right 7393
forgotten 7763
formation 8124
fertility 8610
five-year 8847
fostering 9140
forefront 10190
fragility 10443
frequency 11045
full-time 11214
fulfilled 11459
footprint 12654
fortunate 12655
fisheries 12785
formulate 12886
faltering 14329
favorably 14331
fiscal-@@ 15606
frontiers 15607
fications 16199
forbidden 16206
frontline 16209
formali@@ 16439
footsteps 16918
follow-up 17153
featuring 17398
firsthand 17401
foresight 17675
four-year 18953
fantasies 19681
firepower 19685
fractured 19688
frictions 19690
fanatical 20518
fishermen 20984
fossil-@@ 20986
family-@@ 21442
fiduciary 21446
finalized 21959
fledgling 21962
forestall 22501
fractious 22503
financi@@ 23072
festering 23612
fictional 23616
franchise 23625
fortified 24233
filtering 24899
flatten@@ 24904
fruitless 24910
furniture 24912
far-flung 25650
feminists 25651
finishing 25654
forebears 25660
formality 25661
frivolous 25663
facilit@@ 26403
fantastic 26411
ferocious 26415
forcement 26422
frustrate 26428
fallacies 27236
filmmaker 28077
firestorm 28078
flamboy@@ 28079
faster-@@ 28922
fifteenth 28926
foolhardy 28933
forgiving 28938
fourth-@@ 28940
free-fall 28943
foreign@@ 29596
fashioned 30965
foreclo@@ 31725
ferential 33518
future-@@ 33523
foresee@@ 34833
further@@ 35743
facilities 4921
facilitate 5058
frequently 5167
foundation 5367
free-trade 5536
foreigners 5922
frameworks 7277
fragmented 8125
frustrated 8291
formidable 8946
fulfilling 9712
foreign-@@ 11372
functional 11559
fertilizer 12212
financiers 12516
full-blown 12889
federalism 13368
full-scale 13755
formulated 14504
friendship 14505
freshwater 15213
first-ever 16201
forcefully 16207
federation 16663
for-profit 16670
frightened 17676
fraudulent 18605
fracturing 19689
federalist 20980
first-hand 20983
fanaticism 21443
fatalities 23069
flourished 23078
farfetched 24223
fast-track 24895
fact-based 25649
first-rate 25655
falsehoods 26406
first-time 26418
forgetting 26423
formalized 26424
fraternity 27247
fabricated 28067
fair-trade 28068
fascinated 28069
flirtation 28081
front-page 28085
functioned 28086
formations 28939
fragment@@ 31727
fastest-@@ 32092
forecast@@ 32098
face-to-@@ 33515
frontrun@@ 33521
fertiliz@@ 35735
forward-@@ 35739
fundamental 2203
fortunately 3946
flexibility 4907
furthermore 5156
functioning 5671
fossil-fuel 6181
foundations 6220
frustration 7374
foreseeable 7445
free-market 8010
financially 8157
facilitated 9357
forecasting 10021
forthcoming 10191
forgiveness 13889
frightening 14176
fashionable 14330
forecasters 14835
facilitates 15974
frustrating 16210
flourishing 16669
formulating 16671
fascinating 17397
far-fetched 17673
fertilizers 17971
formulation 20099
familiarity 20975
feasibility 21445
far-sighted 21953
fulfillment 21970
fixed-asset 22497
foreign-aid 24231
fundraising 24911
fascination 26412
fluctuating 26421
frontrunner 26427
federalists 28071
foreclosure 28936
forestation 30610
fundament@@ 34118
far-reaching 5025
fundamentals 6338
facilitating 8123
fluctuations 8945
financial-@@ 11370
fast-growing 12011
full-fledged 14506
frustrations 15789
front-loaded 20987
facilitation 21952
face-to-face 22486
foreign-born 23624
foreclosures 24230
foundational 24235
family-owned 26408
fixed-income 27243
fundamentally 4932
fragmentation 7943
fiscal-policy 18950
fast-changing 21957
fully-fledged 25665
fertilization 28073
foreign-policy 5123
fundamentalism 10758
fundamentalist 11751
fundamentalists 11752
fastest-growing 11921
forward-looking 13890
full-employment 22507
future-oriented 24237
family-planning 26409
foreign-exchange 5175
financial-market 9906
financial-sector 11286
foreign-currency 12991
financial-reform 23073
financialization 23618
forward-thinking 24234
financial-services 17150
g 4403
go 1563
ge 6011
gy 10705
gs 11046
gh 13118
ga 14683
g. 35744
get 1589
gas 2285
g@@ 2709
gap 2809
got 4956
ger 7584
gun 8292
ged 8396
ges 8437
gay 10307
gel 11665
ght 13892
gue 14332
gic 14685
gan 16673
gen 19692
gut 20108
gal 21456
guy 21467
gar 22509
gin 22515
gio 22516
god 23092
gie 23632
gos 23635
gon 25677
gro 28098
gee 28953
gus 29607
gia 30616
gry 32516
gul 35753
good 931
give 2019
goal 2115
grow 2734
gain 2761
game 3073
goes 3406
gone 3739
gold 3851
gave 3993
grew 4504
gets 5192
ge@@ 5686
gu@@ 5904
gaps 6368
gi@@ 6510
go@@ 6652
ging 7204
gene 7545
ga@@ 8612
gl@@ 8848
grip 8889
grim 9145
gr@@ 9305
grid 9512
gh@@ 10137
guns 11047
glut 11560
gers 11753
gift 12014
girl 12992
grab 13250
gent 13757
g-@@ 14682
gn@@ 15984
gged 16212
gate 16921
gg@@ 17680
gues 17981
gy@@ 18613
gist 18956
gram 18960
gang 20102
gade 21455
gays 21972
gear 23087
glue 23091
guys 23094
gray 24246
gest 24914
geny 25670
gery 25673
gree 25679
gins 26438
gulf 26444
gies 27258
grad 28094
grey 28097
gaze 28952
gian 29601
gacy 30970
ghts 32514
gman 32975
gage 34835
gans 34836
gous 34843
gely 35745
gust 35754
given 900
great 1554
goods 1823
group 2044
gains 2472
goals 2771
going 2974
green 3871
girls 3978
grown 4151
gives 5018
guide 5177
grand 6056
giant 6466
genes 6750
grave 7128
gross 7129
gen@@ 7696
guard 7697
grows 7909
gases 7970
gra@@ 8011
grasp 8438
grant 8520
games 8680
gar@@ 8681
greed 10577
grade 10637
gri@@ 10824
ger@@ 10897
globe 11123
guess 11125
gan@@ 11664
gre@@ 12133
grids 12993
gam@@ 13370
grain 13371
guilt 13372
gun@@ 14686
gauge 14837
glass 15419
glory 15420
gal@@ 15608
ghost 15610
gangs 15791
graft 16441
gging 16922
gifts 16923
glo@@ 17156
grace 17158
gul@@ 17159
gli@@ 17407
gro@@ 17681
gates 18285
grams 18609
grips 18612
gor@@ 18957
grabs 18959
guest 18962
gists 19694
glu@@ 19695
gol@@ 20103
graph 20104
grass 20106
gated 20530
gon@@ 20535
gru@@ 20537
gau@@ 20989
gle@@ 20990
gem@@ 21457
genic 21458
gered 21460
gloom 21461
go-@@ 21462
god@@ 21463
guise 21466
gling 21974
genie 23629
ghter 23631
gig@@ 23633
gad@@ 24238
gas@@ 24239
gir@@ 25674
gment 25676
gence 26434
gha@@ 26437
gnant 26441
gical 27257
grind 27267
gians 28091
gni@@ 28092
gious 28957
greet 28963
gge@@ 29600
gible 29602
ghted 30287
ge-@@ 30971
geo@@ 30973
gades 31328
gress 31330
gy-@@ 31332
getic 31730
gus@@ 31731
ggi@@ 32101
gui@@ 32105
gyp@@ 32106
gency 33525
got@@ 33528
geist 34838
gho@@ 34839
gents 35746
gno@@ 35750
growth 291
global 297
groups 1820
ground 3060
giving 3350
gender 3958
gained 4144
govern 7127
guided 7973
gotten 8749
grants 8888
gather 9143
giants 9144
guilty 10192
genome 10308
golden 10576
gamble 11840
glance 12312
genius 14507
gran@@ 14509
gas-@@ 15016
glob@@ 15611
geo-@@ 15981
guards 15985
gloomy 17157
geared 17404
greedy 17979
graphy 18288
gambit 18606
gene@@ 19290
ghet@@ 20533
gaping 22508
gifted 22514
guer@@ 22520
gently 23089
ggling 23090
ghosts 23630
grains 23636
guides 23640
gent@@ 24240
gossip 24243
goti@@ 24244
gested 24915
guests 24920
gang@@ 25668
gation 25669
glit@@ 25675
grou@@ 25682
gement 26433
ger-@@ 26435
guar@@ 26443
gun-@@ 26445
garner 27251
gate@@ 27252
geni@@ 27256
graves 27264
grow@@ 27269
gallon 28087
gentle 28088
geyman 28090
grades 28095
gain@@ 28950
gimm@@ 28956
girl@@ 28958
grum@@ 28965
guil@@ 28968
gar-@@ 29598
good@@ 29604
gall@@ 30285
graphs 30288
geable 30614
gether 30615
glac@@ 30617
grat@@ 30618
glam@@ 30974
gest@@ 32100
grap@@ 32102
gres@@ 32103
gering 32512
grid@@ 32515
glim@@ 32974
gences 33524
ghters 33526
genous 34121
globin 34122
gnan@@ 34123
golène 34124
garb@@ 34837
gments 34842
genu@@ 35747
ght-@@ 35748
gnment 35749
grav@@ 35751
growing 1302
greater 1372
general 2425
getting 3383
genuine 4467
genetic 4731
grounds 5423
gaining 5560
greatly 5640
granted 5824
gradual 5993
gravity 10445
guiding 10446
gener@@ 11924
gesture 12311
generic 14684
grossly 15017
garment 15214
greener 15215
greeted 15421
graphic 15613
glaring 15982
glimpse 15983
griev@@ 17980
glori@@ 18286
gravest 18611
governs 18958
grand@@ 18961
grapple 19295
gene-@@ 19693
graph@@ 20105
genomes 20532
gripped 20536
gateway 20988
guarded 20991
growers 21464
glacial 21973
good-@@ 21976
grabbed 21977
garbage 22510
genomic 22512
grasped 22519
gravely 23637
glimmer 24242
grati@@ 24245
gold-@@ 24916
gambl@@ 26432
grazing 26442
game-@@ 27249
genesis 27255
glimp@@ 27259
gradu@@ 27260
green@@ 27266
gasol@@ 28951
graphed 28959
guide@@ 28967
ging-@@ 29603
gossi@@ 29605
grasp@@ 29606
group@@ 30289
grass@@ 30975
gest-@@ 32513
geneity 32971
gically 32973
gress@@ 33530
gencies 34119
genom@@ 34120
generate 3565
greatest 3648
globally 4501
generous 6255
genocide 6891
governed 7074
governor 7316
generals 7641
guidance 7698
gathered 10136
gasoline 10444
graduate 11460
gridlock 11561
goodwill 12657
granting 13498
grouping 13615
grounded 15216
gambling 15790
genetics 15980
gestures 16440
grateful 16924
genomics 17405
glaciers 17406
grabbing 17408
glorious 19291
gigantic 20534
garnered 22511
govern@@ 22517
great-@@ 23638
guardian 23639
gression 24247
gentle@@ 24913
grinding 24919
grandson 25678
greening 25680
grocer@@ 25681
gruesome 25684
germline 26436
garments 27250
gency-@@ 27253
green-@@ 27265
generics 28954
grudging 28964
galvan@@ 30286
genoci@@ 30972
gravit@@ 30976
grandi@@ 31329
ground@@ 31331
grotes@@ 32104
guaran@@ 32517
glomer@@ 33527
gibility 34840
generally 3313
guarantee 4090
gradually 4417
generated 4821
governing 5332
genuinely 7971
graduates 7972
gathering 8126
generates 8948
geography 9359
governors 10898
growth-@@ 11290
greatness 14177
guerrilla 14838
gender-@@ 15609
global-@@ 18608
grappling 18610
grandiose 19293
groupings 19297
guarantor 19697
grotesque 20107
galvanize 20528
genocidal 21459
guardians 21978
graduated 23093
globalism 23634
gravitate 24918
glamorous 26439
glaringly 26440
gyrations 28099
gigawat@@ 28955
gratitude 28960
greenback 28962
guerillas 28966
gressions 34844
guerril@@ 35752
government 282
governance 2023
generation 2587
guarantees 5424
generating 5495
guaranteed 6012
greenhouse 6706
globalized 7446
grievances 8127
guidelines 8521
geographic 10376
groundwork 11124
grassroots 11925
generosity 15418
guerrillas 15792
graduation 18287
generously 18607
galvanized 20529
gatherings 20531
geothermal 22513
generators 23088
geological 24241
gerryman@@ 25672
grudgingly 25683
gradualism 27261
graduating 27262
geograph@@ 32972
governable 34125
guarante@@ 34845
governments 685
generations 4103
genetically 10083
geopolitics 12214
generalized 16211
grandfather 19292
great-power 19296
groundwater 19696
globalizing 21975
grandmother 22518
groundswell 27268
glomeration 34841
geopolitical 3426
geographical 11289
guaranteeing 12658
governmental 12788
generational 13891
geostrategic 14508
grandparents 19294
gender-based 27254
green-energy 28096
globalization 1969
government-@@ 7546
grandchildren 15612
game-changing 21971
geo-political 25671
grandstanding 27263
gravitational 28961
greenhouse-@@ 33529
greenhouse-gas 6322
groundbreaking 16674
geographically 17679
geoengineering 28089
geopolitically 29599
growth-oriented 21465
growth-enhancing 16442
government-backed 24917
government-sponsored 28093
h 5283
he 355
ha 13616
hi 15020
ho 21479
hr 21482
hs 22531
hu 28118
hn 30622
has 60
his 263
had 456
how 586
her 1331
him 1514
hit 3376
h@@ 3754
hot 6859
hub 11127
har 12517
hoc 12891
ham 14046
han 14178
hat 17987
hel 18620
hai 21468
hew 23647
hou 27283
hul 27285
hem 30293
hol 30623
hui 30981
hev 32519
het 32976
hen 33535
hin 34131
hee 34853
hye 34860
hud 35769
have 61
high 923
help 971
home 1625
hard 1645
half 1803
hope 1826
hold 2133
huge 2180
held 2227
here 2292
hand 2394
head 3327
host 4294
ha@@ 4393
harm 4565
he@@ 4987
ho@@ 5355
hurt 6072
halt 6106
hour 6323
hear 6732
heat 6733
hi@@ 7104
hike 7944
hire 8128
hate 8253
hide 8750
heed 9845
hero 10760
hu@@ 11048
hole 11755
hy@@ 12018
hasn 12659
holy 13376
hubs 13378
helm 14179
hang 14510
hood 14690
hits 15021
hell 16443
heel 17162
hair 17682
hint 17686
hype 17688
hook 18296
http 18297
heir 18619
hunt 18971
hale 20110
heal 20116
heft 20117
hart 20992
herd 20997
hawk 21472
hall 21979
hani 22521
hung 23105
hens 24252
hill 24255
hoax 24928
haul 25688
homa 25693
hash 26451
h-@@ 27270
hadn 27271
hone 27281
hose 28988
hara 29608
hoku 29612
hail 30290
hiko 30980
hr@@ 31336
hito 31737
haps 32108
hm@@ 32978
heit 33534
hael 34126
habi 34846
hazi 34850
hism 35761
hort 35765
hosa 35767
huan 35768
human 1140
hands 3600
heart 3749
hopes 3872
house 4145
hours 4320
heavy 4489
homes 4600
holds 4700
helps 5124
heads 5354
heard 5655
happy 5749
hence 6307
har@@ 6816
hoped 6936
honor 6977
harsh 7447
hedge 7613
hikes 8254
haven 8522
han@@ 8891
her@@ 10257
havoc 10759
hor@@ 10971
hom@@ 11126
hel@@ 11463
hal@@ 11841
hosts 11927
ham@@ 12313
hotel 12519
hur@@ 12520
hun@@ 12892
highs 13251
habit 13373
horse 13377
hawks 13500
hum@@ 15023
hints 15423
hired 15424
holes 15617
heels 15988
hurts 15990
hol@@ 16445
hangs 17412
heady 18292
hab@@ 18614
harms 18616
heirs 19298
hen@@ 19299
hukou 19701
hot@@ 20119
hou@@ 20120
hin@@ 20544
hon@@ 20999
halve 21469
hat@@ 21471
hefty 21476
hea@@ 21982
hasty 22523
hated 22524
hinge 22529
hil@@ 23102
hears 23644
hyped 23651
hij@@ 24254
hop@@ 24256
how@@ 24259
hurry 24930
hydro 24932
haves 25689
hairs 26446
hijra 26459
him@@ 26460
hitch 27279
hap@@ 28102
heats 28106
hem@@ 28108
hic@@ 28109
hoard 28112
horns 28115
hable 28969
hi-@@ 28980
humor 28990
hyp@@ 29616
hec@@ 30292
haw@@ 30620
hes@@ 30979
hus@@ 31739
hamed 32107
hoods 32523
had@@ 33531
hardy 33533
hyd@@ 33539
hance 34127
haran 34128
helet 34129
hofer 34133
haz@@ 34849
hac@@ 35756
harov 35758
hoc@@ 35762
horts 35766
health 991
higher 1109
having 1745
highly 2107
helped 2481
happen 3189
hardly 3507
humans 4408
harder 4791
hunger 5550
headed 5773
houses 6893
honest 7874
hidden 8029
hand@@ 8200
hoping 8439
hiring 8642
hatred 8800
habits 8890
handle 9146
height 9449
hungry 9450
handed 10256
hosted 10258
heated 10825
hazard 10969
hearts 10970
havens 11291
hugely 11666
heroic 12016
hybrid 12019
head@@ 12134
hailed 12994
hubris 13122
heroes 13374
hiding 13375
halved 13499
halted 13617
home@@ 13618
horror 13759
humane 13760
hear@@ 13893
hard@@ 14333
hollow 15022
helium 15217
harmed 15615
holder 15616
hotels 15989
harbor 17161
hinges 17990
hammer 18290
hinder 18295
heeded 18618
herald 18965
hinted 18968
heroin 19698
hair@@ 20109
hamper 20111
hourly 20121
hasten 20993
help@@ 20995
heaven 21475
hurdle 21483
heyday 21985
high@@ 21988
hiking 21989
humble 21995
herein 22526
hacked 23095
hall@@ 23096
honors 23103
hast@@ 24251
hinged 24926
housed 24929
hist@@ 25692
hotter 25700
humb@@ 25701
harm@@ 26449
hockey 26462
holi@@ 26463
hysi@@ 26470
horses 27282
hovers 27284
habeas 28100
hedged 28107
hot-@@ 28116
hrlich 28117
hinoor 28985
hemi@@ 29610
[...]
