#version: 0.2
t h
i n
a n
th e</w>
r e
t i
e r
o n
e n
a r
o r
e d</w>
t o</w>
in g</w>
o u
an d</w>
o f</w>
o n</w>
e s</w>
l i
s t
r o
i n</w>
p o
a l</w>
i t
e r</w>
a t
a l
i s</w>
e c
a t</w>
o m
r i
l y</w>
a n</w>
a ti
s i
a c
a s</w>
o r</w>
d e
s t</w>
th at</w>
q u
po s
u r
i c
i l
v e</w>
l o
o t
l e
en t</w>
w h
& a
&a pos
&apos ;
th e
s e</w>
d i
s u
&apos; s</w>
l d</w>
e n</w>
p ro
r a
u n
n o
l e</w>
h a
t s</w>
f or</w>
qu ot
quot ;</w>
& quot;</w>
c on
a b
i t</w>
c e</w>
b u
a d
v er
ati on</w>
n e
e m
c i
ou n
b e
e l
s h
a g
e x
c om
ar e</w>
on s</w>
a m
a s
b e</w>
er s</w>
ou ld</w>
e s
ti on</w>
at e</w>
v i
u l
w it
c h
m o
wit h</w>
f or
no t</w>
u c
s e
a r</w>
o l
i g
b y</w>
m ent</w>
t er
i m
o p
a p
bu t</w>
s p
m a
v e
t r
h as</w>
p e
ec on
w or
c oun
ha ve</w>
i s
p re
it s</w>
g o
po li
il l</w>
f f
t h</w>
econ om
t y</w>
th er</w>
er e</w>
w ill</w>
or e</w>
i r</w>
en t
k e
it y</w>
th is</w>
f ro
m an
i c</w>
fro m</w>
p or
u s
t ri
m ore</w>
e v
ti c
st r
l a
re n
C h
the ir</w>
t a
on al</w>
d s</w>
i r
on e</w>
al ly</w>
ou t</w>
t o
u ro
d ing</w>
m e
g e</w>
s o</w>
p er
re c
p ar
a li
the y</w>
s s</w>
y e
ur e</w>
g e
t ed</w>
al l</w>
i li
d e</w>
in c
Ch in
k e</w>
w ould</w>
c h</w>
w as</w>
a y</w>
ri s
r u
U S</w>
E uro
f in
t e
en ts</w>
g i
ver n
ab le</w>
g h
ar y</w>
o w
go vern
p u
ti m
ic h</w>
in g
w e
wh ich</w>
a u
p l
c an</w>
2 0
s o
th an</w>
tri es</w>
coun tries</w>
an ce</w>
ti ons</w>
ro w
ig h
re d</w>
d uc
i st
n ati
om e</w>
m ar
at es</w>
p ri
Chin a</w>
c o
t er</w>
at ed</w>
h e
t ra
m in
u st</w>
c y</w>
v er</w>
k s</w>
un d
en ti
t u
t ing</w>
o ther</w>
ati ons</w>
f u
ci al</w>
ti es</w>
l u
f e
wor ld</w>
b ec
c es</w>
en ce</w>
g row
econom ic</w>
si on</w>
m s</w>
w i
man y</w>
si d
m er
lo b
s ti
poli tic
i f</w>
f o
be en</w>
on g</w>
an t</w>
d ec
w e</w>
d ed</w>
p a
k ing</w>
d u
mo st</w>
an s</w>
g re
ou s</w>
d o
ne w</w>
f ac
s er
ar s</w>
h o
g lob
i es</w>
in ter
ag e</w>
nati onal</w>
a d</w>
m on
at e
h is</w>
con t
ou r
no w</w>
es s</w>
di s
u m
st e
n i
s ec
on ly</w>
h e</w>
mer ic
A meric
su ch</w>
or s</w>
mar ke
r ou
govern ment</w>
lo w
g h</w>
ch an
ev en</w>
c e
t ur
ve lo
f a
b li
al so</w>
al l
p e</w>
th ere</w>
st s</w>
c re
com p
sh ould</w>
grow th</w>
u s</w>
il e</w>
b an
re as
politic al</w>
v es</w>
a in
o ver</w>
fin an
glob al</w>
i d
c ould</w>
I n
n o</w>
wh en</w>
ab out</w>
ti ve</w>
ar d</w>
le ad
su p
com m
pu bli
wh o</w>
tr y</w>
op le</w>
de velo
ff ic
f ir
s s
c ur
m ents</w>
in e</w>
es s
po w
ex p
the se</w>
a f
wh at</w>
c ap
pe ople</w>
em b
it ed</w>
in ve
t ure</w>
s y
1 9
be t
ili ty</w>
s ome</w>
Euro pe</w>
en er
Euro pe
l ar
por t
sh i
t ec
in te
e f
t en
u e</w>
o d</w>
coun try</w>
w ere</w>
o se</w>
develo p
gh t</w>
ow n</w>
si a</w>
in f
inve st
c r
b le</w>
wh ile</w>
g y</w>
v ing</w>
s in
ye ars</w>
t ary</w>
il li
re g
em p
s el
at ing</w>
t w
Europe an</w>
finan cial</w>
e st
re s</w>
al s</w>
le ss</w>
tim e</w>
au se</w>
s ur
or d
em ent</w>
ou r</w>
b o
on g
en d
de b
li ke</w>
econom y</w>
com e</w>
f ic
am e</w>
cur ren
ar i
poli cy</w>
w el
for m
a se</w>
d o</w>
ac c
ar ly</w>
m ust</w>
20 1
d ic
oun d</w>
a st</w>
un i
o b
str uc
ec t</w>
r an
in to</w>
ha d</w>
ma y</w>
R us
20 0
i d</w>
s a
re l
u p</w>
pro b
c ris
ac k</w>
wi th
uc h</w>
or y</w>
m p
m uch</w>
por t</w>
und er
pro duc
si ve</w>
g ra
th re
d ay</w>
ac e</w>
h i
il l
ati ve</w>
f i
sti tu
w ay</w>
s c
m is
re sp
in de
inte re
i l</w>
ver y</w>
g u
I s
the m</w>
inc lu
pow er</w>
bec ause</w>
st an
b i
ou gh</w>
chan ge</w>
el ec
U n
lo w</w>
c al</w>
st ri
af ter</w>
tr an
si g
h igh
li m
ye ar</w>
S t
im p
p s</w>
a k
t ly</w>
th ose</w>
i z
publi c</w>
illi on</w>
p le</w>
en d</w>
o c
an y</w>
Un ited</w>
E U</w>
re ig
cris is</w>
er n</w>
sid ent</w>
ac h</w>
v ed</w>
le ar</w>
wh ere</w>
fir st</w>
ol l
y s</w>
w a
y ing</w>
v ic
ma in
inter national</w>
b ot
ab ility</w>
igh t</w>
marke t</w>
o f
ci es</w>
ru m
inc reas
e l</w>
j ust</w>
ho w</w>
r on
e ff
li c
v en
re gi
ou t
we en</w>
de mo
bet ween</w>
prob le
l ong
su l
pre s
re s
tw o</w>
ad e</w>
T rum
c u
G er
tra de</w>
Trum p</w>
A f
cap it
cont in
c an
ffic i
d re
l ed</w>
Americ a</w>
e qu
shi p</w>
mon e
li ke
di a</w>
ac y</w>
ing s</w>
fu l</w>
ti c</w>
e se</w>
re qu
m e</w>
o ver
c ed</w>
n ed</w>
ali z
ol u
resp on
ste m</w>
ne ed</w>
c er
si ons</w>
ne e
demo cr
v en</w>
bot h</w>
re for
ex am
wel l</w>
at t
en g
con f
h el
ev er</w>
it e</w>
su b
p ul
n ing</w>
a in</w>
J ap
in i
t e</w>
enti al</w>
ain st</w>
l in
to day</w>
v al
k ers</w>
pro vi
ati c</w>
ff e
en tr
p h
ag ainst</w>
Rus sia</w>
im port
t re
sy stem</w>
vi e
tec h
al th</w>
th rou
at er</w>
ma j
re sul
ag re
l l</w>
per i
ou s
f t</w>
ter m</w>
la st</w>
re ad
b en
ad v
wor k</w>
lead ers</w>
ic al</w>
si ble</w>
t en</w>
po si
s en
so ci
P re
er al</w>
su c
m emb
ali ty</w>
ur ity</w>
k ed</w>
lo y
r ate</w>
sp ec
ap pro
c or
t or</w>
deb t</w>
c ent
g ing</w>
eff ec
g ener
de m
th ing</w>
invest ment</w>
ac t</w>
exam ple</w>
o re
m ili
govern ments</w>
ri c
w ard</w>
st ate</w>
inde ed</w>
t t
p p
like ly</w>
sin ce</w>
or i
g r
s m</w>
ch o
us ed</w>
to o</w>
ti ci
sup port</w>
m ent
c ess</w>
marke ts</w>
reig n</w>
bec ome</w>
ma ke</w>
d om
po in
e p
Pre sident</w>
a v
b as
rec ent</w>
ti onal</w>
ge t</w>
ban ks</w>
em er
em s</w>
f ar</w>
f re
c ri
ye t</w>
ent ly</w>
t -
p r
ke y</w>
tech no
ben ef
po pul
poli cies</w>
sti ll</w>
l ong</w>
entr al</w>
G re
ta in
in stitu
be ing</w>
s h</w>
dec i
ec ted</w>
ce p
the n</w>
c a
th ough</w>
ord er</w>
import ant</w>
ar m
en ding</w>
0 0</w>
throu gh</w>
op er
emp loy
is su
ch all
read y</w>
St ates</w>
on -
Chin ese</w>
R e
intere st</w>
techno lo
r ates</w>
Is ra
inclu ding</w>
z e</w>
ffe ren
c our
ac h
di fferen
Jap an</w>
str ate
wh e
no w
v ot
f un
do es</w>
develop ment</w>
so cial</w>
su m
econom ies</w>
e st</w>
w ar</w>
mili tary</w>
fu ture</w>
In dia</w>
f ul
se e
ate ly</w>
pri v
f l
n uc
h an
le g
Americ an</w>
s ame</w>
en s</w>
ing ly</w>
tran s
u se</w>
is m</w>
r an</w>
D P</w>
o k</w>
ve ly</w>
com pe
tic ul
with out</w>
un ity</w>
capit al</w>
p ur
b al
se t</w>
i de
K ore
ig h</w>
ef for
u d
st ar
f is
Ger many</w>
in du
e -
m an</w>
h ar
a st
c y
sec urity</w>
r it
l ing</w>
ta ke</w>
reg ul
ou th</w>
P ar
G DP</w>
cont ro
B an
om e
l es</w>
an other</w>
al ready</w>
fa il
ri ght</w>
und er</w>
rec o
in come</w>
ur ing</w>
sh ed</w>
m ight</w>
d own</w>
ab ly</w>
sh or
bu sin
I ran</w>
di vi
h ist
m ade</w>
ma in</w>
ta x</w>
e d
e duc
par ticul
si an</w>
bu il
j o
gi ven</w>
ti on
nuc lear</w>
U ni
maj or</w>
g ed</w>
ac coun
n s</w>
c all
fo reign</w>
t al
adv an
k now
ener gy</w>
h igh</w>
lar ge</w>
er ship</w>
de sp
er ing</w>
in v
re al</w>
p la
b illion</w>
si st
m i
N or
de p
pro tec
e i
h u
re main
go od</w>
c lo
o th
comp an
or ity</w>
t ors</w>
fis cal</w>
en cy</w>
as s
di rec
e t</w>
w s</w>
su st
lar ge
si m
c oll
employ ment</w>
ra ther</w>
ver s
olu tion</w>
bet ter</w>
mo d
fac t</w>
di d</w>
tur n</w>
si de</w>
pri ces</w>
m at
y -
g an
c ing</w>
g er</w>
f ol
am ong</w>
ris k</w>
curren t</w>
be li
al -
c ha
C on
of ten</w>
re ly</w>
c ar
l ine</w>
j ec
u m</w>
s ure</w>
d ra
he alth</w>
ist s</w>
proble m</w>
gre ss</w>
c lim
du ce</w>
par t</w>
be g
b er</w>
a m</w>
resul t</w>
id d
qu es
ri gh
l ation</w>
ur y</w>
ne ss</w>
ser vic
hel p</w>
wa ys</w>
for e</w>
cour se</w>
z one</w>
ti v
li f
s ha
h ol
an n
A ra
po t
an ti
im pro
y p
pu t</w>
l s</w>
e ve</w>
con sid
min i
can not</w>
be fore</w>
pro gra
ta in</w>
re duc
in t
st ates</w>
pos ed</w>
ch il
posi tion</w>
e uro
an d
s econ
c entral</w>
ul t</w>
re li
pro f
b er
inc re
w ar
S y
s m
con c
b r
ac tion</w>
l ab
dem and</w>
wh y</w>
ru p
p ec
b ility</w>
sel f</w>
m illion</w>
Af ric
ac hi
am a</w>
h um
sec tor</w>
s ome
o ff
W or
u es</w>
ar ound</w>
whe ther</w>
ap pe
S outh</w>
compan ies</w>
long -
b ack</w>
au th
thre e</w>
19 9
r ul
O b
ve l</w>
Ban k</w>
d uring</w>
w om
ti z
c ou
ir e</w>
g es</w>
mo re
ab li
more over</w>
ar ch</w>
st -
t ar
o ffici
lo c
est abli
sust ain
u p
institu tions</w>
bas ed</w>
ne x
incre ase</w>
tt le</w>
&apos; t</w>
ag es</w>
f ur
regi on</w>
C om
a re
en vi
a k</w>
c la
c ul
le ast</w>
soci e
in d</w>
Afric a</w>
tur al</w>
g rou
de fic
ist er</w>
Uni on</w>
clim ate</w>
m ig
Wor ld</w>
sig ni
por ts</w>
pre ss
do m</w>
d er</w>
si mp
Sy ri
gan iz
sim il
compe ti
s ci
ro le</w>
requ i
appro ach</w>
fe w</w>
el s</w>
euro zone</w>
struc ture</w>
signi fic
pa st</w>
i ally</w>
op port
th in
en ing</w>
d ri
Ob ama</w>
ali sm</w>
a ff
our ces</w>
ous ly</w>
b ro
priv ate</w>
Kore a</w>
In ter
E ast</w>
pos sible</w>
b or
h ow
cre di
o il</w>
n or
aliz ation</w>
T ur
ati onal</w>
high er</w>
fo c
le v
Nor th</w>
Isra el</w>
A sia</w>
li es</w>
to ward</w>
go ti
mone y</w>
c ess
pre v
l am
mini str
ma king</w>
k es</w>
em ents</w>
ne goti
mo de
hum an</w>
li ttle</w>
t n
dom es
nex t</w>
how ever</w>
envi ron
educ ation</w>
nee ded</w>
c ase</w>
ad dre
N e
y o
bo o
I ra
de f
ac ro
nee ds</w>
c lear</w>
pec ially</w>
es pecially</w>
idd le</w>
2 0</w>
n um
se qu
mone tary</w>
for ce</w>
n ec
e li
n at
comm it
a il
o ds</w>
reg im
ist an</w>
h al
th us</w>
wom en</w>
man ag
e ver
develop ing</w>
ci tiz
al e</w>
di ffic
l and</w>
poin t</w>
a si
elec tion</w>
democr acy</w>
p at
ac k
i al</w>
e ar
conf lic
f ra
secon d</w>
domes tic</w>
comp le
o ld</w>
u ti
sp ending</w>
g ni
at s</w>
oth ers</w>
tic al</w>
u st
pl ace</w>
ri se</w>
inf lation</w>
re se
sy st
pro cess</w>
ad es</w>
e p</w>
D e
proble ms</w>
chall eng
ha pp
i ous</w>
call ed</w>
ris ing</w>
ag o</w>
i st</w>
b re
l an
d oll
remain s</w>
th s</w>
g en
r ance</w>
ati on
c l
pl an
al most</w>
in no
me ans</w>
ad ministr
busin ess</w>
vi ol
str ong</w>
com es</w>
ic s</w>
co sts</w>
F rance</w>
a su
tim es</w>
grow ing</w>
refor m</w>
i m</w>
z ed</w>
c am
le vel</w>
ex peri
h op
with in</w>
fur ther</w>
fol low
effor ts</w>
am ent
refor ms</w>
tiv ity</w>
dec ades</w>
yo u</w>
pri ce</w>
contin ue</w>
for m</w>
tri bu
t or
differen t</w>
h ou
c le
i a</w>
m y</w>
d es</w>
agre ement</w>
us h</w>
ver age</w>
P al
st o
st ability</w>
m ul
k ill
is h</w>
pot ential</w>
me di
cent ury</w>
t on</w>
ta x
on d</w>
h er</w>
desp ite</w>
reco gni
form ation</w>
en ed</w>
vie w</w>
m or
p er</w>
f am
righ ts</w>
d ly</w>
as s</w>
in ed</w>
se ems</w>
ic ally</w>
n al</w>
particul arly</w>
long- term</w>
re main</w>
t ting</w>
benef its</w>
acc or
us ing</w>
se ver
Pal est
d ge</w>
e very</w>
servic es</w>
fe ren
d -
curren cy</w>
of f</w>
ci vi
W est</w>
an y
citiz ens</w>
increas ingly</w>
di sp
wor kers</w>
inno v
W est
ever y
di tional</w>
f und
, 0
rec ently</w>
pre sid
pre ci
k en</w>
effec tive</w>
re pres
stan d
g ge
e ach</w>
r e</w>
th ir
indu stri
p ly</w>
popul ation</w>
contro l</w>
lab or</w>
po or</w>
d at
ent ed</w>
g ical</w>
Ira q</w>
emb er</w>
emer ging</w>
ac ti
en se</w>
dre n</w>
or ganiz
ra p
s ing</w>
ques tion</w>
ou b
re fl
me asu
de n</w>
st ren
diffic ult</w>
c are</w>
n on-
lo o
en ough</w>
sh are</w>
la w</w>
memb ers</w>
form er</w>
be st</w>
le a
stren g
j ob
ch ar
ini ti
on e
it self</w>
co st</w>
S o
chil dren</w>
administr ation</w>
f ic</w>
fac e</w>
de ter
s ed</w>
politic s</w>
cou ra
at ors</w>
,0 00</w>
ec e</w>
provi de</w>
gre ater</w>
u al</w>
g ic</w>
regi onal</w>
num ber</w>
av o
inte gr
d on</w>
ban k</w>
d en
fre e</w>
regim e</w>
intere sts</w>
memb er</w>
i e
g o</w>
bu d
ar gu
in ste
ac cep
in divi
ter ms</w>
in e
fi ed</w>
long er</w>
indivi du
pe ace</w>
inf ra
ex c
uti n</w>
in ci
P utin</w>
Tur key</w>
in ten
ge ther</w>
res ources</w>
uni ties</w>
en ces</w>
an ts</w>
as es</w>
to gether</w>
ne ver</w>
accor ding</w>
nati on
acc ess</w>
pro gress</w>
con di
st at
infra structure</w>
sel ves</w>
Is lam
st re
cer tain
L e
on ce</w>
s ay</w>
W ar</w>
publi c
inste ad</w>
West ern</w>
hist ory</w>
S ec
ro w</w>
lif e</w>
the m
co oper
me an
job s</w>
T he</w>
su mp
M iddle</w>
low er</w>
re duce</w>
k ra
con tribu
es sion</w>
tic s</w>
sp e
re v
ur al</w>
st ed</w>
U kra
sm all</w>
reas on</w>
per s
5 0</w>
s es</w>
b ar
f -
invest ors</w>
l ack</w>
inf lu
ic e</w>
socie ty</w>
con cer
d y</w>
tr ac
ris ks</w>
d an
le ft</w>
val ue</w>
re st</w>
in s</w>
democr atic</w>
suc cess
sh ing</w>
r y</w>
nec ess
challeng es</w>
imp act</w>
gi es</w>
ter r
ment al</w>
poli cy
ha ps</w>
ur o</w>
su gge
for ces</w>
po ver
Syri a</w>
Gre ece</w>
per haps</w>
ex tre
u g
tu ally</w>
imp le
strate gy</w>
we ak
pa ig
us es</w>
de li
M in
mul ti
con sequ
for t
pl ac
technolo gy</w>
hi m</w>
pre sident</w>
ho ld</w>
l li
exp an
cam paig
al th
g a
o lo
cre ate</w>
lo cal</w>
st ra
syst ems</w>
rese arch</w>
j ect</w>
ag ain</w>
ori ties</w>
ne w
at eral</w>
b ur
ab ili
issu es</w>
reig n
tr ue</w>
sh ar
dat a</w>
h ard</w>
le ad</w>
p end
Palest ini
3 0</w>
comm on</w>
s ol
pur su
p ed</w>
s it
le ar
fund ament
ow n
e vi
equ ality</w>
signific ant</w>
lead ership</w>
anti -
accoun t</w>
al low
w ant</w>
pos e</w>
simp ly</w>
ma kers</w>
poli tici
sen se</w>
conflic t</w>
y oun
fin ance</w>
t ers</w>
g ain
o li
st ud
ne t</w>
se e</w>
inde pend
Rus sian</w>
P ak
er ity</w>
par tn
re fu
Ara b</w>
200 8</w>
ser ious</w>
ex change</w>
ou ght</w>
par ty</w>
we ap
B ri
them selves</w>
e arly</w>
contin u
it al</w>
e as
19 8
em o
ti sh</w>
ti l</w>
m ot
gre at</w>
fir ms</w>
com b
y ond</w>
le ss
rul es</w>
F ren
measu res</w>
en sure</w>
acro ss</w>
st ing</w>
mig r
un til</w>
con sum
A r
un employment</w>
ord in
lev els</w>
k now</w>
u res</w>
mis sion</w>
be yond</w>
an c
en ge</w>
t es</w>
o -
d a
h ere</w>
beli eve</w>
Min ister</w>
us ti
s w
pover ty</w>
increas ed</w>
de al</w>
d i</w>
mo ve</w>
cor por
p ing</w>
ffici ent</w>
b ri
M o
E C
si bility</w>
hu man
P ri
l -
pow er
n am
di st
t ari
simil ar</w>
achi ev
g er
credi t</w>
o l</w>
thir d</w>
sump tion</w>
comm unity</w>
wi se</w>
st and</w>
Fren ch</w>
ru n</w>
tici p
progra m</w>
bal an
n er
pro mis
bal ance</w>
p ay</w>
el l
se ts</w>
chall enge</w>
M us
requ ire</w>
sustain able</w>
doll ar</w>
i ly</w>
pro sp
b on
com ing</w>
ati ves</w>
wi de</w>
e uro</w>
sh o
B rit
ful ly</w>
str y</w>
con stitu
Ukra ine</w>
develop ed</w>
h ome</w>
t able</w>
Bri tish</w>
thre at</w>
fort un
fin d</w>
issu e</w>
hou se
al ways</w>
Ger man</w>
v ement</w>
al y
s ing
s cho
in es</w>
stan ding</w>
a z
pa y
addre ss</w>
in formation</w>
pl om
ow ing</w>
p i
hal f</w>
am oun
dec ade</w>
st er</w>
di es</w>
ra is
w ill
bi a</w>
inter ven
ta ken</w>
con v
wh o
en coura
bec om
t ation</w>
g yp
U N</w>
di plom
t ot
id enti
suc cess</w>
cla im
E gyp
lead ing</w>
consid er</w>
m as
par ties</w>
vi ous</w>
ar ds</w>
v o
z ation</w>
large st</w>
w ater</w>
youn g</w>
sh e</w>
chan ges</w>
Brit ain</w>
n ot
f all</w>
ate -
ser ve</w>
de ep
condi tions</w>
respon se</w>
Mus li
are as</w>
policy makers</w>
re ach
gre s
see m</w>
ex ist
bud get</w>
F ed</w>
ad op
so ve
ha ving</w>
e k</w>
g ue</w>
ac ks</w>
p ris
pr inci
d ers</w>
Par ty</w>
me dia</w>
sever al</w>
defic it</w>
at ten
U K</w>
fo od</w>
produc tivity</w>
A n
y ed</w>
ru le</w>
op en</w>
d am
L i
u ation</w>
g ence</w>
ser v
evi d
pre dic
cor rup
produc tion</w>
en ds</w>
Inter national</w>
I M
fre e
a verage</w>
i se</w>
re ad</w>
sel f-
opport unity</w>
Americ ans</w>
cap ac
mode l</w>
press ure</w>
fi ve</w>
tre at
politici ans</w>
know le
foc us</w>
weap ons</w>
tu al</w>
thin k</w>
rec ei
refu ge
em is
offici als</w>
lo ok</w>
ri ch</w>
dom in
con tra
advan ced</w>
B ush</w>
es tim
vot ers</w>
po l
cooper ation</w>
ti vely</w>
strate gic</w>
e th
d one</w>
C oun
z ing</w>
exp ected</w>
he ad</w>
shor t</w>
d er
ta king</w>
bi g</w>
Ne w</w>
reli gi
f y</w>
w r
campaig n</w>
ab s
di se
low s</w>
di d
coll ap
tur ing</w>
sa id</w>
ra z
IM F</w>
tr u
deter min
st oc
ar -
b an</w>
v ari
star t</w>
sci enti
inv ol
illi ons</w>
he ad
c ity</w>
in equality</w>
ol s</w>
leg al</w>
ar ch
I tal
de st
grou ps</w>
Ital y</w>
1 .
spec i
wh ose</w>
in ing</w>
cre ated</w>
d oub
hop e</w>
effor t</w>
consequ ences</w>
effec ts</w>
B re
go ods</w>
Pak istan</w>
ali st</w>
al ter
0 s</w>
el l</w>
ann ual</w>
as sets</w>
indu stry</w>
fin ally</w>
lead er</w>
di stri
ci l</w>
man u
j usti
en sive</w>
N o
requi res</w>
o s</w>
re turn</w>
we alth</w>
go ing</w>
ex ic
M exic
capac ity</w>
ch ed</w>
a ir
hist or
d ro
vers ity</w>
ne igh
large ly</w>
do ing</w>
s is</w>
mon ths</w>
se ly</w>
in dic
a sh
sc ale</w>
tran sp
pu li
maj ority</w>
advan t
migr ation</w>
po puli
ven ess</w>
T O</w>
pro mot
d ru
a way</w>
N A
al one</w>
li ber
att emp
it ing</w>
g as</w>
c us
S au
Pri me</w>
un d</w>
to p</w>
mas sive</w>
struc tural</w>
fail ed</w>
t ory</w>
vi sion</w>
m it
con sumption</w>
ne arly</w>
necess ary</w>
high -
ful l</w>
influ ence</w>
al though</w>
ss es</w>
por ted</w>
l d
econom ists</w>
wor king</w>
al le
v al</w>
m it</w>
power ful</w>
aliz ed</w>
u ally</w>
progra ms</w>
de fin
ban king</w>
t ro
ren t</w>
c ol
Af gh
t an
s low
in ning</w>
di g
op position</w>
under min
he alth
Coun cil</w>
tar ge
bro ad
c ause</w>
B raz
de mon
peri od</w>
f our</w>
ac tions</w>
r un
ne g
de sig
rel ation
m u
glob alization</w>
ex ports</w>
rel ations</w>
D emo
fortun ately</w>
c al
ag ing</w>
know n</w>
19 7
tim ul
our ce</w>
par ticip
thre at
shi ft</w>
ei ther</w>
b on</w>
me e
emis sions</w>
benef it</w>
t ren
increas ing</w>
a id</w>
s timul
buil d</w>
Demo cr
b ig
P ro
po st-
sc ri
c ro
wor se</w>
N ations</w>
fa v
tri lli
B ar
A sian</w>
v ol
conf id
c um
deb ate</w>
particul ar</w>
F und</w>
ric ul
ma kes</w>
grou p</w>
ag end
achi eve</w>
So vie
th er
cre d
br ing</w>
si on
jo b</w>
an ese</w>
clo se</w>
sist ance</w>
ne ws</w>
fail ure</w>
le gi
M ar
fun ds</w>
prev ent</w>
m en</w>
ic k
ac e
li ves</w>
lo st</w>
beg an</w>
viol ence</w>
dec line</w>
be ha
impro ve</w>
f ound</w>
jec ts</w>
li n</w>
se en</w>
l ater</w>
s anc
p ment</w>
sup ply</w>
struc tion</w>
d y
ci r
al d</w>
demon str
a vi
mon th</w>
ex per
alter nati
innov ation</w>
acti vi
sh ow
offici al</w>
dis cus
l ate</w>
integr ation</w>
en ter
str ong
y a</w>
gi ve</w>
pla y</w>
ide a</w>
G o
negoti ations</w>
ex ten
pl an</w>
popul ar</w>
no thing</w>
ing dom</w>
in sur
s kill
distri bu
cer tain</w>
ab o
ke ep</w>
experi ence</w>
buil ding</w>
at h</w>
G e
nat ural</w>
de man
th ern</w>
oc cu
legi tim
elec tions</w>
C entral</w>
tot al</w>
sing le</w>
li ty</w>
deci sion</w>
be h
n or</w>
li ving</w>
ci ties</w>
ug g
mod ern</w>
p en
manu fac
e asi
coun ter
ch e
for ced</w>
c ru
re port</w>
low -
govern ance</w>
EC B</w>
m om
follow ing</w>
b ad</w>
pa red</w>
L on
J o
ati vely</w>
m en
imple ment
dic al</w>
beha vi
b eral</w>
t om
inc enti
s olution</w>
tax es</w>
ser ves</w>
er -
su ff
k ind</w>
con tr
vot e</w>
M a
K ingdom</w>
o ffic
Jap anese</w>
ran ts</w>
B er
Lon don</w>
ver s</w>
gu ar
ec ts</w>
ag ed</w>
opport unities</w>
fe ar</w>
stri c
bon ds</w>
evid ence</w>
on ald</w>
environ ment</w>
terr or
so li
consid er
ul tim
le -
Sovie t</w>
u ri
busin ess
as h</w>
an tly</w>
reco very</w>
olu tions</w>
re ven
beh ind</w>
some thing</w>
re f
Islam ic</w>
Egyp t</w>
vi s
trilli on</w>
ate st</w>
re st
am ent</w>
tra ditional</w>
conc lu
201 5</w>
pres sion</w>
e f</w>
conf ron
can did
ac tually</w>
i an</w>
civi l</w>
al low</w>
f all
a de
prob ably</w>
E n
an aly
agend a</w>
environ mental</w>
la un
oun d
ro ad</w>
lim ited</w>
Con gress</w>
Braz il</w>
th ings</w>
eff ect</w>
ver se</w>
def ense</w>
P e
te st</w>
mod er
high ly</w>
bec ame</w>
b ack
he ld</w>
ad j
corrup tion</w>
Sau di</w>
ste p</w>
Palestini an</w>
cu t</w>
direc t</w>
so on</w>
avo id</w>
pa in</w>
hol ds</w>
v ul
In di
re ally</w>
pro pos
equ i
val ues</w>
or t</w>
lin es</w>
go al</w>
A ss
technolo gies</w>
cle arly</w>
R es
presid ential</w>
sub stan
pro per
C am
invest ments</w>
feren ce</w>
a im
rap id</w>
protec t</w>
li gh
pow ers</w>
ex ter
im medi
qu ar
201 0</w>
Bre x
re ach</w>
si ze</w>
mi se</w>
dep end
auth orities</w>
Af ri
uni on</w>
car bon</w>
J e
c ases</w>
ti g
pr ac
p an
boo st</w>
su s</w>
rou gh
fun c
Afgh an
sa fe
reg ar
ec han
si b
in t</w>
Com mission</w>
cl ass</w>
arm ing</w>
Mexic o</w>
str ugg
hu ge</w>
z er
stat us</w>
success ful</w>
lar ger</w>
1 0</w>
sit uation</w>
ob jec
pl es</w>
d own
con om
ter rit
qu ality</w>
atten tion</w>
sur pl
re ality</w>
wor ks</w>
to ok</w>
ari an</w>
E conom
certain ly</w>
ali sts</w>
Ge or
reduc ing</w>
de red</w>
ag ricul
ti veness</w>
pur cha
individu al</w>
exp ec
e y
finan cing</w>
le t</w>
tran si
fundament al</w>
abo ve</w>
n ar
sanc tions</w>
n ation</w>
defic its</w>
contra st</w>
competi tion</w>
bo ok</w>
Afghan istan</w>
knowle dge</w>
ann oun
par ts</w>
li ve</w>
er a</w>
comm un
rou ght</w>
e z
in ation</w>
c ally</w>
t em
vul ner
tur ned</w>
at ory</w>
curren tly</w>
b order</w>
wor ld
shor t-
c all</w>
ap p
establi shed</w>
h y
en ded</w>
st ly</w>
f le
mat ter</w>
ev ent
a w
se em
adj ust
sti c</w>
min ister</w>
ge o
s ch
or ies</w>
a ke</w>
iz ed</w>
collap se</w>
ar t</w>
inclu de</w>
eas y</w>
O r
b ac
dan ger
I I</w>
behavi or</w>
out come</w>
av ail
cri tical</w>
guar an
r ati
pro duce</w>
Afri can</w>
sub si
m illions</w>
el li
c at
an sw
qu ick
par li
on e-
manag ement</w>
rec or
leg is
stand ards</w>
p le
s k
b asi
gr ound</w>
ord ers</w>
cre ating</w>
Sec urity</w>
b l
u su
relation ship</w>
re by</w>
a i
4 0</w>
me an</w>
li ght</w>
exp la
concer ns</w>
D onald</w>
te e</w>
rel atively</w>
mig rants</w>
cy c
al ong</w>
A l
6 0</w>
r ing</w>
m echan
De velo
so -
NA TO</w>
will ing</w>
fra me
fic ation</w>
wr ong</w>
substan ti
sa v
produc ts</w>
pro mise</w>
rec ession</w>
as k</w>
s -
ing -
St ate</w>
el se
commit ment</w>
2 5</w>
under stand</w>
pro jects</w>
su per
mean while</w>
corpor ate</w>
ra ise</w>
r ac
Musli m</w>
Brex it</w>
wor ds</w>
deci sions</w>
dra w
p on
industri al</w>
b ed</w>
quick ly</w>
enti ally</w>
bor row
coll ec
sto p</w>
n er</w>
h ous
ex cep
else where</w>
c ame</w>
fo reign
vi r
S e
h and</w>
every one</w>
confid ence</w>
off er</w>
en s
cu ts</w>
R o
Develo pment</w>
h er
enti re</w>
develo p</w>
al lies</w>
refuge es</w>
pre ce
2 .
me et</w>
ing ton</w>
free dom</w>
Par is</w>
respon sibility</w>
x i
re -
mee ting</w>
ade qu
sci ence</w>
per for
wor k
pp ed</w>
exter nal</w>
it able</w>
ati n</w>
world wide</w>
g s</w>
b ol
il ateral</w>
L atin</w>
business es</w>
200 9</w>
resul ts</w>
ver si
li er</w>
sur vi
so- called</w>
re pe
am bi
un likely</w>
st able</w>
gener al</w>
ge st</w>
w in
int ro
1 5</w>
ho od</w>
j u
g ain</w>
we ak</w>
simil arly</w>
res ol
li qu
t yp
religi ous</w>
W ash
becom ing</w>
mo vement</w>
w at
f lows</w>
Wash ington</w>
suc ce
ss ed</w>
organiz ations</w>
for ward</w>
att acks</w>
N ational</w>
sho w</w>
s on</w>
recogni ze</w>
perfor man
f ri
exist ing</w>
advant age</w>
pre ss</w>
f ight</w>
t ations</w>
S u
civi li
technolo gical</w>
Inter net</w>
fun ding</w>
ca used</w>
Isra el
sh oc
danger ous</w>
continu ed</w>
beg inning</w>
reas ons</w>
a ir</w>
m ist
dra m
gain s</w>
cla im</w>
rel ative</w>
regul ation</w>
rough ly</w>
rel ated</w>
ess ential</w>
at or</w>
Bar ack</w>
w on</w>
tu res</w>
gra du
soli d
on es</w>
w ed</w>
en ab
basi c</w>
amoun t</w>
da ys</w>
aliz e</w>
F ed
throu gh
iz e</w>
201 2</w>
stoc k</w>
cred it
se tt
pat h</w>
o s
gra ph
comp any</w>
trans f
performan ce</w>
n u
f ig
ex t
s ource</w>
eli min
cri min
fac ili
alternati ve</w>
re vi
re new
fo re
di tion</w>
a red</w>
ffe red</w>
l ac
f ron
val u
hel ped</w>
over all</w>
form ed</w>
201 3</w>
ne t
al li
201 4</w>
op en
it arian</w>
ultim ately</w>
li beral</w>
0 ,000</w>
as set</w>
por ting</w>
F ran
pers onal</w>
con serv
ast ern</w>
Gre at</w>
in a</w>
f are</w>
neigh b
b rought</w>
re serves</w>
Europe ans</w>
out side</w>
mat er
insur ance</w>
main tain</w>
interven tion</w>
pro posed</w>
posi tive</w>
ve red</w>
out put</w>
in al</w>
au st
T ra
H am
avail able</w>
event ually</w>
M one
tar get</w>
ex ac
ati s
ad ditional</w>
exp lo
T h
u t
g ency</w>
D ec
vic tory</w>
s olutions</w>
imp lic
elec ted</w>
contin ues</w>
0 .
al ing</w>
Re publi
neg ative</w>
fac tors</w>
S pain</w>
ra li
cre ation</w>
g ri
sc en
respon sible</w>
j ud
Ara bia</w>
j our
gener ation</w>
de scri
un fortunately</w>
shi ps</w>
mor al</w>
de si
de ep</w>
ec h</w>
dy nam
comple x</w>
com mod
sa ving</w>
lea ve</w>
poin ts</w>
be low</w>
Israel i</w>
prosp erity</w>
cho ice</w>
ca re
accep t</w>
st ag
for ms</w>
as soci
af for
de ath</w>
shor t
ke p
econom ics</w>
allow ed</w>
Indi an</w>
ss ing</w>
exc es
com mer
independ ence</w>
dri ven</w>
wel l-
thin king</w>
stimul us</w>
Kore an</w>
si onal</w>
ou se</w>
offic e</w>
manufac turing</w>
con stra
aust erity</w>
201 1</w>
the reby</w>
m ed</w>
agre ed</w>
el er
claim s</w>
beli ev
b i</w>
agre ements</w>
O R
ro o
frame work</w>
att ers</w>
bo dy</w>
main tain
sh e
pro te
nor m
b loc
ide olo
answ er</w>
bas is</w>
sen sus</w>
independ ent</w>
ati cally</w>
fam ili
ap er</w>
a head</w>
pa id</w>
Fed eral</w>
ex t</w>
wi de
individu als</w>
f igh
port ers</w>
att ack</w>
multi l
id ly</w>
en cies</w>
ar ity</w>
mo b
provi ded</w>
Gre ek</w>
A b
sec tors</w>
fam ily</w>
requi red</w>
direc tly</w>
sha red</w>
s af
ar ies</w>
M ay</w>
consum ers</w>
a -
W h
qu e</w>
effec tively</w>
comm unities</w>
pri me</w>
ne i
un e</w>
nei ther</w>
cris es</w>
elec tor
dam age</w>
re in
p ati
X i</w>
Mone tary</w>
sh ment</w>
dise ase</w>
abili ties</w>
Republi can</w>
tur ns</w>
short- term</w>
in ev
w age</w>
socie ties</w>
servic e</w>
re stric
ar gue</w>
industri es</w>
ep t
b a
increas es</w>
sav ings</w>
fac ing</w>
strong er</w>
ar ing</w>
ac i
skill s</w>
m a</w>
enti onal</w>
conc ern</w>
I ran
streng th
ept ember</w>
S eptember</w>
m atters</w>
incenti ves</w>
ide as</w>
agre e</w>
199 0</w>
prece d
elec tri
through out</w>
sid es</w>
im ag
or ig
m id
like wise</w>
w ages</w>
F in
transi tion</w>
scho ol</w>
m al
int elli
exc lu
e ts</w>
Com m
sove reign
ph y
disp u
competi tive</w>
rev olution</w>
re a
fu el</w>
the less</w>
ex ec
G lob
rap idly</w>
pro ject</w>
ex port</w>
b ru
partn ers</w>
co ali
provi ding</w>
m acro
lan ds</w>
house holds</w>
P ol
politic ally</w>
nat ure</w>
lo t</w>
con sist
certain ty</w>
Sec re
w rit
ris k
reduc tion</w>
ques tions</w>
p ass
min im
P oli
r ace</w>
pri m
on ed</w>
stud y</w>
re si
re feren
pre h
differen ce</w>
g row</w>
extre me</w>
activi ties</w>
emp ha
phy si
g ent
U S
protec tion</w>
produc tive</w>
la ws</w>
fe d
fed eral</w>
el a</w>
aim ed</w>
tal ks</w>
shi f
doll ars</w>
c ra
0 -
surpl us</w>
ou ble</w>
char ac
a h
im possible</w>
fu el
M u
terror ism</w>
mom ent</w>
conv entional</w>
an u
si vely</w>
id ity</w>
dec lin
contr ary</w>
b orders</w>
a y
201 6</w>
reach ed</w>
or ing</w>
experi en
an -
reduc ed</w>
e ffici
dis ast
wide ly</w>
tion ary</w>
th ous
sec ure</w>
pursu e</w>
lo ss</w>
institu tional</w>
f arm
su fficient</w>
see king</w>
repres ent
acc eler
go als</w>
ev ents</w>
diplom atic</w>
st u
ri ed</w>
tr ust</w>
b ilateral</w>
some times</w>
prac tic
er y</w>
1 00</w>
ob vious</w>
f f</w>
whe re
sugge sts</w>
equ ity</w>
appe ars</w>
th ought</w>
M er
adequ ate</w>
G ener
exp ect</w>
fa ir</w>
simp le</w>
ordin ary</w>
cri tici
ap pa
y ers</w>
ste ps</w>
are a</w>
proper ty</w>
ic i
si x</w>
lo ans</w>
i k
auth or
ga p</w>
foc used</w>
pre vious</w>
gres sive</w>
Tra de</w>
vi ously</w>
hous ing</w>
cru cial</w>
adv oc
foreign -
auth ority</w>
signific antly</w>
inter nal</w>
Res er
transp a
establi sh</w>
w in</w>
pri se</w>
mar k</w>
dic t
Jo h
lo sses</w>
expan sion</w>
ear lier</w>
ce -
Reser ve</w>
OR K</w>
ran ge</w>
con duc
bu b
dis rup
ce i
Y ORK</w>
s low</w>
co ordin
man i
h und
fol low</w>
tr ying</w>
me as
h or
w ants</w>
s al
oc cur
m ess
s ou
follow ed</w>
chan ged</w>
ac qu
ta li
Glob al</w>
int ell
dig ital</w>
com pared</w>
com par
c ore</w>
H ouse</w>
sur ing</w>
intro duc
vulner able</w>
ti ous</w>
b it
Le ban
un less</w>
M ac
Gener al</w>
v ements</w>
sum mit</w>
sm all
ti ves</w>
j ected</w>
hol ders</w>
cul ture</w>
ac ies</w>
under standing</w>
ta il
ev olution</w>
uni st</w>
re m
oth er
iz ation</w>
V en
Ass ad</w>
we e
t y
pl ans</w>
fa il</w>
G -
le ment</w>
e red</w>
commit ted</w>
v acc
B o
ul ar</w>
see k</w>
cul tural</w>
wor th</w>
streng then</w>
populi st</w>
w ing</w>
op e</w>
intell ec
im migration</w>
C lin
vers al</w>
regi ons</w>
who le</w>
show s</w>
ser ved</w>
f er
b ra
fra g
Ar gent
treat ment</w>
k o
d on
No v
Li b
con struction</w>
s po
produc ed</w>
oun ds</w>
health -
t ou
con sensus</w>
au tom
tw o-
t ac
sur ve
wh at
ori st</w>
ari ly</w>
neighb ors</w>
k er</w>
e fficient</w>
sp ace</w>
im ports</w>
h om
beg in</w>
balan ces</w>
s si
w an
par tly</w>
exces sive</w>
h im
dest ro
recor d</w>
liqu idity</w>
ep ing</w>
easi ly</w>
Re public
resp ect</w>
n om
g ame</w>
ten d</w>
t in
op tim
mar g
al o
200 7</w>
tra ining</w>
regul atory</w>
or m
ab or
inve st</w>
chil d</w>
stud ents</w>
scienti fic</w>
re lev
con si
bri dge</w>
ri ch
press ed</w>
op s</w>
the refor
therefor e</w>
appe ar</w>
ren min
jour n
d ate</w>
sec u
distribu tion</w>
bur den</w>
Republic ans</w>
spec ts</w>
prim ary</w>
po ore
de fe
ch ance</w>
du m</w>
cir cum
mode ls</w>
ff s</w>
an ds</w>
tra ding</w>
stan ces</w>
qu anti
fe el</w>
A c
y our</w>
s ources</w>
mo ving</w>
deman ds</w>
w arming</w>
tren d</w>
direc tion</w>
coali tion</w>
any thing</w>
Syri an</w>
Clin ton</w>
s qu
promot e</w>
pre -
o bli
histor ical</w>
argu ment</w>
argu ed</w>
subsi dies</w>
ari o</w>
vie ws</w>
presid ency</w>
se par
refl ects</w>
min ist
ab and
S un
un like</w>
targe ts</w>
su me</w>
per man
m ing</w>
M or
what ever</w>
lo se</w>
encoura ge</w>
K en
s er</w>
chan ging</w>
announ ced</w>
sy m
seem ed</w>
pat ter
op ini
end er</w>
v ital</w>
public -
en able</w>
w ars</w>
emp lo
manag ed</w>
man age</w>
fa ster</w>
sib ly</w>
promis es</w>
big gest</w>
terr orist</w>
pro -
arm ed</w>
un certainty</w>
in si
fall ing</w>
reach ing</w>
ext ent</w>
consum er</w>
st age</w>
J u
Dec ember</w>
to -
sove reign</w>
import ance</w>
sa ve</w>
eth n
Palestini ans</w>
reg ard</w>
commun ic
H e
C ol
thre ats</w>
p ush</w>
li ed</w>
g ate</w>
form al</w>
deli ver</w>
ap preci
C old</w>
multil ateral</w>
imple ment</w>
him self</w>
en orm
who m</w>
st om
re ve
do c
c ement</w>
t ment</w>
substanti al</w>
pos es</w>
con trac
referen dum</w>
rais ing</w>
hou se</w>
g ent</w>
an im
K im</w>
C o
stand ard</w>
expec tations</w>
bre ak</w>
Nov ember</w>
saf e</w>
other wise</w>
intelli gence</w>
gu i
b om
Ham as</w>
r he
provi des</w>
l atest</w>
war ds</w>
speci fic</w>
doub t</w>
as sistance</w>
I C
w ish</w>
ur ban</w>
st y
1 8
renmin bi</w>
call s</w>
ab road</w>
or -
b ers</w>
at trac
S en
wel fare</w>
ta kes</w>
st ory</w>
op tion</w>
ez u
equ al</w>
ap poin
Ven ezu
v ast</w>
sp ir
legitim acy</w>
com preh
y i
M al
sup ported</w>
l ending</w>
in ts</w>
ac tive</w>
Econom ic</w>
sp end</w>
princi ple</w>
on y</w>
min d</w>
de fa
any one</w>
vi a</w>
vari ous</w>
immedi ate</w>
de fl
appro pri
G u
ti an</w>
H ar
F or
tru th</w>
o d
Or ganiz
En g
D i
form ing</w>
sh own</w>
respon d</w>
ke l</w>
ic es</w>
buil t</w>
achiev ed</w>
Pol and</w>
P aci
fav or</w>
b lo
Geor ge</w>
r on</w>
fac es</w>
E r
farm ers</w>
can c
al ed</w>
adop ted</w>
um ents</w>
sto od</w>
st abili
safe ty</w>
prof its</w>
de gre
bar ri
ar ran
Y or
C an
x im
reas on
re ali
health- care</w>
competi tiveness</w>
bre ak
s co
n one</w>
si t</w>
justi ce</w>
c au
Paci fic</w>
pro por
lim its</w>
con ver
Organiz ation</w>
m iddle</w>
1 1</w>
G az
st ate-
is ol
ch ing</w>
cent er</w>
stan ds</w>
m ass</w>
at ure</w>
preci sely</w>
contro l
becom es</w>
7 0</w>
the ory</w>
te dly</w>
so ft</w>
pro spects</w>
op h
Mer kel</w>
sever e</w>
impro ved</w>
en suring</w>
dru g</w>
cu stom
T re
fle xi
mo ved</w>
curren t-
3 .
thous ands</w>
spe ech</w>
US -
pos sibility</w>
current- account</w>
Secre tary</w>
un able</w>
re mar
desig ned</w>
curren cies</w>
Iran ian</w>
sugge st</w>
sp ent</w>
por ary</w>
p ic
S D
tur ning</w>
la h</w>
Uni versity</w>
syst em
refl ect</w>
happ en</w>
er ci
cor rec
R om
ven tion</w>
lim it</w>
eng ine
commer cial</w>
b s</w>
we ek</w>
norm al</w>
accoun ts</w>
S ing
where as</w>
pro ce
du e</w>
19 6
sp i
me rely</w>
in comes</w>
figh ting</w>
vie wed</w>
to ols</w>
run ning</w>
sp read</w>
Argent ina</w>
u se
ge ts</w>
ro r</w>
f ru
el t</w>
gi ving</w>
fac ed</w>
e ld</w>
com pu
im pe
b att
S a
pay ments</w>
me t</w>
el se</w>
usu ally</w>
fo ssi
star ted</w>
eas ing</w>
dri ve</w>
Yor k</w>
re plac
lea ving</w>
l ying</w>
fun d</w>
Leban on</w>
vol ati
tari ffs</w>
re ment</w>
princi ples</w>
bi o
as sum
as ked</w>
st a
oun ded</w>
re le
memb ership</w>
bu l
ac tivity</w>
S h
pol lu
initi ative</w>
ad ap
zer o</w>
par ti
la m</w>
spec ial</w>
macro economic</w>
dem ic</w>
cont ext</w>
con cep
b ing</w>
J une</w>
w ent</w>
sovereign ty</w>
rais ed</w>
laun ched</w>
con n
arran g
tic ally</w>
pro cess
M e
r in
i or</w>
establi shment</w>
t ol
ent ing</w>
s mo
la y</w>
effici ency</w>
a th
out comes</w>
mor t
it er
ent er</w>
dise ases</w>
contin ent</w>
Joh n</w>
D C</w>
& #
&# 9
wi desp
le ments</w>
is ms</w>
impro ving</w>
capit a</w>
broad er</w>
widesp read</w>
resul ting</w>
estim ated</w>
en jo
air s</w>
pe ace
S hi
scho ols</w>
mis si
gener ally</w>
ar ms</w>
200 0</w>
f ying</w>
regul ations</w>
n i</w>
ti gh
re ds</w>
r ural</w>
pl at
hel ping</w>
facili t
bu y</w>
pro ve</w>
ge tting</w>
charac ter
b ase</w>
K ey
rhe tor
recei ved</w>
m er</w>
ass ess
sup p
m ir</w>
legis lation</w>
in st
democr acies</w>
vic e</w>
credit ors</w>
consi dered</w>
S er
relev ant</w>
pr acti
opini on</w>
ne ar</w>
Is lam</w>
F o
ten sions</w>
loo king</w>
h ur
ca uses</w>
happ ened</w>
famili es</w>
attemp t</w>
he av
enorm ous</w>
an ces</w>
m es</w>
h it</w>
a king</w>
A I
A ust
fo rec
exper ts</w>
el ds</w>
de a
al loc
Lib ya</w>
m idd
wor ked</w>
scienti sts</w>
la red</w>
exec u
er o
clo ser</w>
candid ates</w>
200 5</w>
nation alism</w>
er ation</w>
as si
pon ents</w>
oper ations</w>
la u
i ed</w>
hund reds</w>
go es</w>
dru gs</w>
poli ce</w>
fi x
differen ces</w>
circum stances</w>
at er
allow ing</w>
ad dition</w>
po st
m ach
house hold</w>
agricul tural</w>
ac tors</w>
treat y</w>
sustain ed</w>
ing ing</w>
guaran te
conc entr
collec tive</w>
abs ence</w>
1 2</w>
to ld</w>
prof es
occu p
M an
E astern</w>
mess age</w>
han d
ra dical</w>
fin al</w>
dep ends</w>
v ast
un preced
f ar-
ex ce
bu st</w>
b ail
d less</w>
A be</w>
si ans</w>
protec tion
geo political</w>
g ir
ethn ic</w>
dep end</w>
con nec
associ ated</w>
Democr atic</w>
per spec
Er do
sig n</w>
op pos
n ame</w>
mo stly</w>
f ell</w>
econom ist</w>
barri ers</w>
ot s</w>
deep ly</w>
ari a</w>
strugg le</w>
si l
lan gu
every thing</w>
as ser
ie f</w>
gen e
reven ues</w>
g ran
su sp
re sistance</w>
practic es</w>
li st</w>
tech n
perman ent</w>
enti rely</w>
sig ned</w>
remain ed</w>
conflic ts</w>
C O
undermin e</w>
te en
t op
rati o</w>
pers on</w>
ir ing</w>
ban k
at y</w>
succe ed</w>
pres ent</w>
ori al</w>
me th
consider able</w>
ow ned</w>
boo m</w>
m ag
l and
elector al</w>
K ur
19 4
sup posed</w>
per cent
ke t</w>
dan ger</w>
C ha
198 0</w>
ri es</w>
finan ci
f requ
ent re
dec lared</w>
comple te</w>
ak es</w>
ad ded</w>
Tre aty</w>
tri ed</w>
reas ury</w>
re turns</w>
me dical</w>
la w
identi ty</w>
appro ach
Cam bridge</w>
200 1</w>
pre ne
per f
Musli ms</w>
K rem
it h</w>
initi atives</w>
oun ding</w>
l at
g one</w>
d able</w>
A u
tu red</w>
high est</w>
dis co
up on</w>
plac es</w>
ke eping</w>
fac tor</w>
con solid
ag encies</w>
Aust rali
unpreced ented</w>
sub ject</w>
as ed</w>
ad ly</w>
comp li
ban kers</w>
Erdo ğ
inf l
in stability</w>
entre prene
compreh ensive</w>
comp lic
P h
si on-
capit alism</w>
bro ad</w>
ad a</w>
re ti
n ings</w>
emer ged</w>
disast er</w>
conv inc
strate gies</w>
con tain
ch em
Erdoğ an</w>
promis ed</w>
p ace</w>
ic ro
har dly</w>
d ings</w>
avo i
uc r
small er</w>
m oun
aff ected</w>
th -
ful f
ch ec
wh el
ss -
posi tions</w>
gener ate</w>
credi bility</w>
c ash</w>
sec re
s ent</w>
reven ue</w>
with draw
estim ates</w>
borrow ing</w>
ag gre
pot entially</w>
on going</w>
midd le-
lan tic</w>
Krem lin</w>
wor st</w>
un g
recei ve</w>
ec tion</w>
Democr ats</w>
te ly</w>
sur pris
quar ter</w>
mort g
candid ate</w>
organiz ation</w>
fir m</w>
diplom acy</w>
comp ens
shar ing</w>
recogni zed</w>
p sy
over whel
exp ensive</w>
dea ths</w>
appropri ate</w>
C our
te red</w>
r ound</w>
p ha
lear n</w>
invol ved</w>
cho ose</w>
H ong</w>
t ask</w>
exp and</w>
han ds</w>
f our
experien ced</w>
suff ering</w>
ni a</w>
meas ure</w>
me dic
en han
e ly</w>
bu rea
ar ti
fu els</w>
commod ity</w>
su d
one theless</w>
n onetheless</w>
el ling</w>
adv ance</w>
ad d
I n</w>
roo m</w>
rhetor ic</w>
gu n</w>
gen u
An g
8 0</w>
su res</w>
la di
di ed</w>
as p
g ers</w>
comb ined</w>
be l</w>
s ound</w>
remar k
m atic</w>
K o
uni versal</w>
im m
wee ks</w>
b ir
arm y</w>
Gaz a</w>
o ffered</w>
m y
inclu des</w>
conserv ative</w>
ve -
tion ing</w>
pla yed</w>
ob ser
electri city</w>
contribu te</w>
bac ked</w>
pri ority</w>
Tur k
equ ally</w>
u r</w>
f lo
ec ting</w>
contro ls</w>
over come</w>
alle n</w>
Ju ly</w>
wan ted</w>
gre atest</w>
val ent</w>
analy sis</w>
sup porters</w>
in ess</w>
an i</w>
a il</w>
practi ce</w>
main ly</w>
im posed</w>
commit ments</w>
cal cul
b ound</w>
agricul ture</w>
achiev ing</w>
I tali
D en
scen ario</w>
s ought</w>
f allen</w>
e th</w>
col le
ac ted</w>
J anu
E A
trans formation</w>
s mar
percent age</w>
mani pul
le verage</w>
h un
f ound
a p</w>
R evolution</w>
slow down</w>
sa w</w>
qu ite</w>
plan et</w>
p ack
con struc
alli ance</w>
addre ssing</w>
Se a</w>
P er
Cour t</w>
n e</w>
im pose</w>
for cing</w>
t ative</w>
rel and</w>
ge -
fi eld</w>
ag ue</w>
Mac ron</w>
sty le</w>
expla in</w>
M arch</w>
tren ds</w>
200 6</w>
regul ators</w>
ju dic
gre en</w>
el ing</w>
affor d</w>
Janu ary</w>
suff er</w>
jo in</w>
ex tra
est ate</w>
ei j
P P</w>
tro ops</w>
per cei
ex erci
deci sion-
V ie
I reland</w>
A d
. .
territ ory</w>
particip ation</w>
op tions</w>
implic ations</w>
adjust ment</w>
Re public</w>
19 3
pro ved</w>
popul ations</w>
en em
rest ore</w>
ren cy</w>
fir e</w>
Ch ris
he art</w>
chan ne
on line</w>
kill ed</w>
every where</w>
cyc le</w>
viol ent</w>
stre am</w>
regim es</w>
propos al</w>
our s</w>
mid -
inten ded</w>
implement ed</w>
fe ars</w>
e ds</w>
cap e</w>
neigh bor
less on</w>
inclu sive</w>
imp lies</w>
ad d</w>
E x
im balances</w>
gre en
easi er</w>
ast ro
a wa
Venezu ela</w>
T ha
N ig
sou thern</w>
ph il
obli g
is tic</w>
h on
ag ement</w>
V ladi
O c
se tting</w>
mo tiv
lab or-
beli ef</w>
ty pe</w>
tw enti
deci ded</w>
z es</w>
ti tu
streng th</w>
prote sts</w>
parli ament
Vie tn
pro v
nation alist</w>
amoun ts</w>
201 7</w>
th ers</w>
re struc
im migrants</w>
depend ent</w>
S ch
me ly</w>
fa st</w>
th an
pris es</w>
ec h
ac a
In d
z y</w>
olu tionary</w>
num bers</w>
iz ing</w>
in str
fre e-
b ond</w>
A S
sp here</w>
shar ply</w>
il ed</w>
dra w</w>
con ference</w>
c k</w>
Vladi mir</w>
vot ed</w>
strength ening</w>
st op
shar p</w>
ren ts</w>
refuge e</w>
n ers</w>
perspec tive</w>
enter prises</w>
B ro
emplo ye
degre e</w>
c ot
aff airs</w>
Ind one
B eij
we alth
rul ing</w>
mechan isms</w>
inev itable</w>
defin ed</w>
pre pared</w>
inv es
bor n</w>
will ing
tru ly</w>
to m</w>
spec ul
resi li
mi tig
intellec tual</w>
in ce</w>
hol ding</w>
he avi
determin ed</w>
canc er</w>
T reasury</w>
willing ness</w>
vir tually</w>
vi sit</w>
s kep
m ur
aff ect</w>
T ai
um ul
pati ents</w>
objec tives</w>
cu tting</w>
ne y</w>
i shed</w>
corpor ations</w>
am es</w>
acc umul
t al</w>
go ld</w>
gir ls</w>
b it</w>
S we
inves tig
dri ving</w>
I S
sh es</w>
exp end
defa ult</w>
continu ing</w>
te le
se ven</w>
under lying</w>
typ ically</w>
Isra eli
Beij ing</w>
star ting</w>
st ance</w>
pursu ing</w>
lear ned</w>
langu age</w>
at tr
expend it
econom ically</w>
declin ing</w>
burea ucr
- scale</w>
tal k</w>
maintain ing</w>
grow n</w>
dynam ic</w>
develop ments</w>
ser i
in sul
hop es</w>
eng age</w>
constitu tional</w>
S ar
re sid
pa ying</w>
net works</w>
constitu tion</w>
co al</w>
cat astro
sub sequ
eli tes</w>
deb ts</w>
d ged</w>
mo vements</w>
immedi ately</w>
comp on
br inging</w>
s atis
res olution</w>
pp ing</w>
bl ame</w>
y es</w>
stitu te</w>
refl ected</w>
plan ning</w>
less ons</w>
cri tics</w>
- up</w>
o t</w>
fron t</w>
w on
mon it
aggre gate</w>
vic tim
stu dies</w>
sen ior</w>
op ponents</w>
Ira q
under p
ent y-
author itarian</w>
G- 20</w>
st or
sec ular</w>
press ing</w>
per su
li fe
lear ning</w>
in d
f low</w>
emb ly</w>
desi re</w>
ad s</w>
a ver
F re
sur p
regar dless</w>
mob ili
credi ble</w>
ca using</w>
Islam ist</w>
expan ding</w>
believ ed</w>
Turk ish</w>
Tai w
sust ain</w>
sch em
comb ination</w>
physi cal</w>
claim ed</w>
at ures</w>
prosp ect</w>
nati ons</w>
an g</w>
a sion</w>
CO 2</w>
t emp
sup porting</w>
produc ers</w>
poore st</w>
fig ure</w>
th y</w>
resol ve</w>
le y</w>
dro p</w>
di versity</w>
Oc to
. 5</w>
t on
promis ing</w>
olo gical</w>
objec tive</w>
fuel ed</w>
e ded</w>
descri bed</w>
Octo ber</w>
te ach
parli ament</w>
loo ks</w>
g ing-
g ender</w>
ex plan
con ven
c lu
bank rup
ar ri
Vietn am</w>
uri ties</w>
st ac
inter pre
health y</w>
W .</w>
Par li
re ments</w>
peace ful</w>
it ation</w>
ev ol
ev ent</w>
de vast
Sun ni</w>
r a</w>
invest ing</w>
fav or
d ent</w>
publi shed</w>
propos als</w>
pla ying</w>
g or
control led</w>
R ic
ren tly</w>
parliament ary</w>
off ers</w>
qu ali
necess arily</w>
nar r
mist ake</w>
heavi ly</w>
determin e</w>
depend ence</w>
alo gue</w>
w er</w>
promot ing</w>
er t</w>
deep er</w>
op ening</w>
sha pe</w>
s li
pu tting</w>
l er</w>
ga ve</w>
de preci
K ong</w>
tri g
know s</w>
guaran tee</w>
graph ic</w>
su rely</w>
per sist
er b
de struction</w>
concer ned</w>
aliz ing</w>
I V</w>
C or
C ar
star ters</w>
defl ation</w>
t ability</w>
re sc
e ight</w>
as sume</w>
w is
rese arch
repres ents</w>
mechan ism</w>
emer ging-
car ry</w>
c ent</w>
appa rent</w>
occur red</w>
exac erb
establi shing</w>
coll abor
gain ing</w>
ac u
Can ada</w>
tion ally</w>
sol ve</w>
re comm
quanti tative</w>
obser vers</w>
j i
deci de</w>
ac ts</w>
B r
transpa rency</w>
lo sing</w>
imag ine</w>
gener ations</w>
employ ed</w>
c row
T o
Comm unist</w>
9 0</w>
wor ry</w>
te am</w>
Indone sia</w>
mon o
b les</w>
tem porary</w>
techn ical</w>
t- wing</w>
ro bust</w>
pers on
minist ers</w>
disp lac
Parli ament</w>
Ne t
ta il</w>
s en</w>
ob stac
mo di
P i
Go vern
transf er</w>
ch es</w>
ver ing</w>
ser ving</w>
sel l</w>
nor thern</w>
lead s</w>
ili ties</w>
divi ded</w>
conn ected</w>
Australi a</w>
fa ir
exac tly</w>
ex tr
ess entially</w>
as y
af ter
ac ting</w>
B al
200 4</w>
on ing</w>
mater i
a ys</w>
a di
equi valent</w>
dram atically</w>
dis ci
an g
a im</w>
T ran
Je wish</w>
B R
tar y-
lif eration</w>
ex it</w>
oper ation</w>
ell or</w>
dis crimin
def end</w>
co -
A pri
tol er
st er
resp ec
il -
use ful</w>
re ci
cho ices</w>
be ar</w>
D S</w>
seri ously</w>
gain ed</w>
f em
cro ss-
co he
ch ief</w>
ap ore</w>
Sing apore</w>
F e
Apri l</w>
produc t</w>
ex cess</w>
diffic ul
de -
P l
re pu
pos sibly</w>
partn er</w>
m em
legitim ate</w>
ig n
der i
decision- making</w>
adop t</w>
Nig er
1 4</w>
tan e
re ported</w>
pur pose</w>
issu ed</w>
bo ard</w>
H ung
B e
victim s</w>
psy cho
disci pl
cour t</w>
bub ble</w>
5 -
ve h
tr ack</w>
st ers</w>
pos ing</w>
innov ative</w>
im per
fo ot
M ad
Geor gi
versi ties</w>
territ orial</w>
s la
restruc turing</w>
reli ef</w>
men tion</w>
encoura ging</w>
ag no
accep ted</w>
B as
p es
mp ;</w>
discus sion</w>
A l</w>
&a mp;</w>
tax pay
t ack
stre ss</w>
min ority</w>
eng agement</w>
Mo di</w>
uri es</w>
um -
than ks</w>
oppos ite</w>
m ir
liber alization</w>
ie ld</w>
fe wer</w>
entreprene ur
G s</w>
uni que</w>
sum mer</w>
st e</w>
pre viously</w>
nu tri
m ar</w>
l y
defe at</w>
ar m</w>
Palest ine</w>
Col om
pri mar
me ant</w>
Fin an
200 3</w>
journ alists</w>
demonstr ated</w>
P or
sustain ability</w>
process es</w>
priv ate-
peri ph
il ing</w>
eli te</w>
desig n</w>
S um
C u
tre at</w>
sur prise</w>
lo g
human itarian</w>
ad vis
D ef
AS EA
uni versities</w>
twenti eth</w>
g en</w>
arrang ements</w>
ann ually</w>
addre ssed</w>
we ight</w>
sib ilities</w>
s we
pollu tion</w>
moder ni
ex ist</w>
employe es</w>
and a</w>
sig ns</w>
requi rements</w>
prev ail
pla yers</w>
jo int</w>
fail ing</w>
contribu ted</w>
c k
pl ying</w>
hal f-
cap able</w>
to cr
show ed</w>
repres ent</w>
ren ce</w>
m il
com promise</w>
ad o
Shi a</w>
A ug
occu r</w>
igh ts</w>
happ ens</w>
fri ends</w>
dram atic</w>
cri mes</w>
T ali
we st</w>
usu al</w>
stag nation</w>
purcha ses</w>
or ship</w>
k in
inclu ded</w>
high ligh
har d
be gun</w>
app lic
re min
prof it</w>
pres ence</w>
lin ked</w>
deb t-
d ar
chan ge-
5 00</w>
0 0,000</w>
tw enty-
tem per
ma li
integr ated</w>
di ver
consist ent</w>
ambi tious</w>
ASEA N</w>
ur gent</w>
struc tures</w>
si ght</w>
r ational</w>
ic k</w>
cont ent</w>
b illions</w>
at titu
an i
ul f</w>
targe ted</w>
surp rising</w>
ho st</w>
ho sp
e ding</w>
a h</w>
He alth</w>
pen sion</w>
h ours</w>
an ge</w>
Taiw an</w>
Ban g
ru s</w>
mean ing</w>
g al</w>
fig ures</w>
ent al</w>
d ouble</w>
H o
remain ing</w>
emer gence</w>
di agno
M c
A t
under stood</w>
legis l
in adequate</w>
educ ated</w>
dis h</w>
Pe ople</w>
volati lity</w>
produc ing</w>
large -scale</w>
ha m
f al
e ty</w>
dist inc
ch ron
Itali an</w>
C ri
un de
percei ved</w>
pass ed</w>
fru str
constra ints</w>
clo sely</w>
ac compan
ten ing</w>
s ex
introduc ed</w>
M ed
we a
tr oub
extre mely</w>
ap s</w>
Tali ban</w>
L a
20 30</w>
tr ouble</w>
shoc ks</w>
sha re
sel s</w>
pri orities</w>
emerging- market</w>
emb race</w>
No bel</w>
De pression</w>
C lim
to wards</w>
s ac
pre me</w>
gres sional</w>
g l
ex change-
es sions</w>
di alogue</w>
w o
un sustainable</w>
st atis
sim ul
protec ting</w>
balan ced</w>
Aug ust</w>
sa ys</w>
desp er
conclu ded</w>
call ing</w>
T PP</w>
Com mit
ro l
patter n</w>
moder ate</w>
in ated</w>
en ty</w>
cle an</w>
W e
man date</w>
Br us
over -
ill s</w>
gradu ally</w>
enab led</w>
emer ge</w>
an t
ac cur
S ou
1 8</w>
ment -
ing u
human s</w>
genu ine</w>
e m</w>
domin ated</w>
bot tom</w>
N az
M on
B i
sett lement</w>
remark able</w>
r ying</w>
p aper</w>
ma xim
kep t</w>
histor ic</w>
heav y</w>
de tail
boo sting</w>
b ill</w>
ation ary</w>
Ph ili
re ports</w>
leg acy</w>
fi f
res ource</w>
ho sti
el ls</w>
co stly</w>
St re
Q E</w>
Par tn
survi val</w>
sc ope</w>
sc ar
reason able</w>
ko zy</w>
critici sm</w>
Brus sels</w>
Ber lin</w>
veh ic
tra di
threat ened</w>
solid arity</w>
restric tions</w>
mit ted</w>
laun ch</w>
implement ation</w>
identi fy</w>
Sar kozy</w>
Commit tee</w>
terror ists</w>
su ffered</w>
pa in
inten si
ate dly</w>
ag gressive</w>
religi on</w>
recogni tion</w>
exchange- rate</w>
ce le
ati on-
R ec
O EC
Ch anc
vot es</w>
uc k</w>
th o
n an
f il
es cal
appe ared</w>
Finan cial</w>
Chanc ellor</w>
n on
il lu
human ity</w>
y outh</w>
wel come</w>
undermin ing</w>
qu o</w>
exp lic
approach es</w>
OEC D</w>
wa ve</w>
tari an</w>
pu shing</w>
lo gy</w>
empha si
educ ational</w>
do w</w>
batt le</w>
research ers</w>
re al-
negoti ating</w>
incenti ve</w>
L ab
1 7</w>
li ter
ideolo gical</w>
f la
T i
Clim ate</w>
it ably</w>
gre w</w>
che ap</w>
cap abilities</w>
M y
G ulf</w>
y er</w>
ten ed</w>
st ake</w>
so f
i on</w>
glob ally</w>
elimin ate</w>
Wh ite</w>
Rus sians</w>
pu ts</w>
per cep
p h</w>
cl assi
1 3</w>
- based</w>
trans actions</w>
t ant</w>
pro p
co ver</w>
b ab
an ticip
I S</w>
C ali
shoc k</w>
p uni
on ic</w>
i or
de pos
col on
accep table</w>
rel uc
pre dec
predec ess
pl ed</w>
it y-
en om
ad ays</w>
Pak ist
perf ect</w>
ori ented</w>
nor ms</w>
fin ding</w>
D avi
ro te</w>
ra dic
op posed</w>
mom ent
four th</w>
fa ith</w>
dec lar
Q a
J in
Con stitu
te sts</w>
re place</w>
har m</w>
es n</w>
abs or
y ield</w>
to w
some one</w>
risk y</w>
pu shed</w>
plan ts</w>
phil os
institu tion</w>
fossi l</w>
do esn</w>
confron t</w>
c s</w>
ad ed</w>
3 5</w>
regar ded</w>
re vers
r s</w>
ne ar-
h m
compe te</w>
char ge</w>
par tment</w>
pa rents</w>
mean ing
cent uries</w>
ah u</w>
20 20</w>
threat ening</w>
t ell</w>
t ap
prof ound</w>
W all</w>
Partn ership</w>
Net any
Eng land</w>
weak ness</w>
re sist
car ried</w>
Je ws</w>
us ers</w>
stri ke</w>
private- sector</w>
p as
emb rac
acqu i
Qa ed
Netany ahu</w>
H IV</w>
Ch ar
199 0s</w>
19 5
tec h</w>
re jected</w>
pro hi
pres sures</w>
net work</w>
mode st</w>
ig no
Cali for
ser ies</w>
re serve</w>
contrac ts</w>
civili an</w>
ar g
the ast</w>
sig n
sec urities</w>
ra g
prev enting</w>
new sp
lo gic</w>
inten sive</w>
in sist
hom es</w>
excep tion</w>
T im
J ord
s ity</w>
repe atedly</w>
now adays</w>
gre at
func tion</w>
end ers</w>
dest abili
d a</w>
Niger ia</w>
oper ating</w>
om s</w>
mis m</w>
ap ply</w>
ali g
Ch ile</w>
withdraw al</w>
manag ing</w>
ma y
ex posed</w>
deter ior
w rote</w>
subsi di
s enti
n ine
f e</w>
an x
ear nings</w>
dist or
di e</w>
de sh</w>
B ur
197 0</w>
valu able</w>
transf ers</w>
surpris ingly</w>
populi sm</w>
m icro
comple tely</w>
attrac tive</w>
advan ces</w>
a ks</w>
ve st
primar ily</w>
ph enom
phenom en
dep loy
an ni
Y em
Fe bru
wor d</w>
ton om
sugge sted</w>
spe ak</w>
el t
con dem
cir c
ass es</w>
accoun ting</w>
H a
simul tane
negoti ate</w>
f ate</w>
concep t</w>
clo sed</w>
am s</w>
a side</w>
R ob
stat ement</w>
marke t-
il e
emb ar
au tonom
Davi d</w>
AI DS</w>
wom an</w>
t ough</w>
st ay</w>
senti ment</w>
re alize</w>
pol ls</w>
own ership</w>
min ent</w>
le ver
ir man</w>
ign ore</w>
er up
bankrup t
Febru ary</w>
Ass embly</w>
&apos ;</w>
substanti ally</w>
sen si
pres sive</w>
of -
nine teen
li e</w>
lat ter</w>
j e
de als</w>
bor row</w>
au l</w>
A gre
survi ve</w>
predic table</w>
p ru
ob viously</w>
le f
im port</w>
finan ced</w>
conduc ted</w>
ali ties</w>
accompan ied</w>
a str
Sen ate</w>
C E
Ac t</w>
20 0</w>
th ri
state- owned</w>
sol ar</w>
m ere</w>
eng aged</w>
em i
effec tiveness</w>
dict at
cont em
allow s</w>
Qaed a</w>
Ger man
taxpay ers</w>
skill ed</w>
pro secu
mal aria</w>
lo gical</w>
exp ense</w>
cri me</w>
balan cing</w>
Por tu
strong ly</w>
sal es</w>
o g
fac ts</w>
explan ation</w>
ac compli
S cot
P aul</w>
risk -
pos s
oper ate</w>
not ably</w>
human -
head s</w>
deli vered</w>
a i</w>
Georgi a</w>
un c
ul ts</w>
speci fic
off set</w>
ne u
lin k</w>
l a</w>
i er</w>
fa ther</w>
f elt</w>
emer gency</w>
comp la
Califor nia</w>
pro liferation</w>
prac tical</w>
nat ur
intere st-
fail ures</w>
deli ber
appe al</w>
war ned</w>
mob ile</w>
lear -
implement ing</w>
har der</w>
er ous</w>
ed ly</w>
di mini
ali ke</w>
wa it</w>
re verse</w>
pay ment</w>
innov ations</w>
initi al</w>
arti fic
.. .</w>
s ort</w>
il legal</w>
attemp ts</w>
appreci ation</w>
wi der</w>
t ty</w>
s an
reli able</w>
pack age</w>
ou ts</w>
om ing</w>
inter nation
bud gets</w>
spec ies</w>
reali stic</w>
gene tic</w>
e lements</w>
dispu tes</w>
sym bo
oblig ations</w>
minim um</w>
medi um-
g ment</w>
expan ded</w>
bu ying</w>
N ic
Def ense</w>
4 .
1. 5</w>
tic le</w>
se a</w>
renew able</w>
per pe
ideolo gy</w>
fund ed</w>
Phili pp
wealth y</w>
weak er</w>
ver sion</w>
v o</w>
smar t</w>
narr ative</w>
multi -
mo il</w>
mater ial</w>
im peri
ig nor
ac knowle
Swe den</w>
Iraq i</w>
weak en</w>
supp lies</w>
rele ased</w>
oc ca
main stream</w>
li cal</w>
g ro
form ul
enab ling</w>
de vi
S pr
sur ge</w>
organiz ed</w>
off ering</w>
fall s</w>
dis mis
da ily</w>
c lin
W TO</w>
Su preme</w>
vi able</w>
subsequ ent</w>
sol di
igh t
ac tual</w>
ab les</w>
Agre ement</w>
frag ile</w>
d il
coun ter</w>
coun t</w>
cha mp
a po
und oub
tur moil</w>
ro ads</w>
e u
domin ant</w>
cross- border</w>
condi tion</w>
appro val</w>
an ism</w>
1 6</w>
w ind</w>
th u
mat h</w>
inv asion</w>
hel ps</w>
func tioning</w>
attr act</w>
ad ver
abs olu
T B</w>
un certain</w>
ter ror</w>
se arch</w>
public ly</w>
nuc lear-
inf lows</w>
convinc ed</w>
an ger</w>
tre ated</w>
rec k
n ity</w>
manag ers</w>
inev itably</w>
f er</w>
engine ering</w>
discus sions</w>
coordin ation</w>
contribu tions</w>
vot ing</w>
vest ment</w>
v an
read ing</w>
k a</w>
gr ounds</w>
gener ated</w>
g em
fer ti
exam ples</w>
di ff
D o
v ity</w>
tion ed</w>
kill ing</w>
h ance</w>
govern mental</w>
fir st-
en for
bo ld</w>
undoub tedly</w>
t le</w>
spe ed</w>
one- third</w>
new ly</w>
ex emp
cre ates</w>
counter parts</w>
b y
ag er</w>
ot ed</w>
ne ver
le n</w>
in -
h ome
F T
ro se</w>
nom inal</w>
ne sses</w>
en hance</w>
c o</w>
b -
Mo sco
H oll
B el
interven tions</w>
interest- rate</w>
execu tive</w>
devast ating</w>
d ow
ce an</w>
ba rely</w>
arg uments</w>
accoun tability</w>
Bang la
v ill
threat en</w>
slow ly</w>
lea ves</w>
happ y</w>
ez bol
con tain</w>
H ezbol
Cam er
wa ke</w>
rul ed</w>
k o</w>
end or
b loo
Mosco w</w>
Camer on</w>
transp ort</w>
resol ved</w>
p al</w>
mar ked</w>
loo ked</w>
es cape</w>
broad ly</w>
b ran
Stre et</w>
So cial</w>
t ance</w>
ra rely</w>
r i</w>
purcha se</w>
profes sional</w>
pro gressive</w>
jo ined</w>
flexi bility</w>
financi al-
declin ed</w>
cha ins</w>
bub bles</w>
app lied</w>
advant ages</w>
T uni
R i
O s</w>
success fully</w>
soci al-
quar ters</w>
plac ed</w>
fundament ally</w>
d ness</w>
Chris tian</w>
A R
ph arm
mu tual</w>
missi le</w>
gi ves</w>
fri end
demo graphic</w>
contribu tion</w>
co verage</w>
aw are</w>
at mo
vol un
seem ingly</w>
s an</w>
res tim
fem ale</w>
di o
Hezbol lah</w>
Colom bia</w>
protection ism</w>
particip ants</w>
facili ties</w>
au tocr
S te
Israeli s</w>
- led</w>
um b
tele vision</w>
sy n
ref used</w>
moment um</w>
measu red</w>
go t</w>
deci sive</w>
conclu sion</w>
bir th</w>
we red</w>
val uation</w>
tra ge
she et</w>
pre mi
n es</w>
don ors</w>
bankrupt cy</w>
ar re
and -
al u
al ty</w>
ag an</w>
surpl uses</w>
su red</w>
populi sts</w>
appa rently</w>
ag ues</w>
yi elds</w>
vers ary</w>
ste el</w>
shif ting</w>
poin ted</w>
po lar
h i</w>
flexi ble</w>
cy ber</w>
cha in</w>
Pl an</w>
Jord an</w>
In stitute</w>
A s
under stand
system ic</w>
ri d</w>
r ation
di verse</w>
Sa har
De partment</w>
2 2</w>
weak ened</w>
tw ice</w>
sp ur
initi ally</w>
gu ard</w>
encoura ged</w>
bail out</w>
at tribu
ambi tions</w>
Ukra ini
R a
Hung ary</w>
vari ety</w>
sur r
st ories</w>
s oph
righ t-wing</w>
re p
g ot
cyc lical</w>
crimin al</w>
H u
strugg ling</w>
row n</w>
re stra
re action</w>
it es</w>
head ed</w>
far- reaching</w>
P r
IS IS</w>
198 0s</w>
re turned</w>
olo gy</w>
he gem
defin i
custom ers</w>
Ken ya</w>
war ning</w>
ron t</w>
replac ed</w>
re jec
ou d</w>
nar row</w>
fur ther
ful l-
facilit ate</w>
compe t
cent ers</w>
b in
Yem en</w>
B u
thir ds</w>
success or</w>
pursu ed</w>
mo bility</w>
inf ec
further more</w>
ex pressed</w>
eth ical</w>
er r
displac ed</w>
demonstr ate</w>
corrup t</w>
be t</w>
adjust ed</w>
aca demic</w>
S pan
3 ;</w>
200 2</w>
1 ;</w>
&#9 3;</w>
&#9 1;</w>
sa ying</w>
reve aled</w>
patter ns</w>
exten d</w>
contra dic
con sul
bloc k</w>
S in
P o
M ic
2 4</w>
w il
ter -
renew ed</w>
p rag
is tic
S al
F u
sel ling</w>
relation ships</w>
n ine</w>
g g
exerci se</w>
comm unist</w>
tax ation</w>
soph istic
s in</w>
re be
presid ents</w>
predic t</w>
own ers</w>
ol der</w>
deman ding</w>
s lu
pre par
periph ery</w>
partn ership</w>
ke ts</w>
ill ing</w>
b es</w>
b a</w>
ag gres
wh ite</w>
weak ening</w>
soldi ers</w>
pro test</w>
plat form</w>
middle- income</w>
l ash</w>
foreign- policy</w>
foc using</w>
ec o
ag u
S ust
Philipp ines</w>
Pakist ani</w>
Ne ther
201 8</w>
sion ary</w>
re rs</w>
pl enty</w>
ha r</w>
exten ded</w>
ad or</w>
Sust ain
Portu gal</w>
Nether lands</w>
v ent
specific ally</w>
regar ding</w>
rais es</w>
ill ed</w>
he ar
frequ ently</w>
chron ic</w>
an a</w>
At lantic</w>
provi sion</w>
policy making</w>
multi ple</w>
l ec
foreign- exchange</w>
exper im
en -
concer ning</w>
chem ical</w>
ap art</w>
sup pos
share holders</w>
reti rement</w>
respon ses</w>
occup ation</w>
gi ble</w>
cou p</w>
correc t</w>
comm is
big ger</w>
Spr ing</w>
Go als</w>
Ang ela</w>
wis dom</w>
tri al</w>
suppos edly</w>
stat ements</w>
s ligh
re view</w>
instr uments</w>
impro vement</w>
do z
divi de</w>
- year</w>
wel l
transpa rent</w>
tin y</w>
ide al</w>
excep t</w>
dis coura
destro y</w>
c ars</w>
J er
writ ten</w>
sp on
resul ted</w>
op ened</w>
never theless</w>
migr ant</w>
l acks</w>
il s</w>
fa shi
ch i
b lam
asp ir
Y u
Jin ping</w>
A le
w inning</w>
vi sible</w>
twenty- first</w>
tra vel</w>
ri fic
li ved</w>
k -
fix ed</w>
di versi
dam aging</w>
cre te</w>
c li
ar di
al leg
Key nes</w>
Key ne
In vestment</w>
H um
F i
A g
simultane ously</w>
si x
sh owing</w>
plat forms</w>
pha se</w>
parti san</w>
k new</w>
el low</w>
do cum
den ly</w>
de pression</w>
cour ts</w>
ch -
capit al-
b lu
F ace
sud denly</w>
secon d
pain ful</w>
nutri tion</w>
la sting</w>
bo dies</w>
advoc ates</w>
ong -
identi fied</w>
boo ks</w>
ac commod
Rob ert</w>
N A</w>
J usti
B O
vol um
she ets</w>
ill en
happ ening</w>
er ships</w>
entrepreneur s</w>
dre am</w>
dist ingu
dis appoin
conduc t</w>
b le
att ac
Har v
Face book</w>
Egyp tian</w>
wa ste</w>
un g</w>
two- thirds</w>
stop ped</w>
sac rific
pat ri
e astern</w>
compu ter</w>
b adly</w>
ace u
Go og
E s</w>
un ited</w>
ta lity</w>
st ated</w>
reli ance</w>
on er</w>
deb ates</w>
aband on</w>
ab use</w>
7 -
2 1</w>
rul ers</w>
long er-
long ed</w>
im age</w>
ep i
down turn</w>
assess ment</w>
an ci
alternati ves</w>
ad vice</w>
Re agan</w>
O s
tra -
stag n
so le
shif ts</w>
s outh</w>
mo ves</w>
mist akes</w>
do or</w>
cap ture</w>
acceler ate</w>
Bangla desh</w>
2 8</w>
x ed</w>
tal ent</w>
su n
propor tion
pro ven</w>
pe ak</w>
p it
invest ed</w>
gui de</w>
g ering</w>
for d</w>
c op
ad verse</w>
Ko so
po ly</w>
pl ant</w>
n it
kin ds</w>
guarante es</w>
char ges</w>
argu es</w>
after math</w>
S ta
P en
Mal ay
s i</w>
rou t
resili ence</w>
qu i
particip ate</w>
meth ods</w>
materi als</w>
de aling</w>
consolid ation</w>
complic ated</w>
care fully</w>
benef ited</w>
believ es</w>
So ci
Harv ard</w>
Goog le</w>
y o</w>
ur ban
tri gge
trigge red</w>
sex ual</w>
ri t</w>
proper ly</w>
im posing</w>
g ently</w>
frag ment
de ad</w>
consequ ence</w>
compens ation</w>
character ized</w>
ati zation</w>
Y e
uni versity</w>
transp or
trans form</w>
run s</w>
pro mp
meaning ful</w>
lim iting</w>
histor ically</w>
got ten</w>
g y-
g ically</w>
down ward</w>
colle agues</w>
b lack</w>
b as</w>
U N
Sustain able</w>
SD Gs</w>
L u
Con serv
C i
struc tive</w>
some what</w>
plan ned</w>
orig inal</w>
maintain ed</w>
k y</w>
ine ly</w>
imper ative</w>
il and</w>
er ad
dispu te</w>
discrimin ation</w>
compon ent</w>
borrow ers</w>
S ud
198 9</w>
z z
vacc ines</w>
t y-
sh rin
ris h</w>
rev olutionary</w>
resc ue</w>
pre fer
m un
govern ing</w>
ever -
wor ried</w>
thre e-
st ant</w>
st af
s end</w>
ha b
direc ted</w>
comm ent
challeng ing</w>
cha os</w>
a sts</w>
German s</w>
A s</w>
wea ther</w>
to ol</w>
staf f</w>
sha res</w>
sch ol
pres ent
justi fy</w>
ey es</w>
extr a</w>
ac ci
R ights</w>
G row
G en
B la
x on</w>
un conventional</w>
u t</w>
te sted</w>
prosp erous</w>
priv ile
phenomen on</w>
pharm aceu
open ha
min orities</w>
impro vements</w>
im pressive</w>
e ing</w>
di str
depreci ation</w>
de la
confron tation</w>
comb at</w>
assum ed</w>
ar bit
ad y</w>
T e
2. 5</w>
ultim ate</w>
tra dition</w>
stre ets</w>
respon sibilities</w>
protec ted</w>
propor tion</w>
gener ating</w>
found ation</w>
favor able</w>
consist ently</w>
c ar</w>
attemp ting</w>
Span ish</w>
For um</w>
ther hood</w>
t ings</w>
neighbor ing</w>
neg l
mat ch</w>
li ve
fuel ing</w>
free- trade</w>
equi pment</w>
el led</w>
el ed</w>
e ase</w>
aim s</w>
Ken ne
C openha
A gency</w>
uni ons</w>
threat ens</w>
th ro
suc c
strength ened</w>
stimul ate</w>
second ary</w>
represent atives</w>
pro per</w>
open ness</w>
occu pi
li st
ir s</w>
indic ators</w>
hun ger</w>
he ard</w>
fal se</w>
fail s</w>
consider ably</w>
bre aking</w>
ye ar-
wi d
trig ger</w>
pre fer</w>
negoti ated</w>
less ly</w>
erad ic
enfor cement</w>
discipl ine</w>
d ents</w>
con crete</w>
br ings</w>
blo od</w>
asy lu
ari ties</w>
Fo reign</w>
E ner
Copenha gen</w>
8 -
vehic les</w>
undermin ed</w>
partn erships</w>
overwhel ming</w>
obstac les</w>
min ds</w>
inde x</w>
inclu sion</w>
igno red</w>
gui ded</w>
counter -
ap ers</w>
Tuni sia</w>
Mu bar
ve z</w>
ti sm</w>
surve y</w>
stri kes</w>
roo t</w>
predic ted</w>
n ur
ill ance</w>
di men
civili ans</w>
affor dable</w>
Koso vo</w>
typ es</w>
thu si
t ter</w>
succe eded</w>
recogni zing</w>
ra ble</w>
mono poly</w>
domin ance</w>
defin e</w>
contro versi
bra in</w>
atmo sphere</w>
S i
Justi ce</w>
E th
7 5</w>
vo ice</w>
t a</w>
respon ded</w>
purcha sing</w>
nu mer
it ly</w>
f r
doc tors</w>
c enter
bru tal</w>
an ia</w>
Sahar an</w>
Au stri
won der</w>
se as</w>
ld n</w>
g ar
enjo y</w>
en thusi
em be
arch it
Poli sh</w>
Ch ur
tri ght</w>
sc and
s tic
repres ented</w>
prop ag
pla u
ou tright</w>
man ner</w>
gr y</w>
fo li
b lin
S tr
BR IC
work force</w>
scri p
ro oted</w>
not ed</w>
le ts</w>
in duc
ho ods</w>
Tha iland</w>
N i
C D
vi gor
su m</w>
secon d-
resid ents</w>
persist ent</w>
mortg age</w>
ly mp
fam ous</w>
extra ordinary</w>
er red</w>
did n</w>
con gressional</w>
F ri
2 7</w>
1 6
surve illance</w>
sub -
su ffici
sophistic ated</w>
schem e</w>
par ado
enti t
anx ie
anni versary</w>
all ed</w>
acc ord
E ar
C ity</w>
ti er</w>
low- income</w>
in formal</w>
experien cing</w>
er ly</w>
draw n</w>
clim ate-
b all</w>
an mar</w>
acc used</w>
My anmar</w>
M il
trans formed</w>
secre t</w>
pres ented</w>
ow ed</w>
mo tion</w>
insi st</w>
ha z
ha i</w>
gra de</w>
enem ies</w>
d ur
d ges</w>
d ated</w>
all s</w>
P u
Grow th</w>
FT A</w>
Bla ir</w>
separ ate</w>
righ tly</w>
no tion</w>
mul tin
great ly</w>
g am
fi elds</w>
e an</w>
cre ative</w>
cr iter
consid ering</w>
3 00</w>
ten s</w>
se ve
respon ding</w>
re member</w>
pre serve</w>
port foli
loc k</w>
el ine</w>
add am</w>
S addam</w>
K ha
to x
targe ting</w>
par alle
mee tings</w>
longer- term</w>
g ement</w>
activi sts</w>
P ow
Mubar ak</w>
Ch ange</w>
B ill</w>
rec over</w>
insul a</w>
contr act</w>
avoi ding</w>
artific ial</w>
adap t</w>
Q at
N G
z a</w>
spi rit</w>
sligh tly</w>
sit es</w>
resi st</w>
per si
op pose</w>
m end
ji ha
feren ces</w>
ear n</w>
de par
C C
stoc ks</w>
sp ring</w>
seve rely</w>
real- estate</w>
ran ean</w>
ph one</w>
medic ine</w>
expendit ures</w>
ex porters</w>
enhan cing</w>
doc tr
collap sed</w>
as sa
Cu ba</w>
C z
19 60</w>
tari ff</w>
tain ed</w>
i ans</w>
exist ence</w>
employ ers</w>
con cei
S han
S O
Eng li
Ener gy</w>
19 30</w>
tigh tening</w>
ter ri
pl um
philos oph
occupi ed</w>
empha sis</w>
Poli cy</w>
D ra
20 50</w>
tor ies</w>
tack le</w>
repres sion</w>
po is
intere sted</w>
com fort
claim ing</w>
ch er</w>
aff ir
Sud an</w>
vic es</w>
ti ans</w>
statis tics</w>
sen sible</w>
s at
poore r</w>
po or
mis sing</w>
lin ks</w>
dil em
avoi ded</w>
as sumption</w>
Bro therhood</w>
sy mp
per forming</w>
p are</w>
me tri
me a</w>
fossi l-
comm it</w>
cle an
c ate
c ast</w>
analy sts</w>
ail s</w>
C I
2 3</w>
2 -
199 9</w>
ud d
tho do
slow ing</w>
ris en</w>
re ver
re tain</w>
re form
estim ate</w>
con vic
communic ation</w>
al be
ad ing</w>
O lymp
w al
sk ill</w>
on to</w>
manipul ation</w>
m ists</w>
ffic e</w>
ent ered</w>
enem y</w>
dan gers</w>
d d
Cri mea</w>
tri als</w>
pro longed</w>
poor ly</w>
ma p</w>
is land</w>
in sufficient</w>
id able</w>
bac king</w>
appro ved</w>
anti bio
D ut
y n
techno cr
or ts</w>
iter ranean</w>
is o
fo ld</w>
f it</w>
ex pl
destro yed</w>
depos its</w>
con sci
compar is
ci li
catastro ph
Med iterranean</w>
Ber ke
ti se</w>
s lower</w>
s ers</w>
prof ess
pris on</w>
pre pare</w>
l ag
invol vement</w>
invol ve</w>
care ful</w>
ater alism</w>
Pe ace</w>
Lab our</w>
Berke ley</w>
5 .
1 9</w>
sp ur</w>
ris es</w>
percep tion</w>
k i</w>
extre mists</w>
coordin ated</w>
comp elling</w>
cele br
cau ght</w>
bro ken</w>
To k
Kur dish</w>
D ar
ur gently</w>
un employed</w>
regul ated</w>
reduc tions</w>
provi sions</w>
our selves</w>
motiv ated</w>
in her
enthusi as
com man
ag ency</w>
acti vely</w>
vacc ine</w>
ust ed</w>
sud den</w>
p ass</w>
invol ving</w>
in spi
id ance</w>
dro pped</w>
chil d
as c
Dut ch</w>
well being</w>
te sting</w>
see ing</w>
r at
moun ting</w>
marg in
gran ted</w>
exper tise</w>
c ab
af i</w>
W o
Shan g
S om
S il
Malay sia</w>
I t</w>
H it
E m
sensi tive</w>
requ iring</w>
ra y</w>
protection ist</w>
pic ture</w>
o ci
nar row
je op
conven i
accoun table</w>
ac knowledge</w>
G rou
st al
re conc
on gest</w>
min ded</w>
friend ly</w>
fe eling</w>
den om
dem ics</w>
commun ism</w>
balan ce-
Bas har</w>
A I</w>
us al
tri b
so ld</w>
pro vo
pati ent</w>
nor mali
k ill</w>
isol ation</w>
influ ential</w>
e i</w>
contribu ting</w>
back lash</w>
all -
Jer usal
x y</w>
ste red</w>
se ats</w>
rali zed</w>
mach ines</w>
ko v
illen ni
determin ation</w>
Jerusal em</w>
Con ference</w>
res ort</w>
re balancing</w>
labor- market</w>
k il
in side</w>
hum ili
fe atures</w>
exec uti
en ced</w>
desi rable</w>
confron ting</w>
con fir
Tok yo</w>
Mexic an</w>
I P</w>
Bo ard</w>
1 7
trage dy</w>
ro ots</w>
profes sion
pri or</w>
pharmaceu tical</w>
m ers</w>
li abilities</w>
fe ature</w>
evid ent</w>
ep iso
e able</w>
con cili
benef ic
b and</w>
albe it</w>
U -
Shang hai</w>
Qat ar</w>
K u
In du
4 5</w>
wr ite</w>
valu ed</w>
re ness</w>
p he</w>
mitig ate</w>
mat ure</w>
li hood</w>
indic ate</w>
imp ly</w>
guarante ed</w>
fif th</w>
famili ar</w>
controversi al</w>
compe ting</w>
accur ate</w>
Sou theast</w>
Ch á
tri um
so oner</w>
reluc tant</w>
r o</w>
pi p
p ill
op les</w>
no where</w>
missi les</w>
har d-
foreign ers</w>
f ill</w>
d in
cra sh</w>
anim als</w>
N a
M D
Li ber
K ar
Hit ler</w>
A lli
y an</w>
transpor tation</w>
ri val</w>
ra di
pru d
por tra
open ly</w>
lever aging</w>
hy po
hist ori
expla ined</w>
e ager</w>
awa reness</w>
Hum an</w>
6 .
unde restim
tra v
s y</w>
rec ru
pro minent</w>
mar ri
m p</w>
g ged</w>
fulf ill</w>
fe der
f ounded</w>
elimin ating</w>
dictat orship</w>
center -
at ri
adop ting</w>
Tim es</w>
T ru
Mad rid</w>
v it
t an</w>
see ks</w>
scho ol
numer ous</w>
i op
gradu al</w>
de structive</w>
compar able</w>
al- Assad</w>
S ha
Fre e</w>
under way</w>
tri p</w>
tradi tionally</w>
th en-
suffici ently</w>
stabili ze</w>
spec tac
rest oring</w>
res h</w>
pro jec
par aly
p al
orig in
negoti ation</w>
executi ves</w>
dep lo
con stant</w>
challeng ed</w>
catastro phe</w>
bur d
b ly</w>
aband oned</w>
Re present
Gre en
E L
C ath
v ali
re moved</w>
lo an</w>
less ness</w>
internation ally</w>
in deb
dis proportion
difficul ties</w>
cra ft</w>
constra ined</w>
cent ri
benefic ial</w>
BRIC S</w>
st ering</w>
sa ved</w>
ra ge</w>
fis h</w>
en acted</w>
any where</w>
Th ir
F ound
F at
Chá vez</w>
197 0s</w>
vulner ability</w>
vir tu
re mot
r are</w>
nor th</w>
nineteen th</w>
low- carbon</w>
hur t</w>
fo ster</w>
finan ces</w>
cou ple</w>
T he
S har
L e</w>
Grou p</w>
Con vention</w>
u n</w>
sc ru
ro ll</w>
re ject</w>
ran ging</w>
pol ar</w>
monit oring</w>
in et</w>
back ground</w>
au di
achiev ement</w>
ab oli
C A
tra p</w>
s cre
om ed</w>
justi fied</w>
ex pos
eng ine</w>
de st</w>
de lay</w>
c ells</w>
au g
Q u
Pr inc
E S
t ons</w>
res emb
qu ick</w>
fossil- fuel</w>
ex pression</w>
dy s
d is</w>
as king</w>
G ol
Ab bas</w>
up coming</w>
pro jected</w>
politici an</w>
natur ally</w>
nati on-
m ass
ic -
h ot
func tional</w>
f ran
exten sive</w>
expendit ure</w>
deep ening</w>
ac tor</w>
zer o-
we igh
su peri
repu tation</w>
out look</w>
or gan
interven e</w>
intellec tu
ine fficient</w>
in he
hosp it
gh ts</w>
geo graph
ef s</w>
clo sing</w>
bin ding</w>
attitu des</w>
ass ess</w>
Keyne sian</w>
H A
Eth iop
Au th
199 1</w>
with draw</w>
volati le</w>
proble matic</w>
mem ory</w>
house -
hol der</w>
gr and</w>
gener ous</w>
f resh</w>
extre mism</w>
cho o
autonom y</w>
St ability</w>
Sh in
G 20</w>
Ber nan
thre sh
ro g
repe ated</w>
pri cing</w>
prev ented</w>
p ple</w>
ne o-
li stic</w>
l en
in formed</w>
fe ed</w>
communic ations</w>
ap it
al ties</w>
absolu te</w>
V i
Constitu tion</w>
199 8</w>
wa iting</w>
tw are</w>
spe aking</w>
mi x</w>
f ies</w>
discus s</w>
co st-
adver ti
add afi</w>
ad ding</w>
Kur ds</w>
F D
Engli sh</w>
Bernan ke</w>
y al</w>
w all</w>
t less</w>
struc k</w>
sig nal</w>
re ate</w>
ong side</w>
om ics</w>
o red</w>
mu ch-
moderni zation</w>
lin ed</w>
legisl ative</w>
inc or
ill ary</w>
elector ate</w>
concentr ated</w>
ch ose</w>
campaig ns</w>
al ongside</w>
Den g</w>
uni fication</w>
un fair</w>
ris m</w>
revers ed</w>
pursu it</w>
intro duce</w>
imperi al</w>
hal t</w>
fundament als</w>
found ations</w>
ev olutionary</w>
erup ted</w>
dis astr
desper ate</w>
as ks</w>
alli ances</w>
adop tion</w>
W il
Mor si</w>
I P
rele ase</w>
pla ys</w>
mor tality</w>
infl ationary</w>
domin ate</w>
cro ps</w>
com modi
argu ing</w>
appe ar
ab und
2 9</w>
xi de</w>
volum e</w>
stri king</w>
sta ke
sof tware</w>
ro c
respec tively</w>
persu ade</w>
optim istic</w>
ob s
lo west</w>
ine j
in security</w>
import antly</w>
h at
disast ers</w>
Su b-
Scot land</w>
R ou
Nor way</w>
Afgh an</w>
1 0
ul ly</w>
u ght</w>
sh ou
s ite</w>
ord erly</w>
mortg ages</w>
inspi red</w>
in ability</w>
id es</w>
ici de</w>
green house-
elec tr
dynam ics</w>
co de</w>
beg ins</w>
Sub- Saharan</w>
Kenne dy</w>
H illary</w>
Found ation</w>
C enter</w>
Bi g</w>
5 ,000</w>
199 7</w>
y en</w>
regul ar</w>
ran ks</w>
popul arity</w>
po wered</w>
op ho
infl ation-
fam ously</w>
fac to</w>
f an
en try</w>
du res</w>
dre w</w>
discus sed</w>
collabor ation</w>
che aper</w>
chan ces</w>
anxie ty</w>
announ cement</w>
alloc ation</w>
Wh en</w>
B en
us al</w>
tre ati
sup ports</w>
st ern</w>
st em
re tail</w>
mar i
ili bri
ex ists</w>
emb o
divi sions</w>
an de</w>
ali stic</w>
T a
Nor thern</w>
Den mark</w>
tra dable</w>
rein forced</w>
public- sector</w>
peri ods</w>
optim ism</w>
low er-
inf lic
har mon
assum ing</w>
acu te</w>
Sta lin</w>
Q addafi</w>
P an
E bol
Auth ority</w>
underp in
stan tly</w>
sk y</w>
se x</w>
s ent
re alized</w>
pur poses</w>
mur der</w>
l enders</w>
judic ial</w>
inej ad</w>
human- rights</w>
greenhouse- gas</w>
gen oci
fair ly</w>
ev a</w>
detail s</w>
conclu de</w>
ati sm</w>
anci ent</w>
ak ed</w>
ad just</w>
Me dic
L an
J ong-
1 -
un willing</w>
t ants</w>
shif ted</w>
rich er</w>
m ale</w>
hy dro
en lar
c lar
Ukraini an</w>
stre ssed</w>
rel ying</w>
p il
o se
o il-
k u
is tics</w>
hy per
h our</w>
expla ins</w>
enhan ced</w>
comfort able</w>
be l
ar is
acc ession</w>
Islam ists</w>
Holl ande</w>
D u
v ent</w>
un il
tox ic</w>
th row</w>
ri st
propag anda</w>
or ation</w>
ob served</w>
ne l</w>
m its</w>
jud gment</w>
jo ining</w>
forec ast</w>
f oun
en force</w>
e ton</w>
de leg
d r
construc tive</w>
cab inet</w>
Princ eton</w>
Bur ma</w>
1 ,
ten sion</w>
st akes</w>
pen sions</w>
pa th
illenni um</w>
conver gence</w>
ar sen
aff ecting</w>
v als</w>
stud ent</w>
sovereign -
por ter</w>
ph ones</w>
oun ced</w>
o be
li fied</w>
integr ity</w>
g aps</w>
de tec
concili ation</w>
acceler ating</w>
Tran s-
Ear th</w>
6 5</w>
weap on</w>
un it</w>
u de</w>
ste ady</w>
sha dow</w>
pre sum
pl us</w>
is n</w>
in i</w>
h ence</w>
en ses</w>
dis cre
deli very</w>
com mon
ari se</w>
I F
F ir
Ebol a</w>
year- old</w>
tan cy</w>
stre t
re r</w>
re move</w>
o cr
n y</w>
low ering</w>
jud ges</w>
fla wed</w>
fi red</w>
fe a
f light</w>
f ellow</w>
ex port
divi sion</w>
deli vering</w>
achiev ements</w>
W e</w>
Ser bia</w>
S wit
writ ing</w>
wor sen
wit ne
tu m
treati es</w>
tow n</w>
sh ore</w>
pre vention</w>
pl ing</w>
ous ness</w>
mach ine</w>
l or
l ers</w>
jeop ardi
ev alu
dar k</w>
conv ince</w>
cl asses</w>
ac le</w>
E C</w>
wit ter</w>
vi rus</w>
teach ers</w>
tac tics</w>
rati os</w>
r ating</w>
pe oples</w>
not e</w>
min u
lo ve</w>
like lihood</w>
gi ant</w>
fore sts</w>
doctr ine</w>
de gra
criter ia</w>
circ le</w>
aspir ations</w>
arrang ement</w>
arch y</w>
advis ers</w>
Swit zer
Som ali
Ar my</w>
v il-
th qu
inc umb
ilibri um</w>
hous es</w>
ed ge</w>
ci vil-
catastroph ic</w>
R w
C P
Ara bs</w>
ul tra-
su nam
sto red</w>
sp ar
rein force</w>
re pa
proce dures</w>
on ia</w>
mo ther</w>
j um
fea sible</w>
embrac ed</w>
defini tion</w>
consider ations</w>
confid ent</w>
channe ls</w>
b ling</w>
a sive</w>
T witter</w>
Indu stri
Cha irman</w>
2 6</w>
youn ger</w>
weak nesses</w>
t elling</w>
susp ici
short ages</w>
sec uring</w>
pl y-
ma d</w>
l end</w>
han i</w>
fore most</w>
expos ure</w>
ener gy-
declar ation</w>
Str ate
Naz i</w>
Fin ance</w>
D el
197 9</w>
v a</w>
un ch</w>
tal king</w>
some how</w>
pr in
per form</w>
leg ally</w>
l o</w>
inten se</w>
ik a</w>
i ties</w>
ent ren
doub ts</w>
den y</w>
attemp ted</w>
acc o</w>
Mor oc
Indi ans</w>
un stable</w>
un ilateral</w>
ten d
sp li
re conciliation</w>
produc es</w>
n a</w>
id den</w>
fin e</w>
emp ire</w>
de valuation</w>
commodi ties</w>
commit tee</w>
ber g</w>
b low</w>
am id</w>
Switzer land</w>
N uc
N P
K ing</w>
B os
As soci
1 ,000</w>
we stern</w>
ther ap
sup ply-
ri gi
res ent
ren d
mobili ze</w>
marri age</w>
gi sts</w>
exce ed</w>
environ ment
el ect</w>
dist ant</w>
contem porary</w>
care er</w>
am ple</w>
S ci
Nic ol
K er
Afric ans</w>
wat ch</w>
trans form
tiz ation</w>
ten ds</w>
slow ed</w>
signific ance</w>
reali ties</w>
marg inal</w>
inte g
integ rate</w>
fin ds</w>
f at
ed -
ear ned</w>
disco vered</w>
dilem ma</w>
compu ters</w>
compon ents</w>
St an
A m
3 -
tt on</w>
symbo li
sec tarian</w>
rou te</w>
resili ent</w>
reduc es</w>
re porting</w>
fri end</w>
for t</w>
fin dings</w>
enter ing</w>
e lement</w>
don or</w>
disastr ous</w>
champ i
car b
c ell</w>
W W
Le ague</w>
Fran k
Bal k
up ward</w>
tra ined</w>
ti a</w>
ste adi
sit u
si a-
ra f</w>
qu est</w>
princi pal</w>
fi x</w>
ear th</w>
dio xide</w>
den ied</w>
de serve</w>
d ging</w>
cho sen</w>
blo c</w>
b low
accord ingly</w>
Fir st</w>
E mp
Alli ance</w>
su it</w>
steadi ly</w>
sha ped</w>
se y</w>
regul arly</w>
recei ving</w>
pl un
nam ely</w>
her o
he at</w>
govern ment-
gh ter</w>
enab les</w>
bol ster</w>
P en</w>
O ffice</w>
I m
E U-
4 -
soli d</w>
revi ve</w>
pec ts</w>
lac king</w>
in spir
gen ous</w>
f arm</w>
deman ded</w>
de ad
conc essions</w>
c ope</w>
bom b</w>
as pects</w>
T ay
H us
H I</w>
Ethiop ia</w>
work ing-
tra jec
thresh old</w>
represent ative</w>
rejec tion</w>
n avi
mone tary-
middle- class</w>
mani fe
l us
interpre tation</w>
in effective</w>
electri c</w>
dri ver</w>
difficul ty</w>
cy ber
cooper ate</w>
convinc ing</w>
competi tors</w>
b id</w>
argu ably</w>
arbit r
a ul
X i
Trans- Pacific</w>
Sum mit</w>
La w</w>
Gen eva</w>
C C</w>
194 5</w>
urban ization</w>
th ering</w>
temper atures</w>
t sunam
surr ounding</w>
re in</w>
inter -
high- income</w>
h arm
el and</w>
differen tly</w>
con i</w>
comp ati
comm and</w>
bureaucr acy</w>
b ound
b acks</w>
adjust ments</w>
Ro ad</w>
D EL
tend ency</w>
sump tions</w>
resol ving</w>
provi ders</w>
profession als</w>
ori ous</w>
no body</w>
newsp aper</w>
mar ks</w>
investig ation</w>
gran d
exist ential</w>
em in
cooper ative</w>
cont ag
confron ted</w>
comparis on</w>
big u
al together</w>
SO Es</w>
S and
7 .
z o</w>
yp rus</w>
x ity</w>
rev ol
re tali
re sur
mu tually</w>
lo sers</w>
lau reate</w>
inc ur
hm ad
g an</w>
f ought</w>
experi ment</w>
ent ation</w>
de em
cate g
cam p</w>
appoin ted</w>
am bigu
Th at
Ni xon</w>
C yprus</w>
Al ger
A hmad
wa ves</w>
under -
s our
ra in</w>
p rou
neighb or</w>
multin ational</w>
it -
happ iness</w>
half- century</w>
equ ilibrium</w>
elimin ated</w>
cy n
cat aly
autom ation</w>
as sumptions</w>
antibio tics</w>
anim al</w>
R en
Mu shar
Le h
F ront</w>
DEL HI</w>
A M
wor rying</w>
understand able</w>
u ms</w>
typ ical</w>
to co
stra ight
sp an</w>
sh -
schem es</w>
recogni zes</w>
predecess or</w>
gen es</w>
g ments</w>
e g
dig nity</w>
di re</w>
citiz en</w>
ag on
Fri ed
B I</w>
work er</w>
w ou
the -
s ale</w>
refu se</w>
prevail ing</w>
predecess ors</w>
prag matic</w>
men ei</w>
isol ated</w>
illu str
hospit als</w>
expan sionary</w>
evi l</w>
enter prise</w>
critici zed</w>
char ged</w>
cam ps</w>
Mushar raf</w>
Ma o</w>
Kha menei</w>
I rish</w>
Ber lus
vis ited</w>
underpin ned</w>
s cape</w>
po c
mean time</w>
may be</w>
hosti le</w>
green house</w>
fac tion</w>
dist ur
destabili zing</w>
def ending</w>
d ation</w>
cho ol</w>
asylu m</w>
al es</w>
accoun ted</w>
West er
Nuc lear</w>
toco l</w>
ti on-
ris dic
ple dged</w>
manufac tu
judic i
jud ge</w>
introduc tion</w>
f at</w>
experi ences</w>
el -
de al
concentr ation</w>
colon ial</w>
c entr
b ills</w>
Ahmad inejad</w>
valu e-
un rest</w>
ti me
territ ories</w>
st one</w>
sel ection</w>
offici ally</w>
o m</w>
he ar</w>
h a</w>
follow ers</w>
ey e</w>
explic itly</w>
explic it</w>
emphasi zed</w>
ech no
ear thqu
constitu te</w>
bre aks</w>
bor ne</w>
am p
advoc ate</w>
Somali a</w>
J ames</w>
Hus se
D avo
str ongest</w>
pul l</w>
over seas</w>
o tic</w>
mi st</w>
li ft</w>
ju risdic
it ting</w>
initi ated</w>
hor iz
f low
dynam ism</w>
disrup tion</w>
dec ent</w>
con fin
co ast
attitu de</w>
Pen insula</w>
O x
Leh man</w>
Dra gh
Berlus coni</w>
B en</w>
u ment</w>
the tic</w>
s wa
resist ant</w>
refl ecting</w>
reci pi
rec over
ra v
pl ur
ou l</w>
n av
monetary- policy</w>
im plying</w>
hop ed</w>
fore see
fir m
deri v
consider ation</w>
c ens
as ci
Xi a
M illennium</w>
K i
I T</w>
Econom y</w>
Davo s</w>
Co operation</w>
Ale x
vo red</w>
tari ly</w>
t ful</w>
rev olutions</w>
reli es</w>
ref usal</w>
loc ked</w>
in tim
frequ ent</w>
forec asts</w>
dis man
differen ti
defic i
al a</w>
accor d</w>
Rou hani</w>
Rom ney</w>
O ne</w>
M it
Fat ah</w>
Austri a</w>
200 8-
tra in</w>
super vision</w>
su icide</w>
soci ally</w>
or row</w>
in sol
foresee able</w>
fac tory</w>
exacerb ated</w>
empha size</w>
chec k</w>
blam ed</w>
bar gaining</w>
arm ament</w>
alleg ed</w>
Ric hard</w>
Di rec
D NA</w>
stre et</w>
straight forward</w>
st un
sco res</w>
re turning</w>
pi ece</w>
implic it</w>
emp i
e igh
appreci ate</w>
an alo
ad ults</w>
Pro gra
Pre sid
Fran c
E duc
Associ ation</w>
whe reby</w>
sho t</w>
se es</w>
prepar ing</w>
prefer red</w>
plau sible</w>
pe ac
pan ic</w>
li hoods</w>
invol ves</w>
inv o
inten tion</w>
incor por
im ported</w>
ho t</w>
genoci de</w>
fu sion</w>
follow s</w>
fa vored</w>
e t
diplom ats</w>
d ded</w>
cohe rent</w>
ba i</w>
ar ticle</w>
acqu ire</w>
absor b</w>
Industri al</w>
Dragh i</w>
Braz ili
wid ening</w>
uc tu
tou gh
sugge sting</w>
sid ers</w>
recor ded</w>
re l</w>
pes si
p un
or thodo
l d-
invest or</w>
high er-
g ation</w>
fo rest</w>
eng aging</w>
en rich
dec lines</w>
cyc les</w>
co inci
charac ter</w>
b at
as se
an em
accep tance</w>
NA FTA</w>
Le ad
G ates</w>
CE O</w>
um a</w>
trans l
th- century</w>
se ttle</w>
regul ate</w>
recomm end
ra se</w>
orig in</w>
ob tain</w>
o is</w>
m elt
li ers</w>
judici ary</w>
disrup tive</w>
desper ately</w>
custom s</w>
at lantic</w>
appro xim
acceler ated</w>
ab uses</w>
T ri
Rw anda</w>
R onald</w>
wat ers</w>
sha ping</w>
ris is</w>
remot e</w>
re distribution</w>
ple dge</w>
hol dings</w>
hel p
govern ed</w>
fl uctu
ent -
econom ic-
an nex
acknowle dged</w>
Ye ar</w>
W ol
Kore ans</w>
C risis</w>
199 2</w>
z ones</w>
trans atlantic</w>
ter ly</w>
tem por
t asks</w>
st ems</w>
sol ving</w>
se ize</w>
saf er</w>
rein forcing</w>
rat ings</w>
od ds</w>
medic ines</w>
is lands</w>
ir on
industri alization</w>
induc ed</w>
im a</w>
ha bit
gra ve</w>
g -
foc uses</w>
fl ou
fa st-
ex press</w>
cro p</w>
con ce
chec ks</w>
channe l</w>
c ard</w>
bas s
appear ance</w>
an thro
T V</w>
J i
J P</w>
Bro thers</w>
B oli
wor thy</w>
tou rism</w>
tech ni
sh el
mo thers</w>
minim ize</w>
l eng
inter medi
h es
fi ve-
explo it</w>
distribu ted</w>
conn ect</w>
Moroc co</w>
I s</w>
Husse in</w>
Govern or</w>
199 5</w>
un expected</w>
tol l</w>
ti ble</w>
ri can
priv acy</w>
pre ferences</w>
par ity</w>
newsp apers</w>
liber als</w>
intere sting</w>
high- quality</w>
he igh
dis pos
credit or</w>
bi as</w>
applic ations</w>
anticip ated</w>
anti- S
ambi tion</w>
all ing</w>
ag e-
193 0s</w>
win ners</w>
treat ments</w>
ri val
pat ent</w>
paralle l</w>
o cean</w>
medi an</w>
loc ation</w>
live lihoods</w>
inter n
indic ates</w>
imp lied</w>
hon or</w>
h in
gr ound
for get</w>
extre mist</w>
en ever</w>
deploy ed</w>
deem ed</w>
comple xity</w>
cap tured</w>
c er</w>
an ch
ak er</w>
Educ ation</w>
ver sus</w>
st an</w>
short age</w>
represent ation</w>
pla yer</w>
n ight</w>
gri ev
g are
ec ture</w>
doub led</w>
de vices</w>
de sc
contr action</w>
conserv atives</w>
br in
atten d</w>
ali en
accumul ation</w>
Venezu el
K h
Green span</w>
Cor por
Bre tton</w>
19 50</w>
1 3
wi fe</w>
vo ices</w>
viol ations</w>
ve sted</w>
stake holders</w>
st uck</w>
re di
prote sters</w>
po st</w>
obstac le</w>
gro ss</w>
fair ness</w>
draw ing</w>
denom inated</w>
confir med</w>
compati ble</w>
com plac
b ought</w>
Wo ods</w>
Rec ession</w>
D ay</w>
C up</w>
yi el
volun tary</w>
vic ious</w>
trajec tory</w>
tra de-
the red</w>
th or
sol ved</w>
pu ty</w>
pri de</w>
parti al</w>
mass ac
marg in</w>
m as</w>
fi shing</w>
er ror</w>
em ul
distri c
dis order</w>
dimini shed</w>
degre es</w>
de regulation</w>
capit alist</w>
bi an</w>
ben ch
F S
D is
BO C</w>
199 4</w>
yo to</w>
wh enever</w>
ver n</w>
sk i</w>
quali fied</w>
qu es</w>
preced ent</w>
post- war</w>
n an</w>
manu el</w>
liber ty</w>
land scape</w>
inten tions</w>
inno cent</w>
imp ris
head lines</w>
free ly</w>
for -
en ko</w>
ef ully</w>
dri vers</w>
defin ing</w>
d ol
co ld</w>
alle y</w>
aff ects</w>
administr ative</w>
ad vi
V E
Sum mers</w>
Par k</w>
P BOC</w>
K yoto</w>
C s</w>
troub led</w>
temper ature</w>
tain ing</w>
sen ding</w>
s log
por tedly</w>
nam ed</w>
i red</w>
go vern</w>
g as
fulf illing</w>
frame works</w>
enjo yed</w>
el der
de voted</w>
con vers
con stantly</w>
ass as
appe aling</w>
accep ting</w>
Shin zo</w>
P ra
v is</w>
ul ed</w>
st ations</w>
situ ations</w>
se at</w>
revi val</w>
prohi b
pp er</w>
mo od</w>
mi xed</w>
m -
lo oming</w>
life -
highligh ted</w>
emo tional</w>
dom s</w>
descri be</w>
contain ed</w>
co vered</w>
clo se
buil dings</w>
assas sin
S an</w>
R ome</w>
Franc is</w>
Conserv ative</w>
Ch i
Cam bo
5 0,000</w>
vi de
v ation</w>
trac ted</w>
toler ance</w>
ti n</w>
ta ke
spo ke</w>
se as
ro les</w>
persi st</w>
out break</w>
n -
mp ing</w>
infec tious</w>
in disp
im migrant</w>
ill -
hund red</w>
govern or</w>
g ar</w>
expec tancy</w>
ar ray</w>
abs ent</w>
G ü
C al
symp tom
sur face</w>
success es</w>
stabili zing</w>
sett lements</w>
re build</w>
posi t</w>
ou gh
occur ring</w>
ne ts</w>
mag nit
hop e
highligh ts</w>
func tions</w>
fil m</w>
f ounding</w>
f asci
epi demic</w>
connec tion</w>
civili zation</w>
break through</w>
anem ic</w>
acc es
a ise</w>
M ario</w>
Israeli -
ó n</w>
wo od</w>
v elt</w>
rich est</w>
ra il
protec tions</w>
per mit</w>
pa ys</w>
ose velt</w>
not es</w>
min d
ment ary</w>
li z
im ages</w>
fr action</w>
fashi on</w>
f loo
ex porting</w>
ex ha
eth ics</w>
e al
detail ed</w>
defe ated</w>
clin ical</w>
ca su
S chool</w>
Ro osevelt</w>
L o
Cath oli
4 00</w>
war fare</w>
trium ph</w>
specul ation</w>
sing le-
ren der</w>
prov oc
preci se</w>
polar ization</w>
pa thy</w>
norm ally</w>
ni ti
mun ici
low- cost</w>
hosti lity</w>
gu il
exclu sively</w>
ess ed</w>
elder ly</w>
eco systems</w>
e arch</w>
de pri
coura ge</w>
classi c</w>
ce as
ar rest</w>
an o
Res earch</w>
Pro tec
M un
I niti
u l</w>
tre mend
to b
tob acco</w>
ter ing</w>
spli t</w>
sa ke</w>
pro of</w>
portfoli o</w>
pass ing</w>
neighbor hood</w>
mono poli
kil ome
imm ense</w>
ho u</w>
har sh</w>
frustr ation</w>
fe ared</w>
equ itable</w>
de duc
cul tures</w>
compli ance</w>
comple ted</w>
bot s</w>
bloc k
avail ability</w>
am in</w>
adequ ately</w>
T w
L is
J an
Fran ç
Al i</w>
A sia-
u d</w>
ti ed</w>
stor m</w>
sp orts</w>
s wit
re stored</w>
prof itable</w>
melt down</w>
law yers</w>
la id</w>
l y-
illi beral</w>
fac tories</w>
f ar
equi pped</w>
dec re
d ul
compet ence</w>
carb on-
car rying</w>
bud ge
ari os</w>
app lies</w>
Thir d</w>
That cher</w>
Pi ke
O p
Bel gi
1. 3</w>
à -
up gra
uni fied</w>
skep tics</w>
sign als</w>
sh all</w>
overwhel m
overwhelm ingly</w>
offic ers</w>
mi red</w>
magnit ude</w>
lan ding</w>
inter ference</w>
indic ated</w>
glob alized</w>
g n
foot ball</w>
ff ic</w>
enti oned</w>
asse t-
arre sted</w>
aggres sion</w>
ag ger
ag ents</w>
K ru
Initi ative</w>
F or</w>
E M
under take</w>
tsunam i</w>
tra ffic
tici sm</w>
tempor arily</w>
t z</w>
sustain ing</w>
specul ative</w>
read s</w>
on ers</w>
lo v
le tter</w>
iron ically</w>
hegem ony</w>
fo rest
ex agger
end uring</w>
e e
distinc t</w>
d au
commer ce</w>
at ro
V ol
Pike tty</w>
Ma hm
A pple</w>
tom orrow</w>
t ments</w>
star ts</w>
scen arios</w>
rel ent
rec all</w>
psycho logical</w>
oli g
ministr y</w>
medium- size</w>
me ga
maxim ize</w>
fic ations</w>
far- right</w>
entren ched</w>
direc tor</w>
cul tiv
citiz en
bro ke</w>
bio diversity</w>
b ic</w>
N P</w>
Ch ic
B JP</w>
- à-
value- added</w>
undermin es</w>
trans forming</w>
sovereign- debt</w>
sole ly</w>
ri vals</w>
po ol</w>
physi ci
par a
negoti ators</w>
meth od</w>
lob b
exper t</w>
event ual</w>
con ditional</w>
civil- society</w>
ati vity</w>
air craft</w>
Mahm oud</w>
te ams</w>
stor age</w>
sp reading</w>
run -up</w>
requi rement</w>
re la
pris oners</w>
ot h</w>
monit or</w>
it ari
ill ness</w>
form ally</w>
firm ly</w>
ens able</w>
enlar gement</w>
du ty</w>
d rin
contag ion</w>
compens ate</w>
ce iling</w>
be au
b in</w>
attac ked</w>
archit ecture</w>
R u
Pri ze</w>
CC P</w>
y m
vis -à-
vis-à- vis</w>
ve to</w>
u li
tra ffic</w>
ti de</w>
terri ble</w>
t elec
s le
priv atization</w>
presum ably</w>
pre- crisis</w>
pr int</w>
po ll</w>
man eu
lu x
k ings</w>
in puts</w>
gu idance</w>
g lo
enti ties</w>
dro ve</w>
dra ft</w>
de leveraging</w>
dat ory</w>
cred ited</w>
con sume</w>
com ings</w>
co gni
centr al-
bur g</w>
an gry</w>
S qu
C a
2 ,000</w>
vir tual</w>
un acceptable</w>
sh ut</w>
scar ce</w>
res our
per v
ot ing</w>
off s</w>
not able</w>
multil ateralism</w>
medi um</w>
me at</w>
it ely</w>
indeb ted</w>
ignor ing</w>
he dge</w>
gener als</w>
g ol
g man</w>
fore ver</w>
endor sed</w>
dis armament</w>
deploy ment</w>
demonstr ations</w>
defl ationary</w>
dec l
comment ators</w>
cohe sion</w>
c tic</w>
assa ult</w>
answ ers</w>
ali ve</w>
S pec
Lis bon</w>
H er
1 50</w>
tre ating</w>
t ext</w>
stric t</w>
so ared</w>
short fall</w>
short comings</w>
see kers</w>
resp ected</w>
reg ain</w>
rac ial</w>
ra w</w>
plum me
per formed</w>
occur s</w>
int ent</w>
harm ful</w>
gu ards</w>
fa ste
exces sively</w>
dis integration</w>
coll ateral</w>
ch ill</w>
auth ors</w>
arri ved</w>
ag o
advan cing</w>
A h
wor ries</w>
tu i
trans mission</w>
tic les</w>
ti ght</w>
so il</w>
sh ale</w>
prof ile</w>
poli o</w>
off ensive</w>
n is</w>
mu si
mist ak
loc ated</w>
inc es</w>
f arming</w>
disp lay</w>
dep ending</w>
decl are</w>
de dic
bureaucr atic</w>
bu ff
anti-S emi
an ge
ag h
ad mit</w>
W ar
O cean</w>
NP T</w>
Je an-
Ho loc
Franç ois</w>
Chic ago</w>
B us
A K
war ded</w>
v acu
ur ani
un lea
ti st</w>
ti l
st ages</w>
si veness</w>
s p</w>
ro bo
ri ad</w>
reck less</w>
re versal</w>
prevail ed</w>
p act</w>
ou tra
it i</w>
ir relevant</w>
in di
forec ast
f laws</w>
exc ell
engine ers</w>
depend ency</w>
connec tions</w>
compar ative</w>
cha irman</w>
br and</w>
bloc ked</w>
autom ob
as tic</w>
ad he
Se oul</w>
Ox ford</w>
K in
J unc
ven cy</w>
tr um
supply- side</w>
ri d
rebe ls</w>
op ing</w>
mis sions</w>
mil es</w>
k ly</w>
it ability</w>
im balance</w>
il es</w>
f illed</w>
el ings</w>
di v
depar ture</w>
d ying</w>
collec tively</w>
collec tion</w>
choo sing</w>
at a</w>
alloc ated</w>
ab e
P s</w>
K y
Cz ech</w>
A y
20 25</w>
á n</w>
y ch</w>
tr um</w>
sion ed</w>
schol ars</w>
reason ably</w>
re construction</w>
ple as
para dig
on i
ob serv
mari time</w>
m al</w>
hon est</w>
gen e</w>
exacerb ate</w>
evol ved</w>
earthqu ake</w>
dist ance</w>
dismis sed</w>
deter rence</w>
colle ge</w>
blin d</w>
be have</w>
au st</w>
anu kov
Y anukov
Sin o-
Kru gman</w>
H en
Do ha</w>
B ud
Asia- Pacific</w>
8 .
ver i
un its</w>
trans late</w>
thri ve</w>
stoc k-
spir al</w>
si gh
shrin king</w>
safe guard</w>
re forming</w>
prou d</w>
perf ec
over sight</w>
no vel</w>
nati ve</w>
mal aise</w>
l ately</w>
instr ument</w>
insist ed</w>
indisp ensable</w>
ic ious</w>
grow s</w>
fa i
er ring</w>
ep tion</w>
dis content</w>
deriv atives</w>
cr yp
control ling</w>
co in</w>
cir cul
bom bing</w>
attrac ted</w>
al ter</w>
Yanukov ych</w>
W ith</w>
V alley</w>
Sen ator</w>
Per u</w>
O n</w>
O M
NG Os</w>
Junc ker</w>
H igh</w>
Emp ire</w>
Em manuel</w>
C ap
1 00,000</w>
we igh</w>
tain s</w>
stem ming</w>
st ore</w>
so aring</w>
si s-
sett led</w>
scand al</w>
rout ine</w>
represent ing</w>
quar ter-
prud ential</w>
pro motion</w>
no ti
n on</w>
mit ting</w>
in j
in ations</w>
im pover
figh ters</w>
f ed</w>
ec ho
dys functional</w>
doz en</w>
deep en</w>
consolid ate</w>
co smo
c ure</w>
beli efs</w>
bass ador</w>
associ ation</w>
ail ed</w>
SD R</w>
Joh n
G od</w>
Fo od</w>
A ben
vi sit
v ac
uti li
un t</w>
ti m</w>
st ation</w>
si de
s wi
replac ing</w>
re ward</w>
re fra
re d
or dered</w>
oppos ing</w>
long- run</w>
l uck</w>
k no
k es
jiha di
it ors</w>
imm uni
head ing</w>
grow th-
for gotten</w>
en opho
coun tless</w>
contin ental</w>
comb ine</w>
bi ology</w>
applic ation</w>
ap ar
ach ed</w>
S ri</w>
Mun ich</w>
M at
Aben omics</w>
A ge</w>
0 th</w>
vic tim</w>
vent ure</w>
un ting</w>
un necessary</w>
un known</w>
the sis</w>
temp ted</w>
suspici on</w>
spur red</w>
sil ence</w>
sat elli
san itation</w>
oblig ation</w>
mis sed</w>
ma them
impe de</w>
fortun ate</w>
exclu ded</w>
el ations</w>
echno logy</w>
distinc tion</w>
dis course</w>
diagno sis</w>
cri sis-
cat ch</w>
benef iting</w>
bar gain</w>
approach ing</w>
V ik
Squ are</w>
Mo ham
L ast</w>
FD I</w>
Comm un
AK P</w>
v oc
te dness</w>
super vis
reco vered</w>
re portedly</w>
promot ed</w>
predic tions</w>
p ound</w>
p ac
or al</w>
le st</w>
inflation- adjusted</w>
in aug
hi ke</w>
genu inely</w>
entit led</w>
disco very</w>
dem ise</w>
dec reas
car ries</w>
bi ological</w>
benef ici
balance- sheet</w>
asy m
approxim ately</w>
acqui red</w>
Pow er</w>
Catholi c</w>
C y
x enopho
un popular</w>
tremend ous</w>
tra gic</w>
tain ment</w>
surpris ed</w>
subsequ ently</w>
strugg les</w>
sh r
sc ore</w>
s- based</w>
remark ably</w>
puni shment</w>
pu rely</w>
post- crisis</w>
philosoph y</w>
over ha
manufactu rers</w>
h idden</w>
g ases</w>
enti ty</w>
ent ails</w>
ec ological</w>
dimini shing</w>
dep le
demonstr ates</w>
d ence</w>
compet ent</w>
comp are</w>
ater ally</w>
acces sible</w>
a ur
Sau dis</w>
Chur chill</w>
Ch rist
Bus iness</w>
up hold</w>
trib al</w>
trans national</w>
ti le</w>
thous and</w>
ten -year</w>
temp tation</w>
ta ught</w>
stabili zation</w>
skep ticism</w>
s or
oper ational</w>
minim al</w>
mid st</w>
l ap
k i
it e
ha ven</w>
gradu ates</w>
gi st</w>
equi ties</w>
effici ently</w>
e at</w>
degra dation</w>
con sent</w>
close st</w>
c on</w>
att le</w>
WW II</w>
US- led</w>
Mc Kin
Le e</w>
Jong- un</w>
Is lands</w>
E A</w>
C air
B C</w>
3. 5</w>
199 3</w>
war nings</w>
vi g
un predictable</w>
u red</w>
t ex
sub stitute</w>
soci alist</w>
sc ra
reve al</w>
reli ed</w>
p ron
origin ally</w>
no tic
liber alism</w>
know ing</w>
in equ
ha el</w>
g un
down side</w>
dela yed</w>
dam aged</w>
child hood</w>
bound aries</w>
asp ect</w>
ak h
accumul ated</w>
Vik tor</w>
Th om
Olymp ic</w>
Gol d
G han
Ch ief</w>
u pper</w>
tur bul
the ories</w>
the ore
symptom s</w>
ru le
ro bots</w>
rec apit
re tro
prohi bi
prin ting</w>
preci pit
pr one</w>
pot ent</w>
post pon
mo squ
m us
it ations</w>
ex changes</w>
en ligh
en cing</w>
embe dded</w>
disp arities</w>
determin ing</w>
coun tr
bail outs</w>
acci dent</w>
O N
Jo se
Holoc aust</w>
Fran k</w>
Fin land</w>
0 0-
tur n
techni ques</w>
stitu tion</w>
squ ee
so red</w>
si z
re moving</w>
re gre
pu zz
pre serving</w>
particip ating</w>
parado x
p es</w>
multi p
lu sion</w>
introduc ing</w>
inf ected</w>
free- market</w>
financi ally</w>
fi sh
fac ility</w>
f ted</w>
eng ines</w>
diff er</w>
di c</w>
destro ying</w>
dec ent
de posit</w>
com prise</w>
a o</w>
T ony</w>
L O</w>
Gre en</w>
Econom ics</w>
Ci vi
Cair o</w>
C ro
under taken</w>
un clear</w>
stic k</w>
sh ima</w>
resent ment</w>
re treat</w>
prev ail</w>
plac ing</w>
pip eline</w>
pi one
nor m</w>
mathem ati
la ys</w>
ir responsible</w>
inher ited</w>
indic ator</w>
indi genous</w>
incumb ent</w>
inc ap
gu ide
ga thering</w>
fragment ation</w>
en rol
doz ens</w>
dow ns</w>
conserv ation</w>
cent ralized</w>
cens orship</w>
cap ability</w>
calcul ations</w>
bon d
bloo dy</w>
be aring</w>
b illi
assum es</w>
Z im
Secre tary-
Mic hael</w>
Gre e
G ames</w>
Char les</w>
9 .
1 5
vern ight</w>
vacu um</w>
v able</w>
urani um</w>
tra ders</w>
tim ing</w>
secu red</w>
sacrific e</w>
res ha
rec essions</w>
re a</w>
public- health</w>
o vernight</w>
neu tr
nation alists</w>
my riad</w>
medium- term</w>
li kes</w>
exten ding</w>
exce eds</w>
distingu ish</w>
d ates</w>
bul k</w>
an z
al arming</w>
V ice</w>
Secretary- General</w>
Ob am
Brazili an</w>
- minded</w>
- and-
wat ching</w>
sw ing</w>
supp liers</w>
star k</w>
stagn ant</w>
scru tiny</w>
pre mature</w>
pic k</w>
min or</w>
loy alty</w>
justi fication</w>
issu ing</w>
intellectu als</w>
he ating</w>
gu es</w>
griev ances</w>
fo rese
es cap
ero sion</w>
encoura ges</w>
distor tions</w>
disrup tions</w>
d rough
confin ed</w>
com ed</w>
c ali
be half</w>
arsen al</w>
Zim bab
Re port</w>
Nicol as</w>
N o</w>
Israeli- Palestinian</w>
z i</w>
wel comed</w>
trig gering</w>
top -
tack ling</w>
stra in</w>
st en
spo ken</w>
profess or</w>
ph rase</w>
perpe tu
nav al</w>
li ability</w>
kilome ters</w>
in sp
hi kes</w>
h ire</w>
h ate</w>
for ge</w>
fin ished</w>
expec tation</w>
er ial</w>
e lev
dispu ted</w>
cu se</w>
cre ativity</w>
contem pl
contain ment</w>
construc t</w>
condem ned</w>
ar ticul
am p</w>
Strate gy</w>
Progra m</w>
Pro tocol</w>
MD Gs</w>
Fre e
vill age</w>
top ic</w>
surve ys</w>
super power</w>
suff ers</w>
st ate
st ar</w>
sch ed
respec tive</w>
recommend ations</w>
r ant</w>
quarter- century</w>
projec tions</w>
pre scrip
ord on</w>
mo vi
indic ation</w>
identi ties</w>
fe t
facilit ating</w>
ex cuse</w>
enthusias m</w>
en su
di ly</w>
con spir
com fort</w>
climate- change</w>
Z i
Iran ians</w>
Con sensus</w>
Cambo dia</w>
Alger ia</w>
8 5</w>
6 00</w>
196 7</w>
war d-
w ins</w>
un anim
tor ture</w>
super -
sup ple
sig nat
se ized</w>
ri cal</w>
restra int</w>
repe at</w>
premi um</w>
pon ent</w>
over ly</w>
oun ce</w>
ol er
lar ation</w>
inv ited</w>
ing ent</w>
inequ alities</w>
hor ri
fragment ed</w>
excep tions</w>
escal ating</w>
es p
dimen sion</w>
de v</w>
de adly</w>
cent ered</w>
boo sted</w>
bo x</w>
ati st</w>
alle vi
aff lic
accompli shed</w>
Thom as</w>
Jose ph</w>
John son</w>
G or
Dec laration</w>
Corpor ation</w>
Con gressional</w>
C at
A ma
8 00</w>
un usual</w>
suc cum
sub jects</w>
read y-
over coming</w>
no -
mis leading</w>
mili tants</w>
liqu id</w>
imm une</w>
il lo
hes it
escal ation</w>
ent ail</w>
democr atically</w>
cal m</w>
bureaucr ats</w>
bur st</w>
autom atic</w>
assess ing</w>
aband oning</w>
W H
T his</w>
Rom a</w>
Mo vement</w>
M is
Ker ry</w>
2008- 2009</w>
up heav
tradi tions</w>
stock- market</w>
se t
ri ce</w>
requ est</w>
recor ds</w>
pos sibilities</w>
om in
o ve
normali zation</w>
mis guided</w>
min ish</w>
min ing</w>
lif ted</w>
lef t-wing</w>
le ari
ir y</w>
insur gency</w>
inde fin
ig n</w>
gra sp</w>
f lu
exclu sive</w>
entrepreneur ship</w>
enrich ment</w>
eco system</w>
di minish</w>
cru de</w>
constitu tes</w>
coast al</w>
bal lot</w>
ass emb
amoun ted</w>
advoc ated</w>
advis er</w>
VE N</w>
Represent atives</w>
H i
G- 8</w>
1. 2</w>
0. 5</w>
un ite</w>
thir d-
t ling</w>
susp ect</w>
sp illo
s emi
ri l
re mit
r ally</w>
perpe tr
out lets</w>
ne uro
laun ching</w>
ing redi
ili con</w>
hosp ital</w>
frustr ated</w>
free doms</w>
fo ods</w>
fa ke</w>
doub le-
di stress</w>
corpor ate-
commis sion</w>
cogni tive</w>
cle are
character istics</w>
char is
c ited</w>
be at</w>
bas ket</w>
am ents</w>
am end
ak ia</w>
ach ment</w>
a x
T T
S ilicon</w>
P EC</w>
HA VEN</w>
G ordon</w>
Fried man</w>
B hu
Ar ticle</w>
199 6</w>
- to-
y c
win ds</w>
well- being</w>
vill ages</w>
v y</w>
v il
v ary</w>
uni qu
u ph
superi or</w>
su gar</w>
scienti st</w>
sa vers</w>
restric ted</w>
pro claimed</w>
ph ot
paradig m</w>
out flows</w>
neutr al</w>
margin alized</w>
high- level</w>
fi er
er to</w>
electr onic</w>
el u
distribu te</w>
distr ust</w>
de ter</w>
de pressed</w>
car ds</w>
be tra
ad dic
acc us
S am
Mar ine</w>
H u</w>
Char ter</w>
Ab dul
ten ure</w>
t ext
so le</w>
s lau
rout inely</w>
remin der</w>
rel ation</w>
in y</w>
fe es</w>
exten sion</w>
exten ds</w>
exclu sion</w>
e ps</w>
disrup t</w>
discoura ge</w>
di abe
deplo y</w>
den ial</w>
deci sively</w>
citizen ship</w>
bri ef</w>
bond holders</w>
bar rel</w>
aggres sively</w>
adap tation</w>
V ic
Sing h</w>
S an
P R
I B</w>
E l
- of-
win dow</w>
vo t</w>
tra ded</w>
thin ks</w>
ter y</w>
spec trum</w>
sp reads</w>
sp ort</w>
sil ent</w>
p in
much- needed</w>
list en</w>
inter im</w>
infec tions</w>
imag in
gra v
fron tier</w>
for th</w>
es tion</w>
enti ve</w>
en i
du bi
champ ion</w>
bu yers</w>
author itari
arch ing</w>
anthro p
We b</w>
S ach
P act</w>
Or b
McKin sey</w>
Lan ka</w>
K az
Ghan a</w>
Del hi</w>
Comm unity</w>
Ama z
&apos; re</w>
vi ron
ur gency</w>
un equal</w>
succ ession</w>
skep tical</w>
renew ables</w>
re wards</w>
re ference</w>
ran king</w>
prov ince</w>
ob ject</w>
lov akia</w>
liter ally</w>
hop ing</w>
high- tech</w>
han ded</w>
gu er
forest ation</w>
ferti lity</w>
fe elings</w>
experim ents</w>
emer ges</w>
deliber ately</w>
cur b</w>
conveni ent</w>
cl er
burd ens</w>
brin k</w>
borrow ed</w>
b rate</w>
autom atically</w>
anti- corruption</w>
and er</w>
ag grav
S to
M icro
En viron
D P
Boli via</w>
B rown</w>
A ff
win d
ur ation</w>
squ are</w>
refl ection</w>
ra mp
poli tan</w>
ob sc
intensi fied</w>
industri alized</w>
in action</w>
ignor ance</w>
hab its</w>
fra ud</w>
embrac ing</w>
dubi ous</w>
dru g-
deb tors</w>
ca p</w>
b bed</w>
an e</w>
ab sur
WH O</w>
U gan
Ti bet</w>
Tay yi
Constitu tional</w>
Chris tians</w>
Ar men
with standing</w>
symboli c</w>
sub sid
statis tical</w>
recei ves</w>
rec ord
process ing</w>
pois ed</w>
n ight
le tting</w>
ke eps</w>
int oler
insp ire</w>
han g</w>
h iring</w>
guide lines</w>
gr ant</w>
foun der</w>
fav ors</w>
f li
exemp lified</w>
es sive</w>
dep th</w>
central- bank</w>
ben ign</w>
autocr atic</w>
ast y</w>
appe ti
ant agon
al g
ab rup
Tayyi p</w>
T C</w>
Rec ep</w>
Orb án</w>
Mar ket</w>
M el
Iraq is</w>
Direc tor</w>
unil aterally</w>
trans action</w>
teach ing</w>
stoc k
st y</w>
sp ends</w>
s ounds</w>
revi ved</w>
pro xy</w>
pro pose</w>
perfec tly</w>
parado x</w>
p tion</w>
isol ation
ir rational</w>
intim id
inten sity</w>
insi ghts</w>
in complete</w>
horiz on</w>
help ful</w>
fa ult</w>
ex pe
em powered</w>
e sts</w>
dra g</w>
da unting</w>
d am</w>
coun ted</w>
consci ous</w>
co vering</w>
co erci
cl ash</w>
ce d-
budge tary</w>
break down</w>
be an</w>
bac ter
avo idable</w>
asser t</w>
apo lo
a is
Sand ers</w>
Med ve
In de
Gree ks</w>
Democr acy</w>
Balk ans</w>
vi br
tri c
sti l
sig ning</w>
reconc ile</w>
pro tracted</w>
pe tro
organiz e</w>
mar ine</w>
lo ose</w>
impover ished</w>
e le
cau tious</w>
bur ning</w>
b ar</w>
S ur
N on-
Mad uro</w>
M ik
Leban ese</w>
Ac tion</w>
A th
4 4</w>
196 0s</w>
1 0-
und its</w>
th ly</w>
tac tical</w>
separ ation</w>
secre tary</w>
satis fied</w>
satis faction</w>
re mo
r ation</w>
person nel</w>
perman ently</w>
pan -
optim al</w>
lif ting</w>
inter connected</w>
inhe rent</w>
influ enced</w>
five- year</w>
fi res</w>
enti on
ec tive</w>
coun ts</w>
comp rising</w>
com position</w>
an cy</w>
W at
Medve dev</w>
Free dom</w>
Bos nia</w>
6 -
w ary</w>
vibr ant</w>
uc leari
t we
so c
semi -
see ds</w>
scen e</w>
s a</w>
reve als</w>
rec ur
re pay</w>
produc er</w>
pro pri
phil anthrop
motiv ation</w>
metri c</w>
mer it</w>
in ism</w>
high light</w>
gri d</w>
go sla
g lu
g ames</w>
form idable</w>
fi re
favor ite</w>
f led</w>
dis agree</w>
devi se</w>
cum ul
cu ri
connec tivity</w>
ch ur
bas es</w>
alig ned</w>
Yu gosla
Tha k
Sun nis</w>
Spec ial</w>
Sach s</w>
Naz is</w>
Belgi um</w>
9 -
2 ,
win ner</w>
two- state</w>
system atic</w>
sur ance</w>
revi sed</w>
repe al</w>
post war</w>
por tion</w>
per secu
out siders</w>
not withstanding</w>
nation- state</w>
mis s</w>
mega -
m entioned</w>
long standing</w>
lac ked</w>
in tui
im pression</w>
histori an</w>
hi de</w>
h ing
fu r</w>
fe els</w>
f rac
exter n
exam ine</w>
episo de</w>
e go
domes tically</w>
diabe tes</w>
den ying</w>
den ucleari
cul min
cu lo
convic tion</w>
con test</w>
ci ally</w>
chem ic
bo ards</w>
bloo d
bloc king</w>
bi partisan</w>
ban ned</w>
al ready-
adverti sing</w>
ac are</w>
a ve</w>
Z eal
Pu erto</w>
Obam acare</w>
B or
worsen ing</w>
ten ded</w>
tan ks</w>
tan ces</w>
symbo l</w>
st on</w>
spectac ular</w>
sli de</w>
sched uled</w>
satis fy</w>
restric t</w>
recomm ended</w>
qu ie
physi cs</w>
per mitted</w>
p undits</w>
op ping</w>
occa sion</w>
mili ti
l ender</w>
hat red</w>
euro -
environment ally</w>
empi rical</w>
em power</w>
elimin ation</w>
docum ented</w>
culo sis</w>
counter productive</w>
contain s</w>
conclu sions</w>
complac ency</w>
coll ect</w>
cli ents</w>
certain ties</w>
center- left</w>
ber culosis</w>
be ars</w>
attribu ted</w>
ap plying</w>
Y elt
Shar on</w>
S A</w>
P A
Inde x</w>
D od
Cha ir</w>
x ing</w>
witne ssed</w>
vot er</w>
under stands</w>
th rown</w>
ter min
ten ance</w>
t am
spon sored</w>
sigh ted</w>
rule s-based</w>
repa ir</w>
remo val</w>
relev ance</w>
ori th
negl ect</w>
mi str
lux ury</w>
lo ts</w>
lic op
in jec
ha w
formul a</w>
f ty</w>
exerci ses</w>
excep tional</w>
evol ving</w>
e ast</w>
dict ator</w>
deb tor</w>
consid ers</w>
concer ted</w>
co ast</w>
clo sure</w>
cl out</w>
bu t
audi ence</w>
attrac ting</w>
are n</w>
adv ent
Zimbab we</w>
Vi en
Thak sin</w>
Pre mi
Fu ku
CI A</w>
Bas el</w>
2 50</w>
valu ations</w>
un fol
to- GDP</w>
tax -
t ells</w>
sour cing</w>
soc cer</w>
she er</w>
sen tim
s tically</w>
replac ement</w>
rep lic
ref using</w>
re b
re act</w>
prof itability</w>
prob ability</w>
pro ponents</w>
prag m
paraly sis</w>
p t</w>
op her</w>
nam es</w>
long- standing</w>
lin k
inv ent
inst inc
ho li
h en
gri p</w>
g rants</w>
es e-
divi den
dividen ds</w>
di r
demonstr ating</w>
d rought</w>
crimin als</w>
ass embly</w>
agend as</w>
acqui si
aca demics</w>
Ugan da</w>
Sou thern</w>
Pi S</w>
P ope</w>
Ne ws</w>
Micro soft</w>
Lab or</w>
H el
E ur
C B
Ab u</w>
A N
3 4</w>
w as
upgra ding</w>
ul a</w>
su its</w>
re affir
radic ally</w>
practic ally</w>
percep tions</w>
olu tion
nom ination</w>
narr atives</w>
mor ality</w>
mo on</w>
militi as</w>
me tap
ke en</w>
gener ates</w>
fluctu ations</w>
disproportion ate</w>
disappoin ting</w>
dis appear</w>
de ser
comb ating</w>
calcul ation</w>
autonom ous</w>
alg orith
ad mitted</w>
Zeal and</w>
Xia oping</w>
S wis
S W
L ag
IP CC</w>
C O</w>
B an</w>
B agh
5 5</w>
3 6</w>
vie wing</w>
vast ly</w>
tra pped</w>
sup pose</w>
sit ting</w>
reason ing</w>
proce ed</w>
pi vot</w>
philos opher</w>
oun dly</w>
off shore</w>
maintain s</w>
life time</w>
le th
journ alist</w>
j an</w>
it ems</w>
in qu
imag ined</w>
hi er
heigh tened</w>
fu tures</w>
free ze</w>
for th
en forced</w>
distur bing</w>
deliber ate</w>
dec ade
d or
cr ack
coordin ate</w>
auth or</w>
arbitr ary</w>
Yelt sin</w>
W i
S tu
S M
R ound</w>
Mo on</w>
M i
Kaz akh
Fu ture</w>
Bagh d
Ara fat</w>
Amaz on</w>
Af ter</w>
9 5</w>
3 2</w>
wor sen</w>
vulner abilities</w>
u ps</w>
teen th</w>
te ach</w>
st a</w>
spe ech
self- interest</w>
s adly</w>
resour ce-
reci pe</w>
ration ale</w>
psycho logy</w>
prof ession</w>
pri ori
p ure</w>
op ponent</w>
mon thly</w>
m udd
imp unity</w>
im minent</w>
ge dly</w>
fac tions</w>
enligh tened</w>
defa ults</w>
danger ously</w>
crow d</w>
contain ing</w>
bom bs</w>
bench mark</w>
annex ation</w>
alli ed</w>
alle gedly</w>
aff ili
activi st</w>
abund ant</w>
Vien na</w>
Stan ford</w>
M ini
M E
Kazakh stan</w>
Hen ry</w>
where ver</w>
wat er-
vehic le</w>
tow ns</w>
through s</w>
tan gible</w>
stag gering</w>
sh er</w>
resist ed</w>
requ is
pun ish</w>
prov inces</w>
pre tty</w>
pi ec
p -
over throw</w>
o sten
nineteen th-century</w>
lin king</w>
dis s
dis credited</w>
dis appeared</w>
d- Frank</w>
counter part</w>
bit ter</w>
aver aged</w>
addre sses</w>
ach es</w>
abor tion</w>
ab i
Swe dish</w>
Lead er</w>
Ha iti</w>
G and
Dod d-Frank</w>
Aff airs</w>
201 9</w>
tt om
tri ck
tough er</w>
succ essive</w>
spo t</w>
s ke
s cep
rigi d</w>
reluc tance</w>
rebe lli
re medi
periph eral</w>
o ce
noti ce</w>
mind set</w>
in e-
he licop
hand le</w>
gri m</w>
gi ants</w>
flow ing</w>
fe ed
ex -
err ors</w>
end less</w>
disproportion ately</w>
de serves</w>
cur ricul
continu ous</w>
coali tions</w>
center- right</w>
break throughs</w>
blow n</w>
be ings</w>
appeti te</w>
accompli sh</w>
Venezuel an</w>
TT IP</w>
Swis s</w>
O ttom
Mini stry</w>
Mar k</w>
3 1</w>
198 2</w>
- -</w>
ve y</w>
ve ge
tran sc
subsid y</w>
sec ul
remit tances</w>
pre sti
perv asive</w>
p age</w>
om mun
ommun ic
non- state</w>
neu tra
natur al-
munici pal</w>
mater nal</w>
market- based</w>
journ alism</w>
iz es</w>
inv ented</w>
intensi fy</w>
in direct</w>
imp lo
illu sion</w>
id a</w>
histori ans</w>
hand ful</w>
ha il</w>
ge st
ga ther</w>
fo stering</w>
explo ited</w>
declar ing</w>
can -
believ ing</w>
Th re
Premi er</w>
Pan el</w>
N ep
Chur ch</w>
1. 6</w>
1. 4</w>
yn ard</w>
wr ong
wa sted</w>
v ar
underestim ated</w>
t i</w>
sha dow
rea dily</w>
ran k</w>
ra id</w>
pill ar</w>
pack ages</w>
on ym
on ment</w>
mit h</w>
massac re</w>
invest ment-
inv ari
inflic ted</w>
in spec
identi fying</w>
i e</w>
flo ods</w>
flo od</w>
f righ
explo sion</w>
explo itation</w>
euro s</w>
ent able</w>
en shr
en e
embar ra
ear ning</w>
e rec
drough ts</w>
cro ss
bu l</w>
bo oming</w>
be long
aver t</w>
alig n</w>
ad ult</w>
ab le-
Sy stem</w>
S mith</w>
S can
Ma ynard</w>
L i</w>
In fra
E cu
D an
Ar ctic</w>
197 3</w>
1 4
war m</w>
viol ation</w>
uni vers
uc ky</w>
tr usted</w>
tou ri
technocr atic</w>
survi ved</w>
su ited</w>
slog an</w>
ri gor
rever sible</w>
respon sive</w>
res on
rejec ting</w>
re think</w>
re sts</w>
qui et</w>
pru dent</w>
pl agu
out standing</w>
negl ected</w>
musi c</w>
lim itations</w>
invari ably</w>
integr ating</w>
insi ght</w>
ine ffici
immuni zation</w>
hur rican
health ier</w>
fl ag
ex cess
episo des</w>
emp ty</w>
dy n
dri ves</w>
doub ling</w>
democr atization</w>
cl ass
bi al</w>
arri ve</w>
ali tarian</w>
Y el
P A</w>
Mar shall</w>
Man de
Infra structure</w>
C el
Bel ar
A li
3 3</w>
wat er
transi tions</w>
str ange</w>
safe guards</w>
rev olution
ra c</w>
ques tion
ol d-
mili tarily</w>
mem ories</w>
marke ting</w>
lif f</w>
lever aged</w>
inter action</w>
incap able</w>
he l</w>
h us
g al
fron ts</w>
ex u
do ors</w>
din avi
de l</w>
civi c</w>
cha ir</w>
centri st</w>
ce re
authoritari anism</w>
appe als</w>
Sci ence</w>
Scan dinavi
Re view</w>
R ed</w>
F is
C ur
zero- sum</w>
v ague</w>
un intended</w>
traffic king</w>
su spec
stan bul</w>
spon s
speech es</w>
revers ing</w>
propos ing</w>
promp ted</w>
poss ess</w>
olig arch
marg ins</w>
la ying</w>
g li
fortun e</w>
facilit ated</w>
diversi fication</w>
deterior ating</w>
dem ago
de v
cou pled</w>
con su
common ly</w>
billi on
b ols</w>
O PEC</w>
M anu
I stanbul</w>
Gold man</w>
Chin a-
Chi rac</w>
Ch ech
Cat al
Australi an</w>
AM R</w>
unlea shed</w>
underp in</w>
swe eping</w>
su gg
stu died</w>
st alled</w>
sp ear
sign aled</w>
si e
shrin k</w>
school ing</w>
ri de</w>
ref erred</w>
record -
ramp ant</w>
r int</w>
public- private</w>
privile ged</w>
pre ference</w>
outra ge</w>
ol ing</w>
obe sity</w>
o x
o ch
mir acle</w>
lab or
in hi
dur able</w>
deterior ation</w>
dedic ated</w>
cost- effective</w>
concei ved</w>
bo y
bl ack
be st-
ba il</w>
b our
b ord
al co
ad here</w>
a stri
Zi on
Yugosla via</w>
Yel len</w>
R am
Protec tion</w>
M ol
Gand hi</w>
Ch il
C are</w>
3 7</w>
win ter</w>
val ence</w>
under going</w>
troub ling</w>
su scep
stat es
si ck</w>
se -
revi ving</w>
rest aur
quot as</w>
offic es</w>
nom ine
n ou
mistr ust</w>
manufac tured</w>
k id
jud ged</w>
hun gry</w>
har ass
h ac
f ab
exp ects</w>
ess ence</w>
ero ded</w>
ero de</w>
en act</w>
emul ate</w>
emp t</w>
du ties</w>
dismis s</w>
dis agreements</w>
dis agreement</w>
decre ase</w>
dau ghter</w>
cumul ative</w>
cau tion</w>
bab y</w>
al- Qaeda</w>
aff lu
advan ced-
T u
S tra
Rom ania</w>
Mc C
Mar tin</w>
M ur
Egyp tians</w>
200 7-
1 0,000</w>
under ground</w>
tr action</w>
toler ate</w>
star t-
pre judic
poin ting</w>
pill ars</w>
over looked</w>
mal nutrition</w>
m ess</w>
le an
ite ers</w>
inf ection</w>
implic ation</w>
he ight</w>
graph y</w>
e tary</w>
dol lar
defe ating</w>
de puty</w>
d ering</w>
clar i
benefici aries</w>
b less
attac king</w>
at ol
aris es</w>
am bassador</w>
alloc ate</w>
ail ing</w>
S he
Ric o</w>
G aul
Frank lin</w>
For ces</w>
Can adi
CE Os</w>
C lau
A T</w>
4 8</w>
3 0-
wou ldn</w>
wit ness</w>
war ran
vide o</w>
ur ge</w>
un certainties</w>
ti ful</w>
ti al</w>
th row
th in</w>
telec ommunic
swa p</w>
strugg led</w>
soci o
smo oth</w>
sel ected</w>
re al
re actions</w>
rati fied</w>
posi tioned</w>
pat ents</w>
parli aments</w>
p ar</w>
ob sole
o p</w>
inter rup
insist ing</w>
i est</w>
he v</w>
ha med</w>
financial- market</w>
every body</w>
entreprene uri
en sion</w>
en ly</w>
do cu
div or
dict ators</w>
desp air</w>
convers ation</w>
ch t</w>
batt le
assess ments</w>
ap point</w>
Soci alist</w>
S econ
Ro yal</w>
L ula</w>
L en
I C</w>
E d
Baghd ad</w>
Ang lo
An nan</w>
AR C</w>
wil d</w>
was n</w>
wal k</w>
vers aries</w>
vali d</w>
uph ol
tra de
tigh ter</w>
sto res</w>
six -
restric ting</w>
re alizing</w>
poc kets</w>
osten sibly</w>
open -
nuclear- armed</w>
n ic
n ai
n a
ir on</w>
interpre ted</w>
inter dependence</w>
in y
imp ul
ide als</w>
geograph y</w>
fl at</w>
enti ous</w>
en de
el ines</w>
dre ss</w>
docu ment</w>
def ensive</w>
deci ding</w>
de forestation</w>
d ot
d end</w>
cro ss</w>
cor ner</w>
consu mer
compla ints</w>
clar ity</w>
c liff</w>
break up</w>
as por
alter ing</w>
Wh at</w>
P op
Mal i</w>
F er
E lec
Bo E</w>
B ul
Ath ens</w>
Ad vis
AI IB</w>
4 3</w>
3 8</w>
z ations</w>
with stand</w>
vacc ination</w>
ur ged</w>
tre es</w>
sk y
satelli te</w>
ro ad
risk- taking</w>
proce d
pri ze</w>
prev ents</w>
prev entive</w>
pen alty</w>
pe ti
orig ins</w>
oce ans</w>
o v</w>
ne s
maxim um</w>
man ship</w>
ma ster</w>
m are</w>
loc ations</w>
leth al</w>
k able</w>
jud ging</w>
inter actions</w>
g ging</w>
ferti liz
f ting</w>
f ric
eradic ation</w>
emphasi zes</w>
du ci
do g</w>
dest ination</w>
debt- to-GDP</w>
dd ling</w>
cyn ical</w>
consequ ential</w>
com promises</w>
ceas e
categ ory</w>
blu ep
a u</w>
W en</w>
W al
Ri o</w>
Pu bli
Pro ject</w>
Itali ans</w>
H ind
De al</w>
Cu ban</w>
C A</w>
B ol
Al ban
Abdul lah</w>
20 -
19 14</w>
ut terly</w>
twenty- first-
twenty-first- century</w>
t es
su e</w>
strate gically</w>
sti g
st ro
soci alism</w>
slu gg
slugg ish</w>
se gments</w>
resp ects</w>
rein vigor
rea p</w>
quanti ty</w>
pro cu
pres ents</w>
power ment</w>
poss ess
pic ked</w>
om en</w>
necess ity</w>
main tenance</w>
m el
lobb ying</w>
li sted</w>
j un
inhe rently</w>
indu ce</w>
in tru
im pa
har t</w>
har b
g ul
fe et</w>
er ies</w>
docum ents</w>
dis sent</w>
credit -
cred its</w>
con firm</w>
administr ations</w>
activi sm</w>
accommod ate</w>
Hind u</w>
Govern ment</w>
Gaz pro
De b
D re
B elt</w>
B S</w>
A sians</w>
7 00</w>
20 ,000</w>
1. 8</w>
vers y</w>
ve st</w>
understand ably</w>
un resolved</w>
ti ze</w>
t un
spo ts</w>
sco red</w>
resc u
radi o</w>
public ation</w>
progra m
pre cau
po sts</w>
pan el</w>
p light</w>
ous se
os ity</w>
me ters</w>
man datory</w>
la sted</w>
l ing
it ous</w>
ir ony</w>
intensi fying</w>
he ed</w>
gas ol
fulf illed</w>
feed back</w>
excess es</w>
exce eded</w>
entrepreneuri al</w>
emo tions</w>
desi red</w>
cont entious</w>
cont act</w>
consum ing</w>
circ les</w>
care ers</w>
c lam
bri dges</w>
bac hev</w>
b y-
as y</w>
accur ately</w>
ac ity</w>
a g</w>
US- China</w>
Secon d</w>
S P
Re form</w>
Pol es</w>
Mik hail</w>
H an
Gor bachev</w>
Gazpro m</w>
Brex iteers</w>
Ban non</w>
A t</w>
4 2</w>
working- age</w>
ward- looking</w>
tu s</w>
trilli ons</w>
tr a</w>
ten tion</w>
technocr ats</w>
sup press</w>
su ms</w>
streng ths</w>
state hood</w>
stal em
smo king</w>
si us</w>
sci ences</w>
reg ards</w>
re bel</w>
ran ked</w>
propos es</w>
peri o
mor ally</w>
mo tives</w>
minist ries</w>
me t
mar ch</w>
main land</w>
liter acy</w>
jurisdic tion</w>
is ed</w>
integr al</w>
impe di
humili ation</w>
fu ci
f arms</w>
export -led</w>
emplo y</w>
decent ralized</w>
cr on
cour ses</w>
commit ting</w>
bal listic</w>
atro cities</w>
at us</w>
appreci ated</w>
al i</w>
Ti an
T Y</w>
Olymp ics</w>
Mar x
Ma astri
M um
La den</w>
I R
I II</w>
Hung arian</w>
Eur a
Ecu ador</w>
Con fuci
Cel sius</w>
Bal tic</w>
B ra
Ad ministr
4 7</w>
1. 7</w>
z ar
we b
tigh ten</w>
ten -
stop ping</w>
ste pped</w>
some where</w>
slu mp</w>
rev elations</w>
ren dered</w>
reach es</w>
re unification</w>
plumme ted</w>
o d-
lin ing</w>
lif y</w>
l ou
jour ney</w>
initi ate</w>
in struc
im perfect</w>
ide ally</w>
ha m</w>
gri ds</w>
fru it</w>
excell ent</w>
ex pose</w>
evol ve</w>
em or
d ity</w>
contro versy</w>
comm ents</w>
cease fire</w>
cat ch
behavi oral</w>
assassin ation</w>
as sured</w>
ari ous</w>
appoin tment</w>
an onym
accus ations</w>
R ousse
Ottom an</w>
Mum bai</w>
L at
I A
F ra
Al an</w>
Ac cor
3 ,000</w>
warran ted</w>
ti s</w>
three- quarters</w>
techn ically</w>
su n</w>
stimul ating</w>
sentim ents</w>
sal aries</w>
ro oms</w>
ri vers</w>
retali ation</w>
rend ra</w>
reform ers</w>
re tail
provo ke</w>
priv ati
on ce-
nation al-
minu tes</w>
mi sp
m asses</w>
low -</w>
lo wered</w>
lin e
labor- intensive</w>
inter act</w>
intelli gent</w>
incre mental</w>
in directly</w>
gi ous</w>
flo or</w>
explan ations</w>
exist ed</w>
exam ined</w>
ex or
en du
endu red</w>
ell er</w>
comp act</w>
coll ected</w>
co c
cleare r</w>
cele brate</w>
bo oms</w>
ble ak</w>
ari b
am i</w>
advi sed</w>
Syri ans</w>
Sin ai</w>
N CD
Mo hamed</w>
Maastri cht</w>
Ch en</w>
Cal der
C arib
B it
3 9</w>
system atically</w>
suspec ted</w>
scar city</w>
safe ly</w>
s bank</w>
revol t</w>
res olutions</w>
ra il</w>
pow ering</w>
modi fied</w>
mobili zed</w>
link ages</w>
le ash</w>
intern ally</w>
insist ence</w>
indefin itely</w>
ic a</w>
fu se</w>
fir ing</w>
f ant
ent- elect</w>
en sures</w>
dr one</w>
distric ts</w>
displac ement</w>
di stressed</w>
destabili ze</w>
cu shi
coun ting</w>
concentr ate</w>
communic ate</w>
bo ys</w>
attr action</w>
at om
at -
assi st</w>
ap par
anticip ate</w>
ach ing</w>
ac ious</w>
War saw</w>
T ex
Rom an</w>
Ri ver</w>
Represent ative</w>
Mil an</w>
Manu el</w>
Mande la</w>
K ash
H os
D B</w>
Bud get</w>
B unde
B ah
Ay atol
A ir
y wood</w>
we b</w>
viol ate</w>
vie w
ven s</w>
uni verse</w>
sion ally</w>
se ven
resid ential</w>
remin ded</w>
relent less</w>
regul ating</w>
re building</w>
r ors</w>
prece ded</w>
plagu ed</w>
p ter</w>
p one</w>
ow s</w>
orthodo xy</w>
opini ons</w>
notic ed</w>
no stal
night mare</w>
me d
market- oriented</w>
l ucky</w>
l an</w>
in justice</w>
for um</w>
explo iting</w>
environ ments</w>
emis sion</w>
dispos al</w>
disco ver</w>
dig it</w>
dam p
cri p
crack down</w>
consum ed</w>
chec ked</w>
casu alties</w>
calcul ated</w>
c rum
ben e
be sides</w>
back drop</w>
b righ
any way</w>
ak in</w>
agre eing</w>
ag ent</w>
aff air</w>
advoc ating</w>
W omen</w>
W illi
Scot tish</w>
S pe
R is
Na rendra</w>
NCD s</w>
Mol do
Medic are</w>
Li beral</w>
Le ave</w>
I N
G- 7</w>
F lor
D A</w>
Ca uc
C S
Ag ricul
6 .5</w>
z y
w are</w>
viol ated</w>
ver ies</w>
ti s
therap y</w>
theore tical</w>
te en</w>
sub stance</w>
shou l
scand als</w>
regi stered</w>
re mind</w>
procu rement</w>
post pone</w>
mitig ation</w>
ment ed</w>
maneu ver</w>
m ac
loc al-
j a
gene tically</w>
forecast ing</w>
fall out</w>
est er</w>
emphasi zing</w>
em powerment</w>
divi dend</w>
democr ats</w>
deal t</w>
cryp to
contribu tes</w>
comp ounded</w>
comp elled</w>
clu b</w>
c ite</w>
alleg ations</w>
V er
Tex as</w>
T here</w>
T ar
J acqu
Dar fur</w>
Clau de</w>
Carib bean</w>
Bo ston</w>
Bit coin</w>
Ayatol lah</w>
wa ste
w alls</w>
un limited</w>
t one</w>
t ably</w>
surr ounded</w>
sing er</w>
res a</w>
requis ite</w>
ref ront</w>
re me
portfoli os</w>
pl u
person ally</w>
ot echnology</w>
on a</w>
obsole te</w>
obli ged</w>
o do
ner v
mone y-
mini -
mili tant</w>
meas uring</w>
manag eable</w>
liber ties</w>
in difference</w>
imag ination</w>
igno res</w>
haz ard</w>
guil ty</w>
guer ril
ga thered</w>
fo refront</w>
fo ot</w>
floo ding</w>
fat al</w>
export -
ex hi
en ce-
ed it
distor ted</w>
disp ar
di sil
develop ing-
desig n
descri bes</w>
cur tail
comple mentary</w>
beau tiful</w>
batt les</w>
ath le
at tered</w>
ad minist
ac es</w>
V al
R evolutionary</w>
Os lo</w>
Nep al</w>
N ext</w>
McC ain</w>
K e
G B</w>
B udd
B iny
. .</w>
un realistic</w>
u te</w>
tor al</w>
t ab
swe pt</w>
susp ended</w>
sup por
stor ms</w>
stalem ate</w>
sion er</w>
sel ect</w>
seas on</w>
rest oration</w>
prof oundly</w>
ple dges</w>
peac efully</w>
ori entation</w>
or ships</w>
off -
occa sionally</w>
mitig ating</w>
min e</w>
ir ri
inc lined</w>
inc ar
in cial</w>
h ind
fu ge
fre er</w>
forth coming</w>
exha usted</w>
enti als</w>
di an</w>
denucleari zation</w>
critici ze</w>
concep ts</w>
bran ch</w>
ambigu ous</w>
accumul ate</w>
Ukraini ans</w>
Tru mp
Re fuge
Ku wait</w>
Jacqu es</w>
Flor ida</w>
Ex change</w>
E l</w>
Civi l</w>
B eng
B ay</w>
2. 4</w>
0. 7</w>
wor ld-
tou ch</w>
t ational</w>
t abo
t ables</w>
swe red</w>
subsidi zed</w>
sub stitu
su pre
sty les</w>
stu b
spur ring</w>
sil ver</w>
share holder</w>
s n
respon dents</w>
recipi ents</w>
re bound</w>
r ush</w>
pro xim
person ality</w>
persi sts</w>
non- proliferation</w>
metap h
ma ker</w>
ir reversible</w>
inst ance</w>
in su
hard line</w>
geo graphic</w>
gen ome</w>
gare t</w>
g y
exce eding</w>
exagger ated</w>
end a</w>
drin king</w>
dimen sions</w>
di aspor
deep -
d ry</w>
b led</w>
asser tive</w>
an swered</w>
Sun ni
Pe ter</w>
Mor gan</w>
Mar garet</w>
I f</w>
G I</w>
De ut
Canadi an</w>
Administr ation</w>
- sharing</w>
writ er</w>
wor th
turn out</w>
troub les</w>
ti mely</w>
ti e</w>
thin kable</w>
ten ment</w>
t to</w>
stric tly</w>
ste ep</w>
sm ugg
second- largest</w>
s ement</w>
rival ry</w>
reve aling</w>
re signed</w>
ques tioned</w>
qu asi
prov incial</w>
privile ge</w>
prev entable</w>
predic tion</w>
phot o
pessi mism</w>
o y
nou ri
my th</w>
movi e</w>
mat ched</w>
inspir ation</w>
ini st</w>
imp as
ho sted</w>
gol den</w>
fi able</w>
exclu ding</w>
evalu ate</w>
ev asion</w>
em it
dram a</w>
dic t</w>
di sh
desig ning</w>
correc tion</w>
comp rises</w>
com e-
co al-
clin ics</w>
ch er
cal am
broad -based</w>
bankrup t</w>
ax is</w>
appe aring</w>
an ce
achiev able</w>
Z hou</w>
T E
Sil k</w>
R E
O l
M ul
Liber ia</w>
Li u</w>
K ir
Hu go</w>
G i
Euro -
C ul
Biny amin</w>
B o</w>
2. 7</w>
1 5-
1 20</w>
- denominated</w>
wit z</w>
vo cal</w>
ust omed</w>
u ous</w>
the me</w>
th war
telecommunic ations</w>
suppor tive</w>
stra ins</w>
spe aks</w>
shou ldn</w>
sent ence</w>
s cap
ru b
ri ding</w>
rev it
renew al</w>
reg ain
recipi ent</w>
re alism</w>
re acted</w>
r ounds</w>
quasi -
perpetr ators</w>
pass age</w>
p ical</w>
ow e</w>
overha ul</w>
out set</w>
organiz ing</w>
ordin arily</w>
op ted</w>
on ian</w>
ne ar
navi gate</w>
inter view</w>
insol vency</w>
innov ate</w>
impe ding</w>
i um</w>
ho l</w>
gradu ate</w>
er son</w>
che ap
be long</w>
balance- of-
b right</w>
b o</w>
atten ded</w>
al e-
acc ustomed</w>
absur d</w>
The resa</w>
T el</w>
R M
Pro liferation</w>
Mar x</w>
K is
Jean- Claude</w>
Gaul le</w>
Fuku shima</w>
D ru
Cor by
C ent
Ag enda</w>
2. 3</w>
198 1</w>
1. 1</w>
wor ris
vig il
un thinkable</w>
tri vi
tot ally</w>
thri ving</w>
ta p</w>
subsidi aries</w>
struc tured</w>
star tu
st ery</w>
ri ver</w>
ri c</w>
rem embe
remembe red</w>
refra in</w>
re per
re formed</w>
r y
r is</w>
pre domin
paradox ically</w>
organiz ational</w>
oligarch s</w>
min um</w>
mat urity</w>
lef tist</w>
labor- force</w>
it ement</w>
insi sts</w>
imp ending</w>
ill nesses</w>
gre ed</w>
g ay</w>
foot ing</w>
fe ar
execu ted</w>
ex porter</w>
evid ently</w>
en sible</w>
elu sive</w>
el son</w>
do omed</w>
dis regard</w>
corporate- tax</w>
conspir acy</w>
consi sts</w>
channe led</w>
burd ened</w>
ar rog
ar d
anx ious</w>
afflu ent</w>
absolu tely</w>
a ren
T am
Ren zi</w>
J our
Euro bonds</w>
Calder ón</w>
Anglo -
yiel ding</w>
working- class</w>
withdraw ing</w>
wi shes</w>
wat ched</w>
ver t</w>
u sion</w>
tu m</w>
tro ika</w>
susp icious</w>
sub ordin
spec ter</w>
sion ers</w>
reci pro
rec yc
re sig
pro position</w>
p lo
oper ates</w>
lin ers</w>
la g</w>
ke st</w>
her self</w>
h an</w>
frag ility</w>
fle eing</w>
f ts</w>
f it
execu tion</w>
envi s
enrol l
e ffic
dre ams</w>
doc tor</w>
discus sing</w>
dest iny</w>
de vote</w>
custom er</w>
construc ted</w>
compe l</w>
chemic als</w>
cere mon
capital- account</w>
c ker</w>
business men</w>
arri val</w>
appro ve</w>
any time</w>
am e
alu minum</w>
al arm</w>
ad versaries</w>
ab y
ab str
Te a</w>
T anz
M echan
M ass
Lib yan</w>
K GB</w>
Fran co-
Bunde sbank</w>
Bor is</w>
Belar us</w>
Bah rain</w>
BO J</w>
7 .5</w>
197 1</w>
wh i
tal ented</w>
succe eds</w>
stan do
secu tive</w>
re- election</w>
quie tly</w>
public s</w>
pe er</w>
pati ence</w>
organ ic</w>
on set</w>
ne oli
mobili zing</w>
mistak en</w>
manipul ate</w>
less er</w>
legisl ators</w>
k er
jo in
it age</w>
insol vent</w>
in come-
ho stage</w>
he aring</w>
h ec
gra vity</w>
gasol ine</w>
enorm ously</w>
dis gu
correc tly</w>
cont ex
con secutive</w>
collap sing</w>
categ ories</w>
bluep rint</w>
ar a</w>
advant aged</w>
a den</w>
T ob
S or
K ac
I V
G 7</w>
Fi ve</w>
D am
D a
200 0s</w>
2. 6</w>
worris ome</w>
witne ssing</w>
vis its</w>
un leash</w>
tion ality</w>
ten se</w>
tax ed</w>
sur passed</w>
sum mits</w>
socio economic</w>
sion ist</w>
ron es</w>
rigor ous</w>
read ers</w>
pres sions</w>
predomin antly</w>
peace keeping</w>
out size</w>
organ isms</w>
o u</w>
min al</w>
knowle d
j ac
interven ing</w>
influ x</w>
in ward</w>
hy bri
hol es</w>
hand led</w>
gui ding</w>
fo oli
fix ing</w>
f ly</w>
expla ining</w>
exclu de</w>
eradic ate</w>
dictat orships</w>
detec t</w>
descri ption</w>
deleg ation</w>
de lic
cru cially</w>
crow ded</w>
cro ssing</w>
cont am
con fusion</w>
capit alize</w>
bro aden</w>
asylu m-
anti-Semi tism</w>
anch or</w>
am mar</w>
acqui es
Shar if</w>
Ro go
Re in
Re gi
Publi c</w>
Mu ammar</w>
G l
withdraw n</w>
war -
underestim ate</w>
un avoidable</w>
tu berculosis</w>
tor n</w>
tiz ed</w>
titu de</w>
tari anism</w>
t t</w>
t led</w>
system ically</w>
st ars</w>
priv ately</w>
pre c
pes tici
out dated</w>
new com
mer its</w>
loy al</w>
incur red</w>
inci dents</w>
in habit
helicop ter</w>
head quarters</w>
g a</w>
fra me</w>
excep tionally</w>
enroll ment</w>
e ties</w>
do g
distribu tional</w>
diagno stic</w>
den ounced</w>
def enders</w>
deb ated</w>
constra int</w>
constra in</w>
conduc ting</w>
cha u
ch ement</w>
car ri
can ti
c ements</w>
Tim e</w>
T si
Syri za</w>
P a
M ari
I c
H im
G M</w>
Frank fur
F ac
F ARC</w>
DP J</w>
6 7</w>
.. ..</w>
writ e-
trib un
ti tle</w>
throw ing</w>
thin kers</w>
sub- prime</w>
str ation</w>
spi ke</w>
sp in</w>
si an-
re sume</w>
re payment</w>
presti ge</w>
pr as</w>
plan e</w>
pic king</w>
persu aded</w>
pec uli
pe red</w>
p lot</w>
or ting</w>
near by</w>
moder ates</w>
micro -
mag az
li est</w>
l ance</w>
kill ings</w>
jud gments</w>
im porting</w>
hel l</w>
he ated</w>
ha ir
fe eding</w>
effic acy</w>
dra in</w>
dir ty</w>
di gi
developing- country</w>
d- up</w>
conflic ting</w>
concei vable</w>
ce ly</w>
bur den
bre ast</w>
ber t</w>
barri er</w>
asylum- seekers</w>
asu s</w>
agre es</w>
Tsi pras</w>
Ti bet
Rein hart</w>
N ation
Moldo va</w>
In te
F s</w>
F .</w>
Co sta</w>
Christ mas</w>
Cauc asus</w>
Cap ital</w>
C F
0. 1</w>
á nam
wil d
well- known</w>
virtu e</w>
ve iled</w>
up rising</w>
under cut</w>
to o-
sur render</w>
stun ning</w>
str an
specul ators</w>
sla very</w>
shoc king</w>
sha me</w>
sh che
shche v</w>
ru shchev</w>
repres sive</w>
ref uses</w>
reas suring</w>
re n</w>
re iter
re fin
rap pro
rappro chement</w>
ra i
ques tioning</w>
puni shed</w>
provo ked</w>
pip elines</w>
perspec tives</w>
per or</w>
p neu
ove restim
op a
nomine e</w>
moderni ze</w>
mis management</w>
mis ery</w>
minu te</w>
marke dly</w>
mach in
ligh ts</w>
le um</w>
le an</w>
inter f
in er
impe ded</w>
hear ts</w>
har dest</w>
gra ss
gener ational</w>
fundament alism</w>
exacerb ating</w>
ex ile</w>
enjo ys</w>
engine er</w>
eli gible</w>
educ ate</w>
ear ly-
dis mal</w>
deplo ying</w>
def enses</w>
de tail</w>
cus sions</w>
countr y
constitu encies</w>
conf used</w>
broad band</w>
bri lli
boy cot
bi zar
avo idance</w>
ast oni
ant ánam
alco hol</w>
ad ds</w>
Vol cker</w>
SM Es</w>
S tig
S ol
Poli tics</w>
Poli tical</w>
Non- Proliferation</w>
Mar kets</w>
M IT</w>
Kh rushchev</w>
Hos ni</w>
H or
Gu antánam
G ra
Ara b-
Ag ainst</w>
4 .5</w>
198 6</w>
z en</w>
wou ld-
would- be</w>
vo c</w>
v an</w>
upheav al</w>
under taking</w>
un fortunate</w>
ty ran
transform ative</w>
th ough
ten able</w>
swit ch</w>
suscep tible</w>
sur ging</w>
stud ying</w>
scen es</w>
s lo
reti red</w>
rebelli on</w>
re distribu
re actors</w>
radic als</w>
r .</w>
pul led</w>
proce eds</w>
preh ensive</w>
pragm atism</w>
postpon ed</w>
pe st</w>
pas sive</w>
p raise</w>
over due</w>
out lays</w>
od d</w>
objec tions</w>
materi alize</w>
maj orities</w>
machin ery</w>
less -
inhabit ants</w>
hus band</w>
her o</w>
hard ship</w>
ha voc</w>
full- time</w>
extre mes</w>
explo sive</w>
expl ore</w>
ensu ing</w>
embo died</w>
disp er
dis count</w>
deri ved</w>
coun tered</w>
cor relation</w>
compla ined</w>
cer ti
c as
c a</w>
aw ak
T ro
T ig
S ad
ON G</w>
N u
Mac ri</w>
Guantánam o</w>
G B
Fran ci
Cy pri
C E</w>
A rea</w>
1 2
y ou
x es</w>
vi sions</w>
uphol ding</w>
un -
tri ple</w>
the id</w>
ten den
tenden cies</w>
tax ing</w>
syn thetic</w>
symp tom</w>
stre am
stando ff</w>
spir it
signat ories</w>
si zed</w>
sho p</w>
sh u
sett ling</w>
rol ling</w>
re ser
re consider</w>
re alization</w>
rac ism</w>
ra d
quanti ties</w>
proxim ity</w>
promot es</w>
prof li
pro ving</w>
pri ce-
predic ting</w>
pre scri
popul ated</w>
plur alism</w>
percei ve</w>
per mits</w>
p able</w>
own er</w>
ow es</w>
out sourcing</w>
olo gists</w>
nur ture</w>
near- zero</w>
n ly</w>
maxim izing</w>
lo ses</w>
k ak
jeopardi ze</w>
j ail</w>
investig ations</w>
in form
in consistent</w>
hyper -
highligh ting</w>
ground work</w>
gri d
govern ors</w>
flou rish</w>
fe at
fan ati
embar go</w>
e tr
dro ps</w>
do se</w>
diversi fied</w>
disappoin tment</w>
direc tors</w>
cy -
comp ly</w>
col um
cl ou
capit als</w>
capac ities</w>
au to</w>
ate ful</w>
asser ted</w>
am m
Tur ks</w>
Tian an
St and
Sal v
Mechan ism</w>
L ar
K ONG</w>
Frankfur t</w>
E uro</w>
Bul g
Ban king</w>
5 7</w>
work place</w>
v owed</w>
underp inning</w>
under valued</w>
under scores</w>
un willingness</w>
turbul ence</w>
trac king</w>
to s</w>
t s
sym pathy</w>
superi ority</w>
substan tive</w>
sub jected</w>
social- welfare</w>
reti re
resemb le</w>
reme dy</w>
re structure</w>
re balance</w>
pri ced</w>
prescrip tion</w>
pe as
par ano
over hang</w>
ou tw
ol dest</w>
not orious</w>
non- governmental</w>
narrow ly</w>
monopoli es</w>
moder ation</w>
mit tedly</w>
mer canti
le ge</w>
inv aded</w>
ing en
inaug uration</w>
in tra-
impas se</w>
id en
head winds</w>
h itting</w>
gn ant</w>
glo be</w>
frequ ency</w>
four -
every day</w>
es -
enshr ined</w>
en demic</w>
do -
diver gence</w>
dict ate</w>
defici encies</w>
def ended</w>
dat ab
d ating</w>
cul ar</w>
cri tically</w>
contradic tory</w>
comp as
col or</w>
bu sy</w>
bro ther</w>
bre a
b ans</w>
aw a</w>
asset- price</w>
ass y</w>
adap ted</w>
ad mittedly</w>
Tianan men</w>
T y
Soci ety</w>
S ince</w>
Rogo ff</w>
E mer
E F</w>
Deut sch
Corby n</w>
2. 2</w>
193 3</w>
&apos; ve</w>
volun te
visit ing</w>
var ying</w>
und eni
tw in</w>
tur ally</w>
tra um
the irs</w>
speci alized</w>
sk in</w>
sh ments</w>
s pot
reper cussions</w>
remin is
rein forces</w>
r ated</w>
quali fy</w>
pron ounced</w>
prohib ited</w>
pro ves</w>
pessi mis
pessimis tic</w>
persecu tion</w>
one- quarter</w>
offic er</w>
obs ession</w>
ob tained</w>
nee dless</w>
mul ticul
ma il</w>
land -
lag ging</w>
interven ed</w>
inst all
ingredi ents</w>
inf er
inci dent</w>
im position</w>
illi c
home owners</w>
head line</w>
gun s</w>
gu ess</w>
geograph ical</w>
g ru
for ce
fix ed-
fier ce</w>
enthusias tic</w>
emb assy</w>
em powering</w>
e ted</w>
du mping</w>
divor ce</w>
dis advantage</w>
demo graph
de vice</w>
de tention</w>
de fi
comment ary</w>
comb ining</w>
cla use</w>
bra ve</w>
bom b
aver sion</w>
associ ations</w>
as cent</w>
ari ans</w>
ar i</w>
appar atus</w>
apar theid</w>
analy tical</w>
aliz es</w>
af raid</w>
ad mission</w>
T er
Sunni -
Ser vice</w>
Mon ti</w>
In dependence</w>
Franci sc
For ce</w>
Du bai</w>
A V
who le
ver ge</w>
ug ly</w>
sta ying</w>
simp listic</w>
sid er</w>
sho oting</w>
s ons</w>
s n</w>
ru th
reform ist</w>
question able</w>
profess ors</w>
pro gres
post- World</w>
pa rent</w>
op t</w>
la vi
inten ds</w>
intellectu al-
in trac
im poses</w>
iden tical</w>
ho ly</w>
fron t-
fl ation</w>
feder ation</w>
f its</w>
en e</w>
ed ings</w>
du bbed</w>
double- digit</w>
diversi fy</w>
diff usion</w>
decreas ed</w>
d rones</w>
cyber -
cr y</w>
cr unch</w>
cosmo politan</w>
consul tation</w>
con ferences</w>
comple ment</w>
ci gare
ca sting</w>
bur ned</w>
bon uses</w>
bo om
astr o</w>
artific ially</w>
ag ers</w>
ab duc
U ber</w>
Ta x</w>
Ser vices</w>
Rousse ff</w>
R ight</w>
Moham med</w>
H ur
D .</w>
Col lege</w>
C astro</w>
198 7</w>
196 2</w>
writ ers</w>
wo es</w>
war n</w>
un surprisingly</w>
un happy</w>
un changed</w>
tal ents</w>
sym bols</w>
ste am</w>
ris king</w>
ri ots</w>
recomm end</w>
radi ation</w>
rac ist</w>
qu e
psy chi
pro min
privile ges</w>
prevail s</w>
preci ous</w>
precau tionary</w>
pre valence</w>
persist ently</w>
pen etr
mo lec
mer it
marke t
man ages</w>
m ire</w>
lower- income</w>
li tz</w>
le sc
irri gation</w>
interpre t</w>
intellectual- property</w>
in sec
in coming</w>
impro ves</w>
ig ration</w>
ic ity</w>
hur d
hu b</w>
hegem onic</w>
go od
flo ating</w>
fla g</w>
financial- sector</w>
fe at</w>
faste st-
extr action</w>
eth -
enjo ying</w>
em an
distingu ished</w>
depri ved</w>
contradic tion</w>
bene ath</w>
as sist
ap ing</w>
announ ce</w>
ange red</w>
a warded</w>
Tha i</w>
Tanz ania</w>
Sch um
O il</w>
In t
IC T</w>
Francisc o</w>
En d</w>
Econom ist</w>
Brit ons</w>
A ca
3. 6</w>
3 0,000</w>
wi sely</w>
w n</w>
w arm
ve ter
up side</w>
um ental</w>
ul ted</w>
tro pical</w>
transi tional</w>
transf erred</w>
tra its</w>
te es</w>
t ating</w>
sw aps</w>
sun der
ste in</w>
sion ate</w>
secul ar
reminis cent</w>
re actor</w>
ra ft</w>
purcha sed</w>
pro lif
pro active</w>
practi tion
pa thetic</w>
p ir
or che
op pression</w>
mor ning</w>
mi su
mess ages</w>
loo sen
lo ved</w>
li sts</w>
jurisdic tions</w>
inst alled</w>
indeb tedness</w>
imagin able</w>
illic it</w>
illi ter
he m</w>
ha ble</w>
ha bit</w>
gi a</w>
fl ying</w>
fe aring</w>
fant asy</w>
expl oration</w>
eth- century</w>
enter tainment</w>
ef ly</w>
disman tling</w>
di ous</w>
dep ic
dep ended</w>
demonstr ators</w>
demonstr ation</w>
dem y</w>
cris y</w>
compu ting</w>
compla in</w>
com promised</w>
ci o</w>
but tre
bo on</w>
automob ile</w>
as ing</w>
anti- immigrant</w>
analo gy</w>
administ ered</w>
acci dents</w>
Wil son</w>
Wester n-
Stig litz</w>
No t</w>
Lu x
Liber ation</w>
Kis singer</w>
J P
Ic eland</w>
I A</w>
Him al
E st
Ad am</w>
A ll</w>
5 0-
4 1</w>
,0 00-
z h
wi el
vir al</w>
vi o</w>
vari eties</w>
un skilled</w>
twenti eth-century</w>
time -
tic es</w>
ti bility</w>
ten th</w>
t ally</w>
squ a
spillo ver</w>
sid ed</w>
sh ops</w>
ri ched</w>
resig nation</w>
re patri
rati fy</w>
pul ling</w>
prosecu tors</w>
prohibi tion</w>
proce edings</w>
pre occupied</w>
poss ession</w>
plun ged</w>
plan es</w>
pl as
per verse</w>
pen alties</w>
paraly zed</w>
p ages</w>
out breaks</w>
orthodo x</w>
om y</w>
occup y</w>
nation- states</w>
mp ed</w>
moun t</w>
metri cs</w>
may or</w>
m ation</w>
loc ally</w>
lo aded</w>
langu ages</w>
l ack
j ar
institu tion
inst on</w>
innov ators</w>
in visible</w>
in compatible</w>
in ating</w>
impris onment</w>
ill er</w>
ge ly</w>
g nan
g ents</w>
fle e</w>
er ra</w>
end er-
en riched</w>
el- Qaddafi</w>
dis en
dis closure</w>
dis advantaged</w>
deep ened</w>
dec ides</w>
cur ve</w>
cro ssed</w>
concep tion</w>
colon i
colle ague</w>
co o
clean er</w>
classi fied</w>
celebr ated</w>
cataly st</w>
buff er</w>
bu s</w>
bloc ks</w>
bir th
be ar
b yp
author ized</w>
accommod ation</w>
acc ru
W inston</w>
Tw o</w>
Te h
Sto ck
SP D</w>
Res olution</w>
R ab
O ld</w>
O A</w>
K ho
Himal ay
Gü len</w>
G NP</w>
FS B</w>
F BI</w>
EM U</w>
Ch er
B lack</w>
6 3</w>
6 2</w>
3. 2</w>
196 8</w>
world view</w>
tu de</w>
transl ated</w>
transi t</w>
ti ers</w>
tac tic</w>
sub mitted</w>
speci alists</w>
six th</w>
sie ge</w>
shor tly</w>
sh ut
sh i</w>
sh ale-
s ance</w>
rul er</w>
requ est
repu di
real m</w>
re public</w>
re productive</w>
pen insula</w>
pa ths</w>
out weigh</w>
opa que</w>
ol era</w>
obsc ure</w>
newcom ers</w>
mu tu
me work</w>
loo m</w>
lic en
liber ation</w>
l ling</w>
insur gents</w>
inste in</w>
inspir ing</w>
inf am
indic ating</w>
in ner</w>
imper atives</w>
illustr ates</w>
ili tary</w>
hu gely</w>
ha vens</w>
grid lock</w>
faste st</w>
expl oring</w>
ex ported</w>
emb ol
dur ation</w>
disrup ted</w>
dispos able</w>
dis orders</w>
descri bing</w>
con vention</w>
com posed</w>
co m</w>
classi cal</w>
civili zed</w>
c al-
bot tom
bo y</w>
aw i</w>
anti- establishment</w>
am ed</w>
ais sance</w>
advanced- country</w>
Z ed
Os ama</w>
Fra mework</w>
CD U</w>
Argent ine</w>
An ti
Alex ander</w>
Af D</w>
1 30</w>
ä u
ye ar
weak ens</w>
wat ch
vo id</w>
viol ating</w>
tum n</w>
tra uma</w>
the re
t reasury</w>
t ent
survi v
stil l-
sp her
short- lived</w>
sett ings</w>
scap ego
roc ket</w>
respon ds</w>
resemb les</w>
reig ns</w>
re tains</w>
pro- European</w>
portra yed</w>
pay roll</w>
p ile</w>
p ho
orche str
ol ly</w>
occup ations</w>
nati vi
mur dered</w>
mi sunder
mee ts</w>
me ddling</w>
mar ried</w>
lob by
liter ature</w>
life style</w>
k in</w>
independ ently</w>
in competence</w>
human e</w>
hope ful</w>
ho sting</w>
harass ment</w>
fis cal-
extra ordinarily</w>
engine ered</w>
employe e</w>
domin ation</w>
discre tionary</w>
discoura ging</w>
disco veries</w>
diaspor a</w>
defin es</w>
decision- makers</w>
dec eler
cor responding</w>
continu ity</w>
condem n</w>
con qu
co ffe
champi ons</w>
ch ess</w>
ca sh-
c em
bizar re</w>
bi ased</w>
be ating</w>
bacter ia</w>
ar agu
analy ses</w>
amend ment</w>
advoc acy</w>
acknowle dging</w>
a than</w>
Wol f
V ar
U ru
Tran sat
So li
Sen kak
SD G</w>
R em
Pro te
Nic aragu
N av
M au
Le one</w>
D ig
Conserv atives</w>
Com prehensive</w>
C ong
5 3</w>
4 9</w>
3. 3</w>
wealth iest</w>
un comfortable</w>
u tive</w>
sw ings</w>
sur ances</w>
str ingent</w>
spar ked</w>
socie tal</w>
safe guar
s ad</w>
ref er</w>
recover ing</w>
reas ser
re sign</w>
re porters</w>
radic alism</w>
quali ties</w>
prosp er</w>
proced ure</w>
pre gnan
pleas ant</w>
pl er</w>
piec es</w>
par ticles</w>
p apers</w>
over capacity</w>
optim ists</w>
one- fifth</w>
occa sions</w>
mer ly</w>
loc king</w>
ligh tenment</w>
law yer</w>
ju red</w>
jihadi sts</w>
is en
intrac table</w>
in form</w>
hom o
hero ic</w>
grass roots</w>
gl om
fundament alists</w>
fundament alist</w>
fortun es</w>
for merly</w>
for ging</w>
fooli sh</w>
ferti le</w>
fe ld</w>
ent ang
en comp
elev ated</w>
ec utive</w>
e es</w>
e al</w>
di et</w>
develop ers</w>
depos itors</w>
delic ate</w>
crow ds</w>
cou ldn</w>
constitu ency</w>
con sp
coerci on</w>
cla shes</w>
choo ses</w>
blam ing</w>
ban ker</w>
balance-of- payments</w>
automob iles</w>
au d
as -
arre n</w>
ar bon
amoun ting</w>
allevi ate</w>
alig n
algorith ms</w>
a ire</w>
W arren</w>
Transat lantic</w>
T F
St ar</w>
Si erra</w>
Sch äu
SD R
Pra desh</w>
Or thodo
O S
N ai
Man agement</w>
M ag
Kash mir</w>
K at
Israel -
Holl ywood</w>
H ist
Gu ard</w>
F ro
Ex ecutive</w>
En lightenment</w>
Austri an</w>
Af for
A L
6 4</w>
5 4</w>
2. 8</w>
with drew</w>
weigh ed</w>
war ding</w>
volum es</w>
us er</w>
unil ateralism</w>
un rav
tw enty</w>
th ful</w>
sur ged</w>
sup pression</w>
sup plying</w>
strength ens</w>
st up
squee ze</w>
siz eable</w>
shel ter</w>
sh opping</w>
sh ly</w>
sen ators</w>
scre ening</w>
row s</w>
protec ts</w>
prolif er
prim acy</w>
pre emp
portra y</w>
pil ot</w>
pe t</w>
pe ers</w>
pass es</w>
oper ated</w>
neg li
my self</w>
mus c
multin ation
multination als</w>
mon ia</w>
mon archy</w>
mi x
me g
list ening</w>
lag s</w>
ke ep
k ingly</w>
j unc
in vention</w>
impris oned</w>
il le</w>
hol m</w>
ho le</w>
glu t</w>
gam ble</w>
f ati
ex pressing</w>
et c</w>
ende av
de pressing</w>
cont empt</w>
consequ ently</w>
cha e
campaig ning</w>
bro thers</w>
bo ats</w>
bl at
bel t</w>
bar ring</w>
b lan
autom ated</w>
autocr ats</w>
asser ting</w>
announ cing</w>
air ports</w>
ag on</w>
abrup t</w>
ab e</w>
V e
Stock holm</w>
Schäu ble</w>
R C</w>
Presid ent-elect</w>
Pra gue</w>
Op en</w>
Mu eller</w>
J CP
JCP OA</w>
Inter governmental</w>
E mir
Dre am</w>
Deb t</w>
Ch all
Affor dable</w>
7 7</w>
4 6</w>
2. 1</w>
y our
wi den</w>
weap on
virtu es</w>
underp ins</w>
tan k</w>
sub mit</w>
stric ter</w>
stret ch</w>
slau ghter</w>
sequ ence</w>
sec uri
se l</w>
re jects</w>
publi sh</w>
pol ling</w>
patri o
particip ated</w>
ocr acy</w>
nerv ous</w>
multip lier</w>
moderni zing</w>
mil est
metaph or</w>
meas ur
mathemati cs</w>
mat ches</w>
lob by</w>
liqu id
lean ing</w>
jihadi st</w>
inv ent</w>
il a</w>
ic ked</w>
gi ft</w>
ger y</w>
fu ri
fro zen</w>
fra med</w>
for ged</w>
fastest- growing</w>
f ever</w>
expe di
exc iting</w>
err atic</w>
end ure</w>
el abor
e ting</w>
e ating</w>
don ations</w>
divi sive</w>
cushi on</w>
cur tail</w>
counter ing</w>
conver t</w>
conven ed</w>
co ol</w>
cle ver</w>
chau v
business -
be ts</w>
be lli
b one</w>
asu ries</w>
aris ing</w>
an ian</w>
ak ers</w>
ag e
acceler ation</w>
a ven
Willi am</w>
Uru gu
Ric a</w>
Per sian</w>
P aul
Nor theast</w>
Mil ton</w>
Ma y
M Ps</w>
Lux emb
J az
Dig ital</w>
Americ as</w>
9 9</w>
6 ,000</w>
198 8</w>
19 40</w>
19 29</w>
1. 9</w>
vigor ous</w>
un balanced</w>
ultra- low</w>
ul es</w>
trans mitted</w>
tra des</w>
ti k</w>
thre w</w>
technolo gy-
technolo gically</w>
success ors</w>
sti fl
st ops</w>
shoc ked</w>
scra m
s lack</w>
s ab
ri ft</w>
restric tive</w>
remedi es</w>
re warded</w>
re tained</w>
puzz le</w>
puni tive</w>
prec arious</w>
pre requisite</w>
post- Soviet</w>
pl ann
patrio tism</w>
pan- European</w>
p in</w>
ol ds</w>
mone tization</w>
mom ents</w>
moder nity</w>
macro -
low- wage</w>
l ds</w>
l as</w>
know -
inf ant</w>
inclu siveness</w>
hom eland</w>
hard liners</w>
gen cies</w>
gan g</w>
ful ness</w>
fle dged</w>
fasci st</w>
f asc
e era</w>
e ag
disappoin ted</w>
dis orderly</w>
deter rent</w>
d ance</w>
cyber space</w>
cred entials</w>
conveni ence</w>
connec ting</w>
cle an-
ch enko</w>
bro ker</w>
bless ing</w>
bet ting</w>
arm ies</w>
ar rhe
ap ping</w>
ai res</w>
adv ent</w>
accumul ating</w>
Sil vio</w>
Senkak u</w>
Po st</w>
P la
No w</w>
Man ch
L os</w>
Jaz eera</w>
IF A</w>
Gu ine
Franco- German</w>
F our
Cul tural</w>
Chin ese-
C apit
Armen ia</w>
A la
A ir</w>
8 ,000</w>
0. 3</w>
- P
vic tories</w>
vari ed</w>
v ag
unfol ding</w>
ucr ative</w>
tri pled</w>
tim icro
tal ked</w>
take over</w>
sugg estion</w>
st ors</w>
spirit ual</w>
spher ic</w>
smar ter</w>
smar t
sim ists</w>
sacrific es</w>
s orts</w>
robo tics</w>
rin ge</w>
resist ing</w>
re tren
pre tend</w>
poli tik</w>
polar ized</w>
per cent</w>
occup ying</w>
mobili zation</w>
mili tary-
mili tar
man tra</w>
log istics</w>
l ucrative</w>
l ingu
isolation ism</w>
in o</w>
ho sts</w>
hand ling</w>
ha bi</w>
gl ance</w>
geo politics</w>
g lac
exam ination</w>
embar ked</w>
divi ding</w>
dis sid
dela ys</w>
dec ou
compas sion</w>
com e
collap ses</w>
coffe e</w>
ck -
cha m
ch olera</w>
bran ches</w>
bet ter-
basi cally</w>
asser tion</w>
analy ze</w>
adjust ing</w>
Teh ran</w>
P y
Kar l</w>
G am
Fo x</w>
F IFA</w>
Di se
D ani
Cong o</w>
Bhu tto</w>
B un
A tom
- related</w>
yiel ded</w>
uti lity</w>
up ris
upris ings</w>
un checked</w>
tu ous</w>
trav eled</w>
text book</w>
tail ored</w>
sustain ably</w>
sub du
stabili zed</w>
sign aling</w>
serv ants</w>
rou gh</w>
rol led</w>
resur gence</w>
rel ating</w>
rati fication</w>
rail way</w>
prob able</w>
pro gre
press es</w>
pre- industrial</w>
pre pa
pl astic</w>
pes simists</w>
on able</w>
observ ation</w>
o es</w>
mp s</w>
manipul ated</w>
man -
m igh
leng th</w>
jeopardi zing</w>
iner tia</w>
hypo crisy</w>
hybri d</w>
horri fic</w>
he ter
f ers</w>
experim entation</w>
experim ental</w>
epi demics</w>
entit lement</w>
end ants</w>
dom ain</w>
do ses</w>
dis d
dat a-
crypto currencies</w>
continu ation</w>
collabor ative</w>
coinci dence</w>
civili zations</w>
charis matic</w>
broad ening</w>
au tumn</w>
aren a</w>
advan cement</w>
ado lesc
accord ance</w>
Urugu ay</w>
T en
T O
Sh i</w>
SW Fs</w>
S lovakia</w>
Pl en
Pe ter
Nicaragu a</w>
NG O</w>
Mu ham
M en
Jong- il</w>
In stitu
Four th</w>
Emir ates</w>
Car ter</w>
Bos ni
B a
197 8</w>
virtu ous</w>
up grade</w>
under go</w>
trivi al</w>
ti p</w>
the ft</w>
ter nal</w>
ta o</w>
swi ft</w>
supervis ory</w>
subsidi ze</w>
sub tle</w>
su itable</w>
su ic
sta yed</w>
speci fied</w>
sim pler</w>
sh ir
sensi tivity</w>
sec tion</w>
se arching</w>
s inc
retire es</w>
religi ons</w>
rel atives</w>
referen da</w>
reas sure</w>
real- world</w>
re y</w>
prosecu tion</w>
predic tability</w>
predic ament</w>
pl ague</w>
persist ence</w>
per il</w>
patri otic</w>
overwhel med</w>
over look</w>
ob struc
nostal gia</w>
multi polar</w>
mer chan
m ad
lo fty</w>
lic ense</w>
jum p</w>
imp acts</w>
ill erson</w>
hol d
her itage</w>
g au
fu tile</w>
fru its</w>
fra ught</w>
flou ri
fasci sm</w>
f ans</w>
extr act</w>
evi den
escal ate</w>
en sured</w>
dissid ents</w>
democr ati
deman d-
d war
coura ge
conflic t-
con sump
compar ing</w>
commod ity-
comb ines</w>
com promising</w>
co lo
clim b</w>
character istic</w>
bur n</w>
boo sts</w>
bi ome
back ward</w>
b ent</w>
assemb led</w>
as surances</w>
ar ts</w>
anti ago</w>
an cho
an ced</w>
al as</w>
ai ded</w>
ab ao</w>
Tibet an</w>
T illerson</w>
Ste ph
S antiago</w>
Ro dri
Nai ro
N ik
Mor ales</w>
Ji abao</w>
Har ry</w>
G CC</w>
D om
B on
8 8</w>
200 ,000</w>
197 2</w>
195 0s</w>
194 8</w>
194 7</w>
19 20</w>
0. 2</w>
yi v</w>
wor n</w>
w re
v ess
vess els</w>
under scored</w>
un equi
u an</w>
tt ers</w>
transform ational</w>
temp ting</w>
teach er</w>
tap e</w>
t une</w>
sp aw
self- fulfilling</w>
sc ant</w>
s lows</w>
ro gue</w>
respon sibly</w>
rep lied</w>
red und
re paid</w>
pi e</w>
pe g</w>
pan els</w>
our ing</w>
on ics</w>
obs essed</w>
o lic
nuclear- weapons</w>
national- security</w>
n ate</w>
minim izing</w>
mili tia</w>
mil k</w>
meaning less</w>
mag ni
mag ic</w>
m es
land mark</w>
l or</w>
join tly</w>
influ ences</w>
hypo thesis</w>
har ness</w>
ha sn</w>
gal van
fic tion</w>
fast- growing</w>
ex propri
ev al
eval uation</w>
en forcing</w>
economic- policy</w>
du al</w>
dro pping</w>
dra ws</w>
dispar ate</w>
diagno sed</w>
di arrhe
dead line</w>
cron ies</w>
cont end</w>
comple ting</w>
comp ound</w>
commit tees</w>
coll ar</w>
cha otic</w>
ch ment</w>
ch e</w>
c iting</w>
c ents</w>
bru tality</w>
behavi ors</w>
at en</w>
ass ing</w>
abund ance</w>
a w</w>
W ah
St at
St .</w>
S R</w>
R yan</w>
Pro ble
Orthodo x</w>
Medic aid</w>
M ali
M GI</w>
Lar ry</w>
K yiv</w>
G al
D il
Cri minal</w>
Commun ism</w>
Colom bian</w>
Cath olic
Afri can-
198 5</w>
z ai</w>
worth while</w>
wh olly</w>
well- functioning</w>
use less</w>
up dated</w>
uniqu ely</w>
un regulated</w>
um i</w>
top- down</w>
top ics</w>
tigh tened</w>
ti pping</w>
th r
super vi
stri ve</w>
separ atist</w>
sen s
self- determination</w>
sel ective</w>
sel dom</w>
sav vy</w>
sac red</w>
ru m</w>
rin ce</w>
ri dic
res olu
rec our
recour se</w>
re views</w>
re sum
publi ci
proper ties</w>
possess es</w>
plun ge</w>
pers ons</w>
one- party</w>
mon arch
mo tive</w>
mix ture</w>
mir ror</w>
measur able</w>
man dates</w>
lo ad</w>
live stock</w>
life styles</w>
know- how</w>
kill er</w>
it ary</w>
investig ate</w>
inter dependent</w>
inf lam
in tr
im it
ic h
i shing</w>
i res</w>
i -
guarante eing</w>
gh o
gest ure</w>
forese e</w>
fertiliz er</w>
f le</w>
f es
exist ent</w>
ex posing</w>
e- commerce</w>
dra stic</w>
develop s</w>
devast ation</w>
determin es</w>
dec arbon
deb acle</w>
d arity</w>
consp ic
confron ts</w>
condi tionality</w>
con tested</w>
coal- fired</w>
champi oned</w>
cap turing</w>
block chain</w>
aw k
audi ences</w>
ati sts</w>
apolo gi
anti-Semi tic</w>
acqu iring</w>
Soli darity</w>
Rus sian-
Pow ell</w>
P lan
Nairo bi</w>
Moham mad</w>
Ma j
Ki -
Int elli
H ou
H al
Govern ing</w>
D ata</w>
Cypri ot</w>
An tar
8 2</w>
5 9</w>
5 8</w>
5 6</w>
zy ń
z om
y ang</w>
xenopho bic</w>
xenopho bia</w>
wi sh
we ar</w>
vi ability</w>
v on</w>
us tices</w>
under score</w>
un tenable</w>
un even</w>
tyran ny</w>
tiv ity-
timicro bial</w>
thor ough
tal e</w>
stri fe</w>
spo kes
sp ill</w>
sh y</w>
sh enko</w>
sec ession</w>
s am
s ali
s .</w>
prepar ation</w>
prece ding</w>
popul ous</w>
plan ting</w>
ol a</w>
of i</w>
ni e</w>
neighbor hoods</w>
mis ses</w>
mil d</w>
mer t</w>
manipul ating</w>
ma ke
lic ally</w>
legisl ature</w>
lea p</w>
kill ers</w>
ki ds</w>
int act</w>
infl ated</w>
ind ul
incumb ents</w>
illi qu
ho c</w>
h all
fran ch
financi ers</w>
fashi oned</w>
far ther</w>
ext inc
expec ting</w>
ed y</w>
dys function</w>
dis c
diplom at</w>
design ated</w>
depreci ate</w>
de eds</w>
d ent
cu sto
consolid ated</w>
comm en
cha ired</w>
centri c</w>
catch -up</w>
canc eled</w>
bra ins</w>
blu e-
bi o-
bi ases</w>
ban ning</w>
ar de</w>
any more</w>
ain e</w>
acquisi tion</w>
Zed ong</w>
Z uma</w>
X in
Ro hing
Ra j
P LO</w>
Ol mert</w>
Ne w
N ie
Lag arde</w>
L DP</w>
Ko h
Kac zyń
Jin tao</w>
IA EA</w>
I r
H y
H om
F ide
F ar
Cent ury</w>
Balk an</w>
Aca demy</w>
5 .5</w>
198 4</w>
197 4</w>
&apos; m</w>
y ans</w>
war time</w>
volun tarily</w>
vo y</w>
vers a</w>
ul ation</w>
tri ck</w>
touri sts</w>
top pled</w>
the or
t ted</w>
t our</w>
supp lier</w>
sup ran
stret ched</w>
st es</w>
st ating</w>
side lines</w>
sever ity</w>
self- defense</w>
s light</w>
s k</w>
rescu ed</w>
rel s</w>
rel ates</w>
recru it
ra pe</w>
ra inf
quot a</w>
public- debt</w>
pre gnant</w>
pre clu
practition ers</w>
pla in</w>
pla in
per -
pat er
p ap
moun tain</w>
market place</w>
m ile</w>
law makers</w>
intr insi
infam ous</w>
individu ally</w>
in ate</w>
i to</w>
high s</w>
hegem on</w>
gra ms</w>
gen i
fron t
foot print</w>
fo od-
fil ms</w>
fear ful</w>
fati gue</w>
fam ine</w>
ever s</w>
er o</w>
emplo ying</w>
dra gged</w>
distric t</w>
discipl ines</w>
dis appearance</w>
de lu
convic ted</w>
contempl ate</w>
consump tion-
conclu des</w>
con firms</w>
compens ated</w>
comm emor
comb at
co vers</w>
co des</w>
clu bs</w>
clo ck</w>
cle ar
campaig ned</w>
brilli ant</w>
bre ach</w>
bot t
be ef</w>
bal lo
bab a</w>
atri c</w>
atom ic</w>
assess ed</w>
adap ting</w>
ac tiv
absor bed</w>
ab ad</w>
Wor k</w>
U ri
U p</w>
Sor os</w>
S now
RM B</w>
Po or</w>
Mo z
Mass ach
Mac ed
M F
Luxemb our
L A</w>
Ky i</w>
Jo int</w>
Intelli gence</w>
G ore</w>
Fac ility</w>
FS F</w>
De puty</w>
Cro ati
Con tro
Ci ti
Catal onia</w>
Atom ic</w>
Ali baba</w>
7 3</w>
6 6</w>
5 1</w>
199 7-
ye ster
who w</w>
wealth ier</w>
vi vi
ur ging</w>
univers ally</w>
un usually</w>
tis sue</w>
thorough ly</w>
t estim
subdu ed</w>
su preme</w>
str ing</w>
sto len</w>
start- ups</w>
stagn ating</w>
spar k</w>
sp he
sove reigns</w>
sli ding</w>
sist er</w>
shor ter</w>
shi pping</w>
sc our
run k</w>
ro yal</w>
rid den</w>
rich et</w>
requ ests</w>
reck oning</w>
read iness</w>
rainf all</w>
psycho lo
prud ence</w>
prosecu tor</w>
produc tivity-
ph ate</w>
peti tion</w>
peculi ar</w>
ow ning</w>
or able</w>
op poses</w>
neutra li
ner -
nai ve</w>
n ish</w>
mur der
mosqu it
mer gers</w>
me tro
man dated</w>
lobby ists</w>
lef t-
keep ers</w>
k ick
ji ang</w>
is i</w>
inc lin
imperi alism</w>
impe tus</w>
il y-
ideolo gies</w>
hot el</w>
hor rors</w>
good will</w>
foun ders</w>
formul ate</w>
fish eries</w>
extern alities</w>
ex o
escap ed</w>
end angered</w>
eas ed</w>
dyn asty</w>
du s</w>
diver t</w>
dis information</w>
di t</w>
devi sed</w>
devast ated</w>
deterior ated</w>
de tri
de l
d row
cur bing</w>
critici zing</w>
coun cil</w>
conver ge</w>
consist ency</w>
com bu
charis ma</w>
candid acy</w>
c el
battle field</w>
athle tes</w>
at tainment</w>
apo le
an dered</w>
ad mi
ab ound</w>
W ill</w>
T richet</w>
Su u</w>
Snow den</w>
Res pon
Re gul
P rince</w>
O ur</w>
N apole
Muham mad</w>
L ou
L or
Ki- moon</w>
Kaczyń ski</w>
Hur rican
H igh
H ass
Environ ment</w>
Dar win</w>
Com mis
Catholic s</w>
C N
B M</w>
Arab- Israeli</w>
A ri
A D</w>
1 60</w>
é s</w>
work able</w>
wor lds</w>
wid ened</w>
w rec
vent ures</w>
unanim ously</w>
un veiled</w>
un ted</w>
transf erring</w>
tr ust
tot alitarian</w>
thin ess</w>
tap ped</w>
t ts</w>
surp ass</w>
supran ational</w>
stri p</w>
sti pul
st aged</w>
squ andered</w>
spear headed</w>
simultane ous</w>
sig nature</w>
short- run</w>
se ed</w>
se ated</w>
safeguar ding</w>
s é</w>
s ession</w>
rum ors</w>
ru pe
renew able-
regre t</w>
re memb
rali zation</w>
pursu es</w>
pre valent</w>
power house</w>
pi vot
paralle ls</w>
over heating</w>
oper ators</w>
nu anced</w>
not ing</w>
no by
mo de</w>
mas sively</w>
local- government</w>
liber alizing</w>
lab el</w>
k is</w>
ir o</w>
inqu iry</w>
in jured</w>
implic itly</w>
i z</w>
hear t
health care</w>
gir l</w>
gen om
g ans</w>
full- blown</w>
ev ille</w>
eng en</w>
end ow
ele ph
ear ners</w>
e gre
disil lu
deterior ate</w>
deple ted</w>
dam s</w>
cra fted</w>
constitu ents</w>
consci ousness</w>
co w</w>
cheap ly</w>
ce ase</w>
c ell
bur ge
bul lying</w>
br is</w>
bon d-
bomb ings</w>
bab ies</w>
b id
ati ve-
arsen als</w>
all- time</w>
aca dem
Tay lor</w>
Sch engen</w>
Rohing ya</w>
Poli t
O ver</w>
ME NA</w>
Lat via</w>
L im
Hurrican e</w>
Hist ory</w>
H ome</w>
Guine a</w>
Gu at
C an</w>
Bulg aria</w>
Americ an-
7 6</w>
5 2</w>
ñ a</w>
whole sale</w>
water shed</w>
wal king</w>
vigor ously</w>
ver dict</w>
ven ge
vari able</w>
use tts</w>
unrav eling</w>
un conditional</w>
ti vi
though tful</w>
text books</w>
te -
t wee
swi f
sur gical</w>
supp lied</w>
str ang
ster ili
star vation</w>
star kly</w>
st am
sou l</w>
smo oth
simil arities</w>
se gment</w>
sal ary</w>
ro man
risk ier</w>
reven ge</w>
retren chment</w>
remin ds</w>
recru it</w>
rec y</w>
re dress</w>
rav aged</w>
radic alization</w>
propor tions</w>
pro- growth</w>
pro p</w>
pneu monia</w>
plas tics</w>
plann ers</w>
pe er-
oun cing</w>
ori a</w>
olo gist</w>
ol ed</w>
off setting</w>
now -
non- performing</w>
min es</w>
mili tari
man n</w>
magaz ine</w>
lo oms</w>
ling ering</w>
la yed</w>
l ur
knowled ge-
kno whow</w>
kid n
ir onic</w>
ir i</w>
invo ked</w>
interf ere</w>
injec tions</w>
indic es</w>
holi day</w>
he li
haw ks</w>
hab ili
ha iled</w>
ge o-
g ig
fric tion</w>
foreign- currency</w>
fis cally</w>
fin es</w>
fet tered</w>
fav oring</w>
fai rer</w>
eu ph
er as</w>
er als</w>
ent ers</w>
endor sement</w>
en ess</w>
employ er</w>
e lic
duci ve</w>
disman tle</w>
discoura ged</w>
dis gr
dis ability</w>
di am
desig ns</w>
depar tments</w>
con ducive</w>
complic ations</w>
comp ul
cle aring</w>
circul ation</w>
char ity</w>
cha pter</w>
celebr ation</w>
ce l</w>
c able</w>
bran ds</w>
blood shed</w>
bl unt</w>
beli evers</w>
be dro
bail ed</w>
b its</w>
at ly</w>
asym metric</w>
ast er</w>
ap p</w>
ann u
an om
alien ated</w>
addic tion</w>
Y asu
Wor kers</w>
Uri be</w>
Thre e</w>
Taiw anese</w>
Steph en</w>
Scandinavi an</w>
S en</w>
Q E
P ot
O DA</w>
Mur do
Mau ri
Massach usetts</w>
K ofi</w>
Jour nal</w>
Jo sé</w>
Ho w</w>
Hi ro
Hass an</w>
Guat em
Go od</w>
G r
Environ mental</w>
Comm on</w>
Cher noby
Ch o
CC S</w>
A sh
2007- 2008</w>
. e
x ies</w>
worsen ed</w>
w rought</w>
vo ic
vari ant</w>
v ention
utili ties</w>
un fettered</w>
two- year</w>
turbul ent</w>
tor -
toler ant</w>
tion alism</w>
th es</w>
spot light</w>
sphe res</w>
sp ared</w>
small -scale</w>
sha ke</w>
separ ated</w>
sec recy</w>
se a-
rou tes</w>
rend ering</w>
reli ant</w>
ref erring</w>
recapit alization</w>
re habili
re financing</w>
ran kings</w>
premi ums</w>
pre mise</w>
posi tively</w>
pas sion</w>
ous ed</w>
ori ously</w>
or gans</w>
non- tradable</w>
n ya</w>
measu rement</w>
m ic
li ver</w>
li ked</w>
lac ed</w>
la st-
iz umi</w>
isol ate</w>
ir ut</w>
incorpor ate</w>
in sured</w>
hom os
gra in</w>
feren tial</w>
fam ily-
ex act</w>
ethn icity</w>
ero ding</w>
en counter</w>
echo s
d ental</w>
cor rid
cl oud</w>
char t</w>
cataly ze</w>
capit alized</w>
bo at</w>
bi e</w>
ar ose</w>
appropri ately</w>
ap ped</w>
am eli
alle gi
adver t
W ay</w>
V ir
Stand ard</w>
Mit t</w>
Luxembour g</w>
Ko izumi</w>
K or
In no
Ham il
H on
Gu ang
Fi ve-
E I
Democr at</w>
Dani el</w>
Cz echos
Col um
C L
Ber nie</w>
Be irut</w>
A zer
A mend
8 6</w>
4 ,000</w>
3. 4</w>
your self</w>
yester day</w>
writ es</w>
w w
w aging</w>
voc ational</w>
ven tions</w>
vari ations</w>
und rum</w>
ul ty</w>
ul arly</w>
u ously</w>
twe ets</w>
tra ins</w>
ti sts</w>
ti fied</w>
tabo o</w>
swif tly</w>
surviv ors</w>
supre m
succum b</w>
su spend</w>
stub bor
skep tic</w>
seem ing</w>
s ory</w>
roc ke
rival ries</w>
reti re</w>
renewable- energy</w>
remar ks</w>
relent lessly</w>
recover ies</w>
re thinking</w>
publi shing</w>
prohi bit</w>
priori tize</w>
perio dic</w>
pat ron
p aci
nouri shed</w>
nation ality</w>
mitig ated</w>
minist erial</w>
me tic</w>
lo s</w>
kov sky</w>
k ow
ju ana</w>
ji had</w>
is ure</w>
inv ite</w>
inter ior</w>
inflic t</w>
ineffici ency</w>
indic ations</w>
in advert
identi fication</w>
id al</w>
hurrican es</w>
humili ating</w>
hor se</w>
hon est
high- speed</w>
harmon y</w>
han ging</w>
h il
g ender-
fre ed</w>
fo reg
f law</w>
endor se</w>
drug- resistant</w>
dollar -denominated</w>
dis ab
direc tions</w>
deri ve</w>
depreci ated</w>
d wind
curricul um</w>
crum bling</w>
coordin ating</w>
contradic tions</w>
complic ating</w>
commun al</w>
collec ting</w>
clo thing</w>
clari fy</w>
ci ous</w>
calcul us</w>
bo sses</w>
bloc s</w>
bl ur
bid ding</w>
back stop</w>
articul ated</w>
an is</w>
an ic</w>
align ment</w>
al tered</w>
ain s</w>
aim ing</w>
Tw enty-
Sovie ts</w>
Sec urities</w>
S und
R um
Proble m</w>
P E
OM T</w>
OM C</w>
O ut
Mus lim
M ob
M BS</w>
L ev
L ef
Kir ch
Ha ye
H indu
Gü len
Georgi an</w>
Five- Year</w>
Est onia</w>
E instein</w>
D on
D mit
Czechos lovakia</w>
Contro l</w>
Chech nya</w>
CB O</w>
C N</w>
B ot
197 5</w>
.e .</w>
who ever</w>
vis a</w>
veri fication</w>
us age</w>
under ing</w>
un imaginable</w>
tor tured</w>
testim ony</w>
ta ste</w>
sub scri
sub jec
stra ined</w>
stat ure</w>
sh chenko</w>
sanc tu
s em
ro ck</w>
reiter ated</w>
re w
re taining</w>
re ne
prefer able</w>
pivot al</w>
pas sionate</w>
pa tho
out lined</w>
out -
or a</w>
ocr atic</w>
obser ver</w>
non- tariff</w>
navi g
mid term</w>
medi ocr
manag er</w>
loc ate</w>
law suits</w>
lab eled</w>
l ongest</w>
ke ys</w>
ke red</w>
k un
k an
ju st-
inter vention
in put</w>
id le</w>
i .e.</w>
hu bris</w>
hier archy</w>
han gs</w>
h r
gran ting</w>
gra b</w>
gr at
forese en</w>
exp on
exc itement</w>
eth os</w>
est -
es el</w>
en tran
emin ent</w>
e less</w>
dor kovsky</w>
diarrhe a</w>
dela ying</w>
dec ay</w>
country side</w>
conver sion</w>
cont acts</w>
comple tion</w>
comman der</w>
coloni alism</w>
col li
co vert</w>
co ined</w>
ch ant</w>
burge oning</w>
broad cast</w>
bre ath
bol stered</w>
bo ss</w>
bir ds</w>
b ering</w>
aw at
autocr acy</w>
attribu table</w>
att ached</w>
ass er</w>
ancho red</w>
ameli or
am ne
ak i</w>
adhe rence</w>
Wester ners</w>
Uni versal</w>
T B
Ser ge
San tos</w>
Sam u
O range</w>
Mal aria</w>
Ma o
M N
Koh l</w>
Kho dorkovsky</w>
Je re
Jan et</w>
Glob alization</w>
Fro m</w>
F a
F OMC</w>
ES M</w>
Croati a</w>
Con tin
Colum bia</w>
Anglo- Sa
Amend ment</w>
7 2</w>
2 5-
won dering</w>
wish ful</w>
we aring</w>
wan ing</w>
ver sions</w>
vent e
un ci
u bi
ubi qu
th ou
thou ghts</w>
taxpay er</w>
tac it</w>
sym path
suprem acy</w>
su al</w>
stri des</w>
stre sses</w>
stra ight</w>
stifl ing</w>
ste er</w>
sp aces</w>
sh attered</w>
set back</w>
self- serving</w>
se vente
se um</w>
se arch
ro iled</w>
request ed</w>
rel la</w>
regul ator</w>
re vision</w>
re publics</w>
ran dom
prote ins</w>
process ed</w>
po l</w>
ple ase</w>
pil es</w>
pe aked</w>
pan demic</w>
pa ved</w>
p ause</w>
out pac
or ph
ni al</w>
ne t-
natural- resource</w>
mat ching</w>
man kind</w>
m emo
li min
leng thy</w>
le vi
le isure</w>
labor atory</w>
l oud</w>
jun ta</w>
jour nal</w>
incorpor ated</w>
in stances</w>
ik h</w>
hu bs</w>
hi ding</w>
happ ily</w>
guil t</w>
grou ping</w>
glom er
gli mp
g lar
for gi
fin ish</w>
f itting</w>
f iled</w>
f ec
euro- zone</w>
equ ation</w>
en cro
eigh teenth</w>
egre gious</w>
e z</w>
dest ag</w>
deduc tions</w>
decade s-
de tain
de partment</w>
cross roads</w>
criter ion</w>
cri ti
courage ous</w>
countr y-
conven e</w>
contribu tor</w>
cont ingent</w>
constra ining</w>
condem ning</w>
concer t</w>
comparis ons</w>
commen sur
collabor ate</w>
co ff
cate gor
capit alists</w>
bu ried</w>
bol stering</w>
au sp
attribu te</w>
as pi
articul ate</w>
arti sts</w>
academ ia</w>
abstr act</w>
U K
T or
T R
Su per
Sal man</w>
SDR s</w>
Plen um</w>
Pe tro
Muslim -
Mali ki</w>
Li thu
Israel- Palestine</w>
I ron</w>
H ol
D es
Com mer
Chernoby l</w>
Bun destag</w>
B M
A C</w>
7 ,000</w>
3 00,000</w>
2. 9</w>
0. 4</w>
z hou</w>
wee k
top ple</w>
therap ies</w>
surve yed</w>
sup poses</w>
su spects</w>
startu ps</w>
stand point</w>
spons ors</w>
spon tane
sol vency</w>
slog ans</w>
sin k</w>
si le</w>
sha ken</w>
serv ation</w>
self- defeating</w>
se izing</w>
s feld</w>
rhetor ical</w>
revi se</w>
regi ster</w>
rec la
ration ality</w>
ran dom</w>
predic tably</w>
post- communist</w>
post- Cold</w>
pla y
pestici des</w>
per mitting</w>
pass eng
p id</w>
over valued</w>
over arching</w>
ot yp
not oriously</w>
ne ur
n ud
murder ous</w>
meth ane</w>
mari juana</w>
ma sters</w>
ma ster
lor ds</w>
lo cu
la x</w>
l un
kun i</w>
kill s</w>
inv ading</w>
intimid ation</w>
inten d</w>
inc en
in ity</w>
import ers</w>
home grown</w>
hero es</w>
hal ved</w>
fol ly</w>
feder alism</w>
f ringe</w>
exu ber
ex ert</w>
en rich</w>
dri ft</w>
dra stically</w>
dist an</w>
disp layed</w>
disd ain</w>
discrimin atory</w>
disc ern</w>
di p</w>
der ail</w>
declar ations</w>
decade -
cru el</w>
corpor ation</w>
convers ations</w>
construc ting</w>
con science</w>
communic able</w>
cir cu
c enti
c ence</w>
c en
bi om
belong s</w>
bar red</w>
b ic
at able</w>
app alling</w>
amend ments</w>
am az
alternati vely</w>
a uc
Yu shchenko</w>
Yasu kuni</w>
Y ale</w>
T al
Strate gic</w>
Sha h</w>
S el
Rum sfeld</w>
Regi onal</w>
Os borne</w>
Nor dic</w>
N ature</w>
Li fe</w>
Kenne th</w>
J im</w>
J .</w>
G S
Euro zone</w>
E isen
Dam asc
Car ney</w>
An drew</w>
Ala wit
9 00</w>
6 8</w>
- wide</w>
z be
waste ful</w>
uni form</w>
un expec
unexpec tedly</w>
tre ats</w>
take -
t orious</w>
sup pressed</w>
su ffice</w>
stup id</w>
stro ke</w>
sti ble</w>
ster ling</w>
ste pping</w>
stand ardi
squa rely</w>
spillo vers</w>
speci alization</w>
sp ra
sp ell</w>
smo ke</w>
sky rocke
sho ot</w>
retail ers</w>
restra ints</w>
restaur ants</w>
re warding</w>
re par
re new</w>
re negotiation</w>
provi der</w>
promp tly</w>
promp t</w>
pris ons</w>
pre text</w>
pre ferential</w>
plan ted</w>
per il
pe l</w>
pan ace
pa ve</w>
p raised</w>
over see</w>
out going</w>
off ense</w>
not -
non- financial</w>
nation wide</w>
mortg age-
mess y</w>
ment ally</w>
ment ality</w>
mar sh
mac ro</w>
log is
lic ity</w>
law -
intui tive</w>
implo sion</w>
ignor ant</w>
hypo the
he ights</w>
har ve
ge l</w>
full- scale</w>
for mali
fl u</w>
f illing</w>
f an</w>
ex tric
ex iting</w>
ess ing</w>
escap ing</w>
equ als</w>
ep tive</w>
entran ts</w>
embo dies</w>
electr onics</w>
e pest</w>
do gs</w>
discrimin ate</w>
dilem mas</w>
dig it
desc ent</w>
demograph ics</w>
deb ating</w>
d are</w>
contrac ting</w>
consolid ating</w>
conserv atism</w>
condem nation</w>
conce de</w>
clean sing</w>
cali phate</w>
bri efly</w>
b ite</w>
ast -
asser tiveness</w>
asp ire</w>
ap plau
ambigu ity</w>
alloc ating</w>
al tru
accur acy</w>
aboli shed</w>
abi de</w>
Venezuel ans</w>
U zbe
T o</w>
T AR
S p
S ho
OS CE</w>
N TC</w>
Mat te
L aw
L ama</w>
Kur distan</w>
Keyne sians</w>
Jere my</w>
J ud
Hamil ton</w>
G ar
Fis cal</w>
Dan ish</w>
Co ali
C ase</w>
C R
C H</w>
An war</w>
3 0
1 40</w>
0. 0
y ellow</w>
x ation</w>
world- class</w>
won ders</w>
weigh ted</w>
wa ke
w ounded</w>
vic torious</w>
tri c</w>
tot aling</w>
the astern</w>
sym pathetic</w>
sur gery</w>
sti r
stagn ated</w>
st aff
sour ced</w>
smooth ly</w>
short falls</w>
shi eld</w>
sc or
ren t-
reali stically</w>
re viewed</w>
puni shing</w>
provoc ations</w>
prof it-
pro xies</w>
prin ted</w>
prejudic e</w>
pre datory</w>
pl enti
plenti ful</w>
pha sed</w>
persu ading</w>
perpe tual</w>
pen sioners</w>
panace a</w>
outw ard</w>
ou fa
opport un
omin ous</w>
old- fashioned</w>
of ten-
negli gible</w>
multicul tur
long ev
longev ity</w>
log ically</w>
li sm</w>
li a</w>
lea f</w>
land slide</w>
k ind
it a</w>
intere st
insu rers</w>
incre di
in fin
in expensive</w>
in exor
imm unity</w>
i ers</w>
hu d</w>
hor ror</w>
high- profile</w>
hi st</w>
her al
hal ted</w>
h s</w>
g ous</w>
frigh tening</w>
for ward-looking</w>
fe e</w>
export- oriented</w>
exam ining</w>
emb r
elabor ate</w>
educ ating</w>
dri lling</w>
domin ates</w>
dist ort</w>
di ets</w>
desi res</w>
demago gues</w>
de spo
crow n</w>
conver sely</w>
conven tions</w>
contrac ted</w>
contex ts</w>
conf ig
con sen
co sting</w>
class room</w>
car t
buil ds</w>
br unt</w>
b bing</w>
b ag
at ch</w>
astoni shing</w>
ass -
ar ticles</w>
al arm
aggrav ated</w>
adequ acy</w>
ac ul
absor bing</w>
Zion ism</w>
W ik
W ater</w>
US SR</w>
U A
T ari
Ste ag
Soci alists</w>
Shi ite</w>
Sh en
Qu e
Os se
Nic hol
Matte o</w>
L ong</w>
Fi f
D al
Com p
Budd hist</w>
Bar ro
B EA
Anti -
Anglo-Sa xon</w>
9 8</w>
x -
wor st-
wi eld</w>
view ers</w>
v end
un a</w>
there after</w>
t ar</w>
susp ension</w>
super fic
succe eding</w>
sub prime</w>
stu ff</w>
stret ching</w>
spectac le</w>
spe aker</w>
social- media</w>
shut down</w>
shoul der</w>
scour ge</w>
sc aling</w>
s ms</w>
s burg</w>
road map</w>
ris ed</w>
resur rec
rememb ering</w>
recruit ment</w>
re bu
pur ge</w>
protec tive</w>
pre supposes</w>
pp o</w>
politici zed</w>
policy -
plu tocr
petro leum</w>
pan demics</w>
p ouring</w>
oufa kis</w>
ou sted</w>
open- ended</w>
nur ses</w>
modi fication</w>
milest one</w>
mali g
m ust
lobb ies</w>
life- saving</w>
li p</w>
jum ped</w>
job -
j ailed</w>
inv itation</w>
inter governmental</w>
inher it
in competent</w>
in ary</w>
impedi ments</w>
igh ting</w>
ide n</w>
i stry</w>
home ini</w>
hel m</w>
hard ware</w>
full- fledged</w>
for- profit</w>
fet ched</w>
expan ds</w>
ex pressions</w>
es se</w>
ention ally</w>
ene y</w>
encoura gement</w>
en voy</w>
embol d
embo dy</w>
el ty</w>
e x</w>
du le</w>
divi des</w>
disp arity</w>
dict ates</w>
defi ance</w>
def y</w>
d g
curricul a</w>
curi ous</w>
con glomer
compreh end</w>
comp rised</w>
commer ci
combat ants</w>
circum vent</w>
character ize</w>
ce de</w>
campaig ners</w>
c it
bio fuels</w>
bi otechnology</w>
b ind</w>
b ars</w>
b ai
attr acti
attracti veness</w>
atten ding</w>
asym me
accep ts</w>
Z ha
Wi th
W in
Var oufakis</w>
Tre asuries</w>
Sund ay</w>
Steag all</w>
Se tt
R oc
R econ
P C</w>
Niger ian</w>
Nig er</w>
N am
N C
M oun
Lef t</w>
K homeini</w>
K el
H .
G il
F ight</w>
Eura sia</w>
E hud</w>
E FSF</w>
Ch eney</w>
C H
C .</w>
Bu rea
Bhu tan</w>
Barro so</w>
BEA CH</w>
B P</w>
Alban ia</w>
Ab k
A l-
2 P</w>
0. 6</w>
wor thiness</w>
wil dly</w>
wi ves</w>
wea kest</w>
vi an</w>
venge ance</w>
ut op
undeni able</w>
ubiqu itous</w>
traum atic</w>
transc end</w>
tigh tly</w>
ti ve-
th um
ter ies</w>
tain ted</w>
sun g</w>
stubbor nly</w>
sti fle</w>
ste re
sor ry</w>
some time</w>
sle ep</w>
sett lers</w>
schol ar</w>
s che
resha pe</w>
repe ating</w>
ren tal</w>
reli ev
regi on
ra m
r ing
provoc ative</w>
pregnan cy</w>
physici ans</w>
phenomen a</w>
persu asive</w>
pater n
pa y-
ox y
on age</w>
normali ze</w>
non sense</w>
nation als</w>
mo han</w>
mig rate</w>
ly n
loy ment</w>
le xi
lap ping</w>
issu ance</w>
intoler ance</w>
interest ingly</w>
inst all</w>
inform ation-
im moral</w>
hurd les</w>
hier arch
h n</w>
great ness</w>
g ar-
fre sh
forgi veness</w>
exerci sed</w>
environment alists</w>
en tic
econom y-
dish on
differenti al</w>
dent ally</w>
de ar
dear th</w>
da iry</w>
cultiv ate</w>
culmin ated</w>
crip pling</w>
cor ro
cop y</w>
cop per</w>
constitu ted</w>
conc ession</w>
commensur ate</w>
clean ing</w>
chem istry</w>
calam ity</w>
business man</w>
bra him</w>
blo ated</w>
beau ty</w>
b il
au gment</w>
astr on
as ement</w>
ar row</w>
appoin ting</w>
ap h
anonym ous</w>
analo gous</w>
an o</w>
alien ation</w>
affor ded</w>
adj u
ad der</w>
acc using</w>
ac company</w>
abrup tly</w>
a ya</w>
Z h
Y ou
Y es</w>
Wil ders</w>
Wh y</w>
T ah
Spe aker</w>
Ser bian</w>
Se attle</w>
Se as</w>
Salv ador</w>
P in
Murdo ch</w>
Mone y</w>
Mexic ans</w>
Manch ester</w>
Man mohan</w>
Kar zai</w>
IC TY</w>
I ne
I l
Himalay an</w>
Gl ass-
El ection</w>
Damasc us</w>
Coali tion</w>
Chall enge</w>
Bosni an</w>
B e</w>
B ac
Azer bai
A T
8 1</w>
5 00,000</w>
19 0
z o
wh ani</w>
war ri
war rant</w>
vi c</w>
un related</w>
un iting</w>
trum p</w>
trav eling</w>
transl ates</w>
tr uc
ti red</w>
third- largest</w>
tap ping</w>
t at</w>
sy l
stan ts</w>
sin ki</w>
sent ences</w>
sche dule</w>
s ag
restra ined</w>
reser vo
reinvigor ate</w>
refu ge</w>
recyc ling</w>
rec es
re- elected</w>
re training</w>
r ings</w>
qu eville</w>
public ations</w>
pron oun
promp ting</w>
pro pen
pri t</w>
preci sion</w>
pleas ure</w>
pi onage</w>
physi cally</w>
pe d
par ame
p ou
ni shed</w>
neoli beral</w>
nee d
nation alistic</w>
narrow ed</w>
monit ored</w>
mel ting</w>
ma lity</w>
m aps</w>
lu b</w>
li br
ingredi ent</w>
inc ur</w>
in door</w>
hur ting</w>
how er</w>
high way</w>
heli um</w>
geo strategic</w>
gener ic</w>
gene ous</w>
fo witz</w>
fab ric</w>
exp enses</w>
excell ence</w>
establi shes</w>
es pionage</w>
es che
eradic ating</w>
en countered</w>
en acting</w>
em pathy</w>
el lation</w>
e gal</w>
du p</w>
discre pan
desp eration</w>
deser t</w>
defici ency</w>
dead lock</w>
de valuations</w>
de dly</w>
d é
cul turally</w>
cr y
contra sts</w>
continu ally</w>
cont ing
conf using</w>
conclu sive</w>
con vey</w>
chur ch</w>
bu c
bre eding</w>
blu e</w>
billion aires</w>
billion aire</w>
belong ing</w>
bar bar
ba shing</w>
b uro</w>
awa ited</w>
as simil
as is</w>
archit ect</w>
ar do</w>
ar d-
analy zing</w>
all- out</w>
al ert</w>
ad ul
acquisi tions</w>
aboli sh</w>
ab a</w>
Ye ars</w>
Xin jiang</w>
Wol fowitz</w>
Tran s
Tam il</w>
T echnology</w>
St al
Sci ences</w>
Ro whani</w>
P ent
Mi ke</w>
M 5
Lithu ania</w>
L and</w>
Hel sinki</w>
Haye k</w>
H ai
H F
Glass- Steagall</w>
F ron
Eisen hower</w>
Den ver</w>
Dal ai</w>
D S
Commis sioner</w>
Ch an
C arm
Burea u</w>
Azerbai jan</w>
Ang el
Agricul ture</w>
Abk haz
9 7</w>
7 1</w>
3. 8</w>
1 2-
zom bie</w>
y ard</w>
x it</w>
win ding</w>
wi st</w>
web site</w>
w ounds</w>
visit ors</w>
vi v</w>
ve to
tu re-
tribun al</w>
tri tion</w>
trav el
trade off</w>
ti f
th west</w>
tex ts</w>
t te</w>
stic king</w>
st atic</w>
sof t-
ske wed</w>
short sighted</w>
set backs</w>
sel lers</w>
sel fish</w>
s way</w>
s cr
s ample</w>
restaur ant</w>
rel ate</w>
regi stration</w>
ref ers</w>
raz y</w>
rail ways</w>
pu mp</w>
provo king</w>
pro pel</w>
practic ed</w>
poss essed</w>
pollu ting</w>
poli cem
plumme ting</w>
pas sions</w>
par ks</w>
ori um</w>
ol k
ob taining</w>
ob jects</w>
nom inated</w>
mis er
merchan di
mer cy</w>
ment ing</w>
me ager</w>
mar t</w>
logis tical</w>
lingu istic</w>
leg ality</w>
la undering</w>
inter locu
instinc ts</w>
inst ant</w>
inherit ance</w>
ing- edge</w>
infer ior</w>
ind a</w>
inadvert ently</w>
in valuable</w>
im men
hesit ate</w>
he aling</w>
h arming</w>
gh ters</w>
g acy</w>
friend ship</w>
for ums</w>
favor ably</w>
fa thers</w>
f ile</w>
extra vag
eng ul
endeav or</w>
eman ating</w>
el ation</w>
eg gs</w>
down gra
discre tion</w>
digi tization</w>
di ans</w>
deter red</w>
defini tive</w>
dec im
dec eption</w>
de epest</w>
damp en</w>
da wn</w>
cul prit</w>
cr ac
conver ted</w>
child birth</w>
cart els</w>
burea uc
bour ne</w>
bo asts</w>
bo ast
ber alism</w>
be st
bar rels</w>
back grounds</w>
b iting</w>
b al</w>
ance stors</w>
air port</w>
ad mir
Y ou</w>
With out</w>
W a
TF P</w>
T oc
S at
Pe res</w>
P 5</w>
Mel bourne</w>
M5 S</w>
Kat r
J am
Inter -
Har am</w>
Fis cher</w>
F ili
Ed ward</w>
E R
D s</w>
D oc
Chris ti
Chil dren</w>
Ale ppo</w>
4. 3</w>
3. 7</w>
201 0-
194 9</w>
194 4</w>
18 0</w>
0. 8</w>
, 500</w>
á s</w>
wrong ly</w>
we i</w>
vir uses</w>
vil le</w>
ut ter</w>
upheav als</w>
uni tion</w>
un paid</w>
un democratic</w>
ul sion</w>
tro op</w>
ti les</w>
ti ary</w>
th an-
ter tiary</w>
ta res</w>
t asked</w>
survi ving</w>
suic idal</w>
sub- Saharan</w>
sto king</w>
ste ep
ste ad
st all</w>
ss ly</w>
spec tive</w>
so ar</w>
sin s</w>
sin king</w>
show down</w>
sh runk</w>
servic ing</w>
sent enced</w>
se gre
sc aled</w>
s and</w>
ru le-
rich -
remar ked</w>
redistribu tive</w>
re election</w>
r ö
qu it</w>
pu t
prohib iting</w>
pro tocol</w>
pro t
power less</w>
post uring</w>
post ure</w>
poli ty</w>
po inte
pes o</w>
par k</w>
ow ns</w>
o ked</w>
narrow ing</w>
n age</w>
my stery</w>
munici p
motiv ations</w>
moment ous</w>
mist re
misp laced</w>
merchandi se</w>
meas les</w>
mar ry</w>
m illen
like -minded</w>
lif ying</w>
ku d</w>
j ust
interrup ted</w>
inc ite</w>
in different</w>
in convenient</w>
impe des</w>
id -
ic ism</w>
hec tares</w>
he a
guerril la</w>
great -
geni us</w>
forecast ers</w>
flo at</w>
fashi onable</w>
fac e-
f ence</w>
f altering</w>
f ade</w>
erup t</w>
em peror</w>
du p
down grade</w>
diver gent</w>
dis m</w>
dis array</w>
determin ant</w>
defici ent</w>
de fuse</w>
coun sel
cor n</w>
cooper ating</w>
commis sioned</w>
clean- energy</w>
ci ans</w>
chauv inism</w>
chan c
chanc ellor</w>
cat ching</w>
car to
bru tally</w>
big -
belli ge
be set</w>
be low-
b un
att achment</w>
ass ure</w>
asc end
and ering</w>
ad o</w>
ad mired</w>
ad am
accompan ying</w>
a ides</w>
Yem en
Wik i
W el
V s</w>
Sunni- Shia</w>
Sino- American</w>
Portu gu
Pent agon</w>
P LA</w>
Net work</w>
Napole on</w>
Ma ke</w>
M ore</w>
M ilitary</w>
Li kud</w>
Kirch ner</w>
Katr ina</w>
J im
J eff
H un
B lo
Al ter
AV IV</w>
2- 3</w>
1 st</w>
&apos; ll</w>
z er</w>
win ner-
will ingly</w>
w a</w>
volunte ers</w>
vil i</w>
ur s</w>
up held</w>
un wanted</w>
un reliable</w>
tt es</w>
trium ph
ti fy</w>
the ater</w>
sup pressing</w>
sup porter</w>
sum m
sp are</w>
si ties</w>
sho res</w>
sh ine</w>
sevente en
sen ds</w>
se duc
ro bu
rec alls</w>
reaffir med</w>
re sumption</w>
re dness</w>
ra ging</w>
propen sity</w>
pro ver
predic ts</w>
pollu ted</w>
pol y
per mis
par amount</w>
or ney</w>
one- time</w>
ol f</w>
occa sional</w>
o he
non- profit</w>
neutra lity</w>
ne st</w>
nation alization</w>
n ascent</w>
mur de
multicultur alism</w>
mid- century</w>
metri cal</w>
mercanti list</w>
mar king</w>
lic k</w>
liber ated</w>
legitim ize</w>
kil o
isolation ist</w>
intermedi ate</w>
in appropriate</w>
impa ired</w>
immen sely</w>
illu sions</w>
illiter acy</w>
illiqu id</w>
ill on</w>
homos exu
high ways</w>
heav y-
har ne
h its</w>
fuel -
free ing</w>
formul ated</w>
for ci
farm land</w>
fall acy</w>
explo red</w>
exp ire</w>
ex trac
embar k</w>
e leg
e h</w>
down stream</w>
dis credit</w>
dis cer
differenti als</w>
dest ined</w>
deli vers</w>
de tained</w>
datab ase</w>
cu tt
cr ack</w>
cor ner
coo king</w>
coerci ve</w>
cle ar-
ci sm</w>
ch or
ch i</w>
cel ona</w>
capital- intensive</w>
capit alization</w>
cal yp
c ric
bul let</w>
buil dup</w>
bu lli
bom bers</w>
bl un
ati can</w>
arrog ance</w>
analy zed</w>
all y-
adver sely</w>
accommod ating</w>
ac tionary</w>
ab st
a fort</w>
Z ika</w>
Y oun
V atican</w>
UN IC
UNIC EF</w>
Toc queville</w>
Sen egal</w>
Sch rö
S .</w>
Portugu ese</w>
Pe ña</w>
P P
P K
P E</w>
Nie to</w>
Nichol as</w>
Mic hel</w>
Man afort</w>
M any</w>
K ab
Jim my</w>
In do-
G ini</w>
EU- wide</w>
Ch ile
C lub</w>
Bo ko</w>
Bar celona</w>
B lu
B is
B ack</w>
B A</w>
Alter native</w>
A tt
A qu
8 7</w>
8 .5</w>
1. 25</w>
-of- GDP</w>
y ad
wh it
week end</w>
wake -up</w>
van ished</w>
vali dity</w>
up set</w>
uni fying</w>
un desirable</w>
un controlled</w>
ty co
transform ations</w>
th and</w>
te eth</w>
t- time</w>
sw ung</w>
sub sist
subsist ence</w>
stock piles</w>
sto ke</w>
slow -
si es</w>
sho es</w>
sh ru
separ ately</w>
s ong</w>
ruth less</w>
rol l
robo t</w>
rac onian</w>
ra in
ra dio
pu s</w>
pu p
prescrip tions</w>
power -
po t</w>
philosoph ical</w>
pe tty</w>
pe d-
parame ters</w>
p ending</w>
ot -
or ted</w>
or gan</w>
op ens</w>
nutri tional</w>
non- existent</w>
no ble</w>
neg atively</w>
n ice</w>
mor at
money- market</w>
min eral</w>
millen nia</w>
mathemati cal</w>
macro economics</w>
ma fi
loo p</w>
long- lasting</w>
lif el
lifel ong</w>
legis lat
legislat ures</w>
la yer</w>
l ateral</w>
ko v</w>
k ok</w>
journ als</w>
inve sts</w>
intru sive</w>
inter tw
income- tax</w>
inc ited</w>
in gh
hol low</w>
histor ies</w>
he t</w>
harmon ization</w>
half- million</w>
hac king</w>
gro ssly</w>
gi bility</w>
gas -
fron tiers</w>
fix es</w>
entit lements</w>
en os</w>
emer gencies</w>
em it</w>
dro me</w>
doub tful</w>
dis affected</w>
dict ated</w>
desc endants</w>
deb ili
de lusion</w>
d ust</w>
d ding</w>
d al</w>
correc ted</w>
contrac tors</w>
consumer -
concep tual</w>
complac ent</w>
com ment</w>
cohe rence</w>
coc aine</w>
co oling</w>
co efficient</w>
cle av
ce- based</w>
car nage</w>
calcul ate</w>
c ils</w>
buil d-up</w>
bri bes</w>
blue- collar</w>
blo g
ban ner</w>
atten dance</w>
arri ving</w>
archit ects</w>
ar rows</w>
anticip ation</w>
antibio tic</w>
antagon ism</w>
annu alized</w>
an timicrobial</w>
amm unition</w>
afflic ted</w>
ad versary</w>
a j
a c</w>
Zha o</w>
U r
U BI</w>
Tran si
Tah ri
T us
Sad at</w>
S trip</w>
Re li
Rab in</w>
Presid ents</w>
Polit buro</w>
O per
Nicol ás</w>
N elson</w>
N E
Man aging</w>
Maced onia</w>
Inno vation</w>
I brahim</w>
Gr and</w>
Dra wing</w>
Ch ri
Carm en</w>
CI TY</w>
Bu enos</w>
Bang kok</w>
B roo
B har
B ec
B BC</w>
Ar med</w>
Abkhaz ia</w>
A re</w>
A p
A A
7 4</w>
6 1</w>
2 100</w>
- in-
wide -
whe at</w>
wel coming</w>
war ns</w>
wan ting</w>
w ren
vari ables</w>
v es
under gone</w>
un pleasant</w>
un just</w>
un healthy</w>
umb rella</w>
trac ks</w>
to c
tele phone</w>
tax i</w>
suspici ons</w>
spir its</w>
sequ encing</w>
separ atists</w>
secular ism</w>
scre en</w>
scar cely</w>
s at</w>
ru shed</w>
ro v</w>
restruc tured</w>
restra in</w>
resha ping</w>
repu tations</w>
reconc iling</w>
reconc iled</w>
reas s
re served</w>
r allied</w>
qu ad
publici zed</w>
provoc ation</w>
projec tion</w>
pres sured</w>
prepar ations</w>
pre servation</w>
pre mis
pione ering</w>
philosoph ers</w>
perpetu ate</w>
patron age</w>
par t-time</w>
p y
over ty</w>
ot a</w>
op ium</w>
on- dollar</w>
off spring</w>
oc curren
ni k</w>
morat orium</w>
mor ale</w>
moder ately</w>
mo shenko</w>
met als</w>
mediocr e</w>
me se</w>
m ate</w>
lu ster</w>
loosen ing</w>
line ar</w>
li t
lev y</w>
len ec
leg es</w>
le aked</w>
jiha di</w>
internation alization</w>
intermedi aries</w>
influ encing</w>
inci dence</w>
inc ohe
in tri
impedi ment</w>
impe achment</w>
ill es</w>
hurrican e</w>
human ities</w>
hear ings</w>
ha st
gre eted</w>
gra vit
gr ounded</w>
gi an</w>
gener osity</w>
exemp tion</w>
exclu des</w>
evalu ating</w>
es a</w>
enhan ces</w>
end game</w>
en vy</w>
eg alitarian</w>
economic- growth</w>
dor man
diver sion</w>
dis connect</w>
dis close</w>
deleg ates</w>
defic it-
dd led</w>
dau ghters</w>
cutt ing-edge</w>
cou ps</w>
cou ples</w>
con grat
compul sory</w>
comple xi
compe ten
commun ity-
co st
co ins</w>
canc ers</w>
bott lenec
biome dical</w>
bas eline</w>
b ble</w>
aver ted</w>
aver aging</w>
ass ed</w>
ash vili</w>
appoin tments</w>
ap or
anticip ating</w>
ani mo
ain ed</w>
ad mitting</w>
acknowle dges</w>
accompli shments</w>
Ty moshenko</w>
Sta ff</w>
Sil va</w>
Si ber
Shi a-
Refuge es</w>
Refuge e</w>
Pri ce</w>
Pan ama</w>
P atri
P as
O kin
Naz ism</w>
Muslim- majority</w>
Mob il</w>
Min ist
M ec
Ky r
In surance</w>
Gu jar
G ame</w>
F am
Eura sian</w>
Dise ase</w>
Coun tries</w>
C as
Bur mese</w>
Be tter</w>
Bal i</w>
An dre
Alex is</w>
9 2</w>
8 9</w>
7 8</w>
6 9</w>
3 D</w>
200 0-
20 s</w>
196 9</w>
193 1</w>
y- to-
wa i
w aged</w>
viol ates</w>
vari ation</w>
v a
up date</w>
u rely</w>
twe et</w>
touri st</w>
tic als</w>
thor ough</w>
t- based</w>
t wist</w>
t ell
surpris es</w>
stake holder</w>
spectac ularly</w>
sla shed</w>
sen ator</w>
sc oring</w>
s ounding</w>
rup ture</w>
ro y
risk- free</w>
resur gent</w>
reli ably</w>
rela xed</w>
reaffir m</w>
re leg
qu an
q i
prop elled</w>
pronoun cements</w>
promin ence</w>
pro- market</w>
premi er</w>
preced ents</w>
pre mat
premat urely</w>
pover ty-
posi tioning</w>
po et</w>
pi ent</w>
ove re
ose vic</w>
orig inated</w>
op pressive</w>
ne ll</w>
na ï
moun ted</w>
moun table</w>
mot or</w>
mor ph
molec ular</w>
mis match</w>
manife station</w>
m im
li able</w>
le tters</w>
l ens</w>
job lessness</w>
inv iting</w>
interpre tations</w>
inclin ation</w>
inci pient</w>
in ject</w>
in dig
ic king</w>
i ah</w>
human- induced</w>
hi jac
haz ards</w>
han d-
ha mp
h ints</w>
green er</w>
gre ss
gl ory</w>
gau ge</w>
fran c</w>
extinc tion</w>
exemp t</w>
en cla
eli gibility</w>
ech o</w>
e y</w>
down turns</w>
disab led</w>
direc ting</w>
detec tion</w>
deliber ation</w>
decade- long</w>
cur se</w>
criti que</w>
counter- productive</w>
counter cyclical</w>
cop y
con undrum</w>
col leges</w>
coinci ded</w>
co dependency</w>
char ter</w>
cha irs</w>
celebr ating</w>
car ing</w>
bul lets</w>
bu ys</w>
broad ca
bri d
ber y</w>
be red</w>
b is
b are</w>
arm s-
arbit rage</w>
ap est</w>
anxie ties</w>
anti- American</w>
anthro po
all ying</w>
ak ashvili</w>
acc use</w>
a verse</w>
Yu k
Tru st</w>
T HA
Stre am</w>
Schum pe
Sa akashvili</w>
R ice</w>
Pro v
P overty</w>
P ap
O n
NA SA</w>
Mil osevic</w>
Mel inda</w>
Me dical</w>
M ir
M I
Kh an</w>
K hat
K ah
Islam abad</w>
H IV
Guatem ala</w>
Gol den</w>
German -
Euro- Atlantic</w>
Dru g</w>
Deutsch e</w>
De ath</w>
Con sum
Commer ce</w>
Citi group</w>
Bud apest</w>
Bu ffe
B ou
A O</w>
6. 7</w>
6 0-
4 0,000</w>
12 th</w>
0. 9</w>
wo efully</w>
war heads</w>
war d
ward ship</w>
v ain</w>
uniqu é</w>
unanim ous</w>
u b
tri bes</w>
tou ted</w>
time table</w>
tic a</w>
ti ously</w>
ti fication</w>
ter rain</w>
te pid</w>
t aper</w>
syn chron
supple ment</w>
sum mar
substitu tes</w>
sub stitution</w>
stra pped</w>
ster dam</w>
social- security</w>
so ber</w>
shor ing</w>
seri ousness</w>
separ ating</w>
school -
satis fying</w>
sanc tioned</w>
rupe e</w>
ru in</w>
roc kets</w>
righ te
ri min
ri fe</w>
reli ability</w>
recru its</w>
rec al
qu ag
pro ph
presid ed</w>
prejudic es</w>
precipit ate</w>
pre limin
poli cing</w>
ple ased</w>
peril ous</w>
peas ants</w>
par aph
ou trage
on el</w>
non- nuclear</w>
no v
mutu alization</w>
mu tations</w>
mosqu ito</w>
min erals</w>
micro finance</w>
medi ev
manufac ture</w>
manife st</w>
m ou
m illi
li on</w>
leg acies</w>
k n
justi fies</w>
j uni
intoler able</w>
int entionally</w>
install ations</w>
inf ants</w>
incar cer
in stantly</w>
in conceivable</w>
humili ated</w>
hi red</w>
g in</w>
fresh water</w>
for b
fo stered</w>
feat ured</w>
evol ent</w>
ep it
envi sioned</w>
embarra ssing</w>
economy- wide</w>
domin ating</w>
distor ting</w>
distinc tive</w>
disrup ting</w>
dis solution</w>
dimen sional</w>
dic ally</w>
develo ped-
detain ees</w>
demo li
deep- seated</w>
dec ei
d raconian</w>
cri tic</w>
corner stone</w>
confir mation</w>
complic ate</w>
colon ies</w>
cohe sive</w>
clou ds</w>
clo thes</w>
cli ent</w>
channe ling</w>
ca ste</w>
c ow
brigh ter</w>
bottom -up</w>
block ade</w>
black mail</w>
bi polar</w>
b ury</w>
b out</w>
attribu tes</w>
ati ya</w>
at tained</w>
at tain
anti- EU</w>
analy tics</w>
ambi que</w>
am ing</w>
allegi ance</w>
al y</w>
al lah</w>
air lines</w>
ag ro
after -
Z ar
WW I</w>
Thir ty</w>
Tar get</w>
Tahri r</w>
Sel f-
S ter
S im
S hell</w>
Rodri k</w>
Re turn</w>
R elations</w>
R BI</w>
Peter sburg</w>
Pa x</w>
P ear
Out look</w>
Osse tia</w>
Moz ambique</w>
L am
Kyr gy
J on
J ob
J ar
Ine quality</w>
In formation</w>
IC C</w>
I O
Han sen</w>
HIV -
Gre xit</w>
Ger hard</w>
Fili pin
Fed eration</w>
F illon</w>
E liz
D Cs</w>
Commun ists</w>
Cha m
C ome
C TB
B iden</w>
B asi
B ash
Am sterdam</w>
Agricul tural</w>
Accor ds</w>
5 th</w>
4 50</w>
30- year</w>
3 50</w>
10- 15</w>
1 10</w>
wren ching</w>
winner- take-
wind fall</w>
wild life</w>
wide- ranging</w>
vide os</w>
vege tables</w>
v indicated</w>
un necessarily</w>
un aware</w>
tre e</w>
toler ated</w>
to ken</w>
subsidi zing</w>
stri kingly</w>
sp orting</w>
sp ect</w>
social- democratic</w>
smugg ling</w>
sk ir
sion ism</w>
sin ister</w>
sh ots</w>
sel ls</w>
satis factory</w>
sab ot
s ements</w>
s add
ri gged</w>
rele asing</w>
quar terly</w>
quan tum</w>
prosecu te</w>
program ming</w>
pro long</w>
pre ten
over lapping</w>
ou ster</w>
one- child</w>
objec tion</w>
no tions</w>
near- term</w>
naï ve</w>
nav y</w>
nar ci
narci ssi
must er</w>
misu se</w>
mer ger</w>
me ter</w>
margin alization</w>
m ic</w>
loo sen</w>
lo ven
lo op
lea ks</w>
le ans</w>
lavi sh</w>
labor at
l unch</w>
l ent</w>
kick -
juni or</w>
invo ke</w>
intermedi ation</w>
insur mountable</w>
in secure</w>
in hab
impul se</w>
il legally</w>
har vest</w>
h armed</w>
guerril las</w>
growth- enhancing</w>
grand children</w>
gar ment</w>
fru it
flu id</w>
figh ts</w>
fab ric
ev es</w>
ev enly</w>
ev ange
ener gies</w>
emplo ys</w>
elector ates</w>
e di
dispu te-
disen chan
dis sident</w>
dis satisfaction</w>
devi sing</w>
debili tating</w>
de value</w>
de le
de ar</w>
cyn icism</w>
cru shing</w>
counter- cyclical</w>
cosmo poli
cooper atives</w>
consul tations</w>
concentr ations</w>
con ve
clu sters</w>
cigare ttes</w>
chan ger</w>
c razy</w>
brin k
bor ing</w>
boo k
be aten</w>
be ans</w>
back bone</w>
avoi ds</w>
attain able</w>
atmo spheric</w>
ath y</w>
as surance</w>
ari st</w>
appear ances</w>
ap pointe
an ity</w>
am ese</w>
ali tarianism</w>
aggrav ate</w>
after wards</w>
affili ated</w>
abor tions</w>
aboli tion</w>
ab used</w>
Z one</w>
We ap
To day</w>
Sovie t-
Sing le</w>
Sett lements</w>
Serge i</w>
Schrö der</w>
S w
R ud
R -
Pe w</w>
P PP</w>
Nor d</w>
Nav y</w>
Mic hel
May or</w>
Man ila</w>
M igration</w>
M as
Khat ami</w>
K am
Jan ata</w>
In stitution</w>
Gujar at</w>
Fide l</w>
Europe -wide</w>
Elec toral</w>
Dil ma</w>
Comp any</w>
C anc
Ban ks</w>
B om
B attle</w>
A gain</w>
A D
9 3</w>
4 00,000</w>
201 1-
2. 0</w>
1 70</w>
&apos; a</w>
z one-
z eal
year ning</w>
winner-take- all</w>
wi shed</w>
vit ality</w>
vis as</w>
vacc inated</w>
ur a</w>
ung -
under water</w>
un wise</w>
un noticed</w>
un finished</w>
un easy</w>
ul ing</w>
trac tors</w>
tot aled</w>
tif ada</w>
tic ket</w>
tic -
therap eu
terr and</w>
tan de
tande m</w>
t ans</w>
t all</w>
sw ana</w>
succum bed</w>
stric ken</w>
stri pped</w>
ste al</w>
sta di
st or</w>
so y
small holder</w>
sm alle
smalle st</w>
six- party</w>
si ves</w>
sex ually</w>
sel ler</w>
se iz
satelli tes</w>
s tion</w>
s ad
ru ble</w>
ri que</w>
retali ate</w>
reli eve</w>
regain ed</w>
recur ring</w>
record- high</w>
re publi
re distribute</w>
radio active</w>
ra mi
ra ged</w>
quag mire</w>
pu mped</w>
prosecu ted</w>
proph ec
pro- democracy</w>
prelimin ary</w>
post- 2015</w>
pos ite</w>
poli s</w>
plan etary</w>
per mission</w>
peac em
par as
pal pable</w>
p ig
otyp es</w>
observ ations</w>
n ine-
musc le</w>
movi es</w>
mort al</w>
meth odo
massac res</w>
low ing</w>
loop holes</w>
loc als</w>
liber alize</w>
le ase</w>
l ls</w>
l adder</w>
ju ven
institution alized</w>
institu te</w>
ini a</w>
ing er</w>
induc ing</w>
in structive</w>
hon ored</w>
ho listic</w>
hesit ant</w>
head -
gener alized</w>
ge tic</w>
gan gs</w>
gam bling</w>
g ated</w>
frustr ations</w>
frustr ating</w>
front line</w>
fo es</w>
farm er</w>
ev ening</w>
ess ay</w>
envis aged</w>
enfor ce
ener gi
endow ments</w>
ec raft</w>
ear liest</w>
e ye
e ternal</w>
dra fted</w>
do om</w>
dis closed</w>
dis bur
din ner</w>
di stan
den sity</w>
dem i
decreas ing</w>
curtail ing</w>
cultiv ated</w>
cry st
continu ously</w>
connec tedness</w>
confid ence-
conclu ding</w>
combu stion</w>
clo sures</w>
climate- related</w>
cla uses</w>
ceremon y</w>
ca res</w>
burden some</w>
bre ad</w>
bord ering</w>
be having</w>
be ac
b ric
b or</w>
at test</w>
asp iring</w>
as signed</w>
ari th
appe aled</w>
an archy</w>
an a
alloc ations</w>
admir ation</w>
a ward</w>
W ater
UN ES
Tra p</w>
Stra it</w>
Sh ould</w>
S loven
S A
Rec o
R ise</w>
Pre ss</w>
N ag
Mo del</w>
Mit terrand</w>
Mic h
Len in</w>
Law rence</w>
L yn
L ess
Ken yan</w>
J a
Ha vel</w>
H .</w>
Govern ance</w>
G h
Fried rich</w>
F our</w>
F lo
F al
Euro group</w>
D ali
Cur tain</w>
Consum er</w>
Com mon
Bot swana</w>
Bhar atiya</w>
B ran
B av
Ad dis</w>
AM LO</w>
A z
A S</w>
A .</w>
3- 4</w>
1997- 1998</w>
1 1
z ers</w>
y n</w>
wi ped</w>
warm er</w>
voc ally</w>
vit ally</w>
vi rul
v or
us -
un fold</w>
un ease</w>
turn around</w>
tur b
tho od</w>
theor ists</w>
th- largest</w>
th western</w>
terri fying</w>
ten ets</w>
sty mi
str on
start- up</w>
st umb
st ati
ss al</w>
spontane ous</w>
spaw ned</w>
sli p</w>
scr atch</w>
s ne
s its</w>
s as</w>
revolution aries</w>
res ounding</w>
rent- seeking</w>
regre tt
reces sionary</w>
recapit alize</w>
reasser t</w>
rami fications</w>
ra b
qi ang</w>
pro spective</w>
princi pled</w>
princi p
pres enting</w>
prepa redness</w>
preci p
preced ence</w>
pre served</w>
pre fers</w>
po ols</w>
plum met</w>
ph em
pend ul
passeng ers</w>
parano id</w>
p y</w>
p ity</w>
nur turing</w>
new found</w>
ne ys</w>
nation ally</w>
n asty</w>
mudd le</w>
missi le-
man- made</w>
m our
long- range</w>
lo ser</w>
ligh ting</w>
licen sing</w>
li fication</w>
li an</w>
lef tists</w>
lec ture</w>
le vers</w>
la ud
k ri
k ick</w>
k ia</w>
j ug
ist ed</w>
isol ating</w>
is hable</w>
intertw ined</w>
int an
instr umental</w>
inj uries</w>
ing ra
identi fies</w>
hy ster
hur ts</w>
hot els</w>
high- risk</w>
glimp se</w>
gl ass</w>
gho st</w>
floo ded</w>
first- ever</w>
fin ger</w>
fe eds</w>
fe e
fail ings</w>
f us
f ing</w>
f el
enforce able</w>
energy- intensive</w>
en a</w>
ed er</w>
e ars</w>
diver ted</w>
discipl ined</w>
di stances</w>
di ary</w>
den ies</w>
cum ber
credit worthiness</w>
cre ators</w>
complexi ties</w>
competi tor</w>
comfort ably</w>
com for
clear ingh
child care</w>
chi p</w>
char itable</w>
centri fu
can cel</w>
cali br
bureauc rac
bul ly</w>
brink manship</w>
bo ast</w>
birth day</w>
b und</w>
ati zed</w>
at tain</w>
aspir ation</w>
applic able</w>
apo logy</w>
ap preh
anti- globalization</w>
anti- Western</w>
anti- European</w>
an ol</w>
am end</w>
al- health</w>
air -
affir m
advant age
adhe rents</w>
ad h
ab eth</w>
Z uc
Yuk os</w>
Wolf gang</w>
Wah habi</w>
V AT</w>
UA E</w>
Tuni sian</w>
T A</w>
Ser b</w>
Samu elson</w>
Sal eh</w>
S mo
Ra jan</w>
Pro mise</w>
Pr inci
Pear l</w>
PK K</w>
Or der</w>
Nor we
M an</w>
Lead ership</w>
L a</w>
L IF
K em
Jap an
J ack
I mp
Hu man
GS T</w>
F le
Eliz abeth</w>
Dmit ri</w>
D uring</w>
D elt
Common wealth</w>
BR CA
Ang ola</w>
Am bassador</w>
Advis er</w>
8 4</w>
8 3</w>
4. 8</w>
4. 6</w>
y pe</w>
won der
w ire</w>
viol ently</w>
vill agers</w>
vig or</w>
ver ted</w>
v as
v aries</w>
und oc
undoc um
undocum ented</w>
un successful</w>
un reasonable</w>
u k
trum pe
trade- off</w>
too- big
too-big -to-
tex tiles</w>
tan t
tant amount</w>
t ness</w>
t ingly</w>
t ame</w>
swa ths</w>
subordin ate</w>
sto ked</w>
ste wardship</w>
st ap
short -</w>
shar p
sha ky</w>
sha king</w>
sh ell</w>
seven th</w>
schol ar
sc are</w>
sc al
sacrific ing</w>
sa ves</w>
s emin
s emb
semb lance</w>
rup tion</w>
ro ck-
rev elation</w>
renmin bi
regain ing</w>
re acting</w>
ration ally</w>
prou dly</w>
prote sting</w>
profli gate</w>
profli gacy</w>
pre tense</w>
pha ses</w>
per ing</w>
pe di
paraph rase</w>
pa inf
painf ully</w>
p ale</w>
over taken</w>
ord ering</w>
nur tured</w>
mur ders</w>
mu ted</w>
moun tains</w>
min us</w>
metro politan</w>
me -
macro prudential</w>
m ates</w>
low ers</w>
lou dly</w>
long- awaited</w>
loc alized</w>
li k
lag ged</w>
la sts</w>
l ace</w>
k ingdom</w>
k ering</w>
job less</w>
ir resi
investig ative</w>
intrinsi c</w>
instruc tions</w>
inde xed</w>
inaug ural</w>
in sure</w>
illustr ate</w>
ideolo gically</w>
i ds</w>
head way</w>
head scar
he red
he els</w>
ham pered</w>
hall mark</w>
gene tics</w>
gen ic</w>
gen ces</w>
g ate
g ade</w>
fran kly</w>
fo ol</w>
ep ic</w>
eigh t-
e w</w>
dra gging</w>
dom ains</w>
distr act</w>
di esel</w>
deple tion</w>
dep ths</w>
den ounce</w>
decarbon ization</w>
deal ings</w>
dam ages</w>
curren cy-
cumber some</w>
cu t
crow ding</w>
cot ton</w>
contempl ating</w>
constitu tions</w>
congrat ul
compla int</w>
comp ounds</w>
commis sions</w>
colo ssal</w>
coff ers</w>
chi ps</w>
ch arities</w>
capital- flow</w>
bureaucrac ies</w>
burden -sharing</w>
brigh test</w>
biom ass</w>
betra yal</w>
bat tered</w>
associ ate</w>
an ks</w>
aff ection</w>
adverti sers</w>
aby ss</w>
Y a
Vir g
UNES CO</w>
T est</w>
Schumpe ter</w>
Sch ro
Sau d</w>
S isi</w>
S EC</w>
Republi can-
Reco very</w>
R 2P</w>
Prote stant</w>
PR I</w>
P on
P lat
O ver
No kia</w>
Ma h
M é
M ug
Lor d</w>
L GB
Jo han
Jo e</w>
Is land</w>
G N
Ex x
D ist
Christ ine</w>
Cha se</w>
CTB T</w>
C l
As sistance</w>
Angel es</w>
Ab ra
AI G</w>
9 1</w>
2 3
196 1</w>
195 7</w>
195 3</w>
19 00</w>
ü r
zero- carbon</w>
z stan</w>
y- neighbor</w>
y uan</w>
voic ed</w>
vivi d</w>
ve il</w>
val ny</w>
uri ous</w>
unci ation</w>
u sher</w>
u pro
u ity</w>
tru ths</w>
trick y</w>
trav ails</w>
tran sig
tou ched</w>
therapeu tic</w>
th y-neighbor</w>
te ar</w>
sun light</w>
stig ma</w>
star tling</w>
st ation
spe ople</w>
sli pped</w>
si p
sh an</w>
sel ecting</w>
scrip t</w>
sanctu ary</w>
s al</w>
ri ger
retro viral</w>
resp ecting</w>
rese tt
res orting</w>
repa iring</w>
ren ounce</w>
ren aissance</w>
referen ces</w>
recommend ation</w>
rec ap
reas sured</w>
re negotiate</w>
re d-
r allying</w>
productivity- enhancing</w>
pro w
pro claiming</w>
pris oner</w>
pre y</w>
pre condition</w>
pr ong
post- 2008</w>
post- 1945</w>
polar ity</w>
plun ging</w>
physici sts</w>
parti tion</w>
pa res</w>
over seeing</w>
ot ry</w>
ori bund</w>
or bit</w>
on Mobil</w>
ob serve</w>
o dy</w>
ne es</w>
nativi st</w>
midd le
mediev al</w>
medic ation</w>
mechan ical</w>
may hem</w>
mass -
manufactu rer</w>
m oribund</w>
lo t
lo qu
lif ies</w>
li ties</w>
le agu
leagu ered</w>
lab ore
la p</w>
j i</w>
inv enting</w>
insul ated</w>
insul ate</w>
inspec tors</w>
inher it</w>
ineffici encies</w>
in ventions</w>
in transig
imp lau
im pressed</w>
im partial</w>
i shes</w>
hydro gen</w>
hosti lities</w>
hind sight</w>
h emi
gra ph</w>
glar ing</w>
gar- thy-neighbor</w>
force fully</w>
fli r
facilit ates</w>
f ren
f end</w>
exp elled</w>
exerci sing</w>
eth ically</w>
es -led</w>
erup tion</w>
equ er</w>
em ail</w>
electri fication</w>
ec ki</w>
e ste
dog ma</w>
distr acted</w>
diss em
dis sip
di ties</w>
deri ves</w>
da red</w>
cur s
culmin ating</w>
counter weight</w>
coun cils</w>
cost- benefit</w>
correc ting</w>
cor related</w>
commun ists</w>
co s
co existence</w>
chur ches</w>
chron ically</w>
che er
ch equer</w>
ceas e-
can n
ca us
buil ders</w>
brea thing</w>
brea the</w>
bre ath</w>
bound ary</w>
bit ant</w>
bi ds</w>
beg gar-thy-neighbor</w>
be leaguered</w>
bat tery</w>
ban g</w>
bac kers</w>
ausp ices</w>
attrac ts</w>
ar dy</w>
appe asement</w>
apo calyp
anni e</w>
analo gies</w>
ain t</w>
advantage ous</w>
adh ering</w>
acknowle d
ab u
a oy
Yemen i</w>
Virg inia</w>
US- Japan</w>
T om
Sy n
Sur vey</w>
Stan ley</w>
She ikh</w>
Schro eder</w>
Sa hel</w>
Ris k</w>
Ric ardo</w>
Pakist anis</w>
P ic
P M
Or leans</w>
Okin awa</w>
Na valny</w>
N T
Mec ca</w>
M iller</w>
Ke qiang</w>
Japan ese-
Im peri
I D
H. W.</w>
H ig
G H
G F
Fri day</w>
Fif th</w>
F annie</w>
F -
Exx onMobil</w>
Europe an-
Euro skeptic</w>
Do ing</w>
Di aoy
Di alogue</w>
Delt a</w>
D ick</w>
Confuci an</w>
CS U</w>
CP I</w>
B run
Alger ian</w>
Ab out</w>
A k
A -
4 0
20 35</w>
20 22</w>
193 8</w>
19 20s</w>
weigh ing</w>
vic al</w>
vac ation</w>
under investment</w>
under developed</w>
un warranted</w>
un told</w>
un safe</w>
un prepared</w>
un lock</w>
un ab
twee ted</w>
tum or</w>
tu mul
tumul tuous</w>
travel ers</w>
toc ols</w>
tiz ing</w>
th ru
tex tile</w>
t our
t les</w>
supervis or</w>
su l</w>
stri ving</w>
spe akers</w>
sp or
sophistic ation</w>
soft- power</w>
soci o-
sho gg
shale- gas</w>
serv ations</w>
sequ ences</w>
sen i
sec t</w>
scram ble</w>
sali ent</w>
s wel
s tics</w>
s thand</w>
run off</w>
revit alize</w>
rever t</w>
resp ir
resource- rich</w>
resid ual</w>
repe ti
rela xing</w>
ref riger
redund ant</w>
recru iting</w>
recei p
receip ts</w>
re servations</w>
pu mping</w>
psycholo gists</w>
propri etary</w>
presum ed</w>
practic ing</w>
postpon ing</w>
politic al-
poc ket</w>
po ster</w>
pil gri
piec em
piecem eal</w>
persist ed</w>
pendul um</w>
p ick
overwhel m</w>
over t</w>
out -of-
nor theast</w>
ner ve</w>
nan otechnology</w>
n au
my th
mus cular</w>
motiv ate</w>
mon uments</w>
mod es</w>
me ta
mat urities</w>
malig n</w>
low- skill</w>
long- time</w>
le m
laud able</w>
k le</w>
k istan</w>
ja b</w>
it z
it ative</w>
is se
investig ating</w>
inv ade</w>
inter war</w>
int entioned</w>
insur rec
instinc t</w>
inj ustices</w>
ingen uity</w>
in siders</w>
in ous</w>
in ep
im porter</w>
ili tari
i o</w>
h ort</w>
grou p
gra ft</w>
gi fts</w>
gest ures</w>
gam e-
formul ating</w>
forec lo
forb idden</w>
flag s</w>
fir sthand</w>
fif ths</w>
fa ire</w>
f aded</w>
explo ded</w>
exor bitant</w>
exo dus</w>
eth anol</w>
epi demi
enrol led</w>
end anger</w>
embold ened</w>
ed itors</w>
echo ed</w>
e e</w>
detri ment</w>
defa ulted</w>
dar k
cru shed</w>
cra fting</w>
cr ony</w>
correc tions</w>
contradic ts</w>
conglomer ates</w>
confron tational</w>
complic ity</w>
comp ounding</w>
commis sioner</w>
co al
cle ared</w>
chil d-
char ging</w>
ch in</w>
cap s</w>
cal ories</w>
c ling</w>
c ites</w>
c attle</w>
busin es
bri bery</w>
bra in
borrow er</w>
bom bed</w>
bol der</w>
blat ant</w>
bedro ck</w>
batt ling</w>
ban d
bail ing</w>
b ay</w>
awa it</w>
av i</w>
arbitr ation</w>
anni hil
ang ering</w>
amelior ate</w>
alig ning</w>
ali n</w>
air space</w>
advis ory</w>
ad minister</w>
ad i</w>
acu tely</w>
a qu
Z ero</w>
Youn g</w>
Y outh</w>
Vietn amese</w>
Uzbe kistan</w>
Un der
Tus k</w>
Tob acco</w>
T s
R im</w>
Prov ince</w>
Progra m
Pri v
P ash
Op port
M id
Lib yans</w>
L inc
L au
Kha shogg
K an</w>
Ji ang</w>
Islam ism</w>
In flation</w>
H ope</w>
H aw
G a
Emer ging</w>
E S</w>
E P</w>
Christi anity</w>
Capit alism</w>
C oll
Bis mar
Bash ir</w>
Bangla de
BR I</w>
B ak
Antar ctic</w>
An dr
A viv</w>
4 ,
20 th</w>
197 7</w>
195 6</w>
- like</w>
wonder ful</w>
wi re
we ren</w>
w ight</w>
vi sionary</w>
vas cular</w>
v ani
unlea shing</w>
und ers</w>
un elected</w>
trig gers</w>
trac ed</w>
tour nam
them es</w>
te l</w>
tap ering</w>
t ag
supervis ors</w>
sugg es
sub ur
strong man</w>
stock pile</w>
star ved</w>
sta ys</w>
sp a
some day</w>
so rely</w>
sli m</w>
sinc ere</w>
signat ory</w>
sex u
self- inflicted</w>
school children</w>
sal t</w>
sacrific ed</w>
s ati
rich- country</w>
revol ts</w>
respec table</w>
resolu te</w>
remot ely</w>
recover s</w>
reas oned</w>
re valuation</w>
re mor
re define</w>
re actionary</w>
rad ar</w>
r allies</w>
prow ess</w>
premi a</w>
pre curs
pou red</w>
post- election</w>
post- Brexit</w>
pl ate</w>
pione ered</w>
philanthrop y</w>
pharmaceu ticals</w>
pha sing</w>
perio dically</w>
pa int</w>
ous ing</w>
or m</w>
oil- price</w>
occurren ce</w>
neur ons</w>
n syl
mortgage- backed</w>
monit ors</w>
medic ations</w>
mat tered</w>
ma ize</w>
le g</w>
labore rs</w>
laborat ories</w>
la b</w>
l ung</w>
l i</w>
k it
it em</w>
ist -
institu ted</w>
inf low</w>
incen diary</w>
inc ub
in sider</w>
im possibility</w>
ici ans</w>
hydro power</w>
hy e</w>
home less</w>
high- growth</w>
heter odo
ground breaking</w>
gran di
gr ateful</w>
gi e</w>
g us</w>
force ful</w>
flouri shing</w>
fl ames</w>
fish er
financial- services</w>
fin gers</w>
f ading</w>
ev acu
ent ailed</w>
empi res</w>
embrac es</w>
embarra ss
em ig
e po
disper sed</w>
disp lace</w>
dis on</w>
developed- country</w>
destabili zation</w>
denom ination</w>
def erred</w>
debt- financed</w>
de t
custom ary</w>
cor al</w>
cop ing</w>
con g
comman ding</w>
come back</w>
com pares</w>
collabor ating</w>
chec k
che ating</w>
ch ers</w>
cer vical</w>
catastroph es</w>
byp ass</w>
bottlenec ks</w>
bench marks</w>
bat teries</w>
bankrupt cies</w>
awak ening</w>
awa i
ath ed</w>
aspi res</w>
arre sts</w>
arith metic</w>
appreci ating</w>
ap es</w>
anti trust</w>
amne sty</w>
am enable</w>
al- Mar
advent ure</w>
adju dic
W ars</w>
W al-Mar
Tu be</w>
Tig ers</w>
Thre at</w>
T error</w>
Ster n</w>
Sahar a</w>
S ul
Pop uli
Pen nsyl
P S</w>
O k
N asser</w>
Me eting</w>
Ma e</w>
M r.</w>
M az
Linc ol
Lim its</w>
Le on
Kyrgy zstan</w>
Khashogg i</w>
K on
Ju an</w>
Jack son</w>
Indone sian</w>
Holl and</w>
Har bor</w>
H awai
H ague</w>
Govern ors</w>
F ar</w>
ES G</w>
Don bas</w>
Dom ini
Diaoy u</w>
D wight</w>
D omin
D oll
D aw
Con f
C ru
C redi
Buffe tt</w>
Brazili ans</w>
A id</w>
9 ,000</w>
8 00,000</w>
20 40</w>
2 º</w>
196 3</w>
193 2</w>
19 th</w>
1 5,000</w>
-and- trade</w>
yad h</w>
wee kly</w>
w ound</w>
w ings</w>
us ory</w>
up turn</w>
tur no
tr e</w>
too-big-to- fail</w>
ti um</w>
thwar ted</w>
tar nished</w>
ta h</w>
stic ks</w>
ste aling</w>
states men</w>
sta unch</w>
st um
squee zed</w>
so far</w>
sli pping</w>
[...]
