的
,
the
，
。
.
to
of
and
in
-
a
&quot;
在
是
国
和
一@@
that
is
了
&apos;s
不@@
for
为
国@@
有
们
政@@
这@@
人
会
美@@
as
it
个
可@@
、
be
对
年
家
要
经@@
于
on
能
are
with
到
来
而
但
by
but
中@@
大@@
not
也
欧@@
has
have
以
将
中
（
）
力
上
人@@
些
will
发@@
者
主@@
行
this
以@@
他
如@@
大
from
性
%
这
实@@
its
more
济
成@@
their
其
因@@
an
之@@
不
自@@
全@@
化
一
出
世@@
有@@
度
公@@
都
增@@
我@@
利@@
最@@
at
洲
they
定
与
多
or
果
重@@
would
其@@
府
was
他@@
地@@
方@@
用
并
US
时
法
样
业
就
无@@
此
动
资@@
题
得
民@@
长
前
地
提@@
所
进@@
问@@
which
基@@
本
后
及
现
than
新
相@@
关@@
countries
入
然
能@@
场
策
过
更
生@@
)
(
特@@
所@@
China
斯@@
事@@
义
着
需@@
正@@
can
同@@
种
界
经
总@@
现@@
通@@
治
没@@
那@@
应@@
领@@
间
率
持
行@@
成
被
该
已@@
联@@
world
时@@
民
导@@
支@@
制
产@@
工@@
金@@
球
区
巴@@
当@@
投@@
生
斯
if
期
all
体
been
出@@
one
目@@
盟
保@@
多@@
economic
意@@
机@@
合@@
法@@
部@@
we
必@@
面
统
改@@
让
开@@
量
对@@
下
更@@
·
说
从
加
务
分@@
选@@
作@@
new
结@@
市@@
而@@
拉@@
过@@
来@@
它
加@@
资
么
his
机
制@@
only
社@@
：
管
such
伊@@
比@@
反@@
年@@
危@@
决@@
日@@
方
变@@
other
求
government
even
there
also
认@@
should
向
点
作
growth
:
利
理
外
so
global
most
亚
分
could
no
去
when
动@@
about
理@@
元
高
由
who
就@@
political
收@@
many
只@@
平@@
权
now
上@@
须
银@@
共@@
高@@
西@@
战@@
数@@
解@@
何
施
如
式
;
these
则
本@@
还
安@@
非@@
people
系
为@@
十@@
罗@@
Europe
德@@
议
what
此@@
some
少
情@@
两@@
学@@
he
使
次
展
克@@
代
位
外@@
债@@
表@@
且
济@@
得@@
were
际
实
信@@
立
尔
影@@
强@@
明
几@@
组@@
心
country
或
论
易
益
货@@
years
续
平
新@@
险
下@@
规@@
况
阿@@
任@@
同
够
英@@
尽@@
预@@
包@@
计@@
当
致
内
长@@
受
它@@
financial
要@@
约
持@@
比
European
常
建@@
但@@
我
战
全
最
俄@@
融@@
等
月
；
economy
失@@
未@@
党
希@@
must
还@@
do
？
财@@
while
口
?
体@@
兰
贸@@
好
各@@
源
产
近
into
起
协@@
教@@
响
may
价@@
子
had
员
over
policy
面@@
第@@
据
标
like
构
much
划
确@@
自
助
并@@
消@@
time
尔@@
任
out
里
权@@
原@@
承@@
推@@
GDP
获@@
争
them
金
许@@
印@@
学
because
织
达@@
乎
朗@@
受@@
步
创@@
发
应
低
指@@
括
内@@
望
数
技@@
克
革
给
after
接@@
风@@
those
供
主
企@@
很@@
真@@
别
取@@
部
己
由@@
程
United
up
普
power
事
EU
根@@
重
始
带@@
极@@
止
在@@
可
格
和@@
转@@
什@@
明@@
品
许
�
道
势
核@@
international
crisis
司
从@@
至
案
看@@
造@@
亚@@
派
first
减@@
件
存@@
采@@
I
军@@
显@@
between
public
非
正
year
引@@
取
决
变
意
two
会@@
严@@
代@@
员@@
Trump
因
科@@
how
难@@
just
America
前@@
或@@
德
马@@
首@@
设@@
币
管@@
值
今@@
却
三@@
即@@
尼@@
交@@
术
our
治@@
列
境
need
是@@
20
any
both
业@@
研@@
水@@
完@@
仅
trade
普@@
维@@
很
想
well
合
形@@
随@@
威@@
击
力@@
观@@
政
依@@
today
众
进
今
价
Russia
against
回@@
天
使@@
运@@
$
略
流@@
二@@
system
门
气@@
last
定@@
放@@
做@@
识
竞@@
leaders
系@@
market
less
用@@
把
物
反
甚@@
稳@@
造
起@@
命
巨@@
change
way
再
身
东@@
商@@
复@@
奥@@
example
纪
investment
监@@
governments
家@@
某@@
难
候
央@@
朗
own
字
布@@
后@@
since
indeed
小@@
之
debt
too
型
护
断
冲@@
条@@
效
争@@
传@@
类
议@@
至@@
际@@
support
become
项
低@@
make
像
效@@
达
markets
导
然@@
继@@
参@@
President
亿@@
超@@
解
recent
banks
融
确
土@@
担@@
功
挑@@
话
知@@
yet
期@@
far
育
直
活
where
policies
特
破@@
色@@
still
集@@
报@@
state
备
举
负@@
关
程@@
款
紧@@
扩@@
速
important
立@@
统@@
States
洲@@
历@@
服@@
national
环@@
个@@
马
临
每@@
Chinese
越
including
税
越@@
rates
已
独@@
素
social
又
long
does
模
医@@
活@@
具@@
文@@
元@@
电@@
证@@
economies
Japan
做
名
道@@
development
interest
through
放
究
future
military
India
委@@
降@@
言
与@@
里@@
谈@@
手@@
选
深@@
being
same
调@@
想@@
北@@
计
目
富@@
税@@
择
武@@
否
远
胁
without
直@@
象
息
示
判
域
capital
味@@
终
打@@
令@@
坦
宣@@
Germany
级
算
专@@
rate
降
模@@
败
American
劳@@
先
缺@@
拥@@
another
易@@
already
措@@
太@@
见
恐@@
似@@
1
likely
林
整@@
仍@@
升
might
好@@
考@@
似
诺
under
哈@@
的@@
限@@
保
虑
Iran
费
病
开
war
海@@
移@@
work
2008
major
仍
常@@
信
given
made
end
nuclear
foreign
也@@
拉
展@@
官@@
then
充@@
处
格@@
billion
感@@
real
large
币@@
take
控@@
表
界@@
市
high
私@@
压@@
security
tax
use
布
图
good
史
fiscal
处@@
类@@
状@@
足@@
告
南@@
储@@
energy
rather
暴@@
current
fact
激@@
prices
better
among
did
失
免
候@@
万@@
农@@
强
often
波@@
西
problem
right
述
态
result
精@@
risk
《
》
贫@@
善
help
器
视
衡
10
cannot
避@@
排@@
before
心@@
说@@
局
才
份
你
叙@@
思@@
干@@
路
准
health
突
身@@
段
执@@
central
part
往
未
注
队
绝@@
why
demand
course
论@@
退@@
仅@@
困@@
very
states
标@@
2
清@@
日
教
例@@
Bank
除
s
million
whether
around
耳@@
胀
阻@@
害
弱
边@@
companies
手
IMF
沙@@
穆@@
order
朝@@
South
调
three
during
庭
项@@
近@@
共
广@@
试@@
评@@
优@@
例
责
纳@@
moreover
额
腊
institutions
观
though
&apos;t
us
increase
Union
region
验
防@@
Africa
视@@
京
举@@
least
天@@
化@@
构@@
百@@
坏
将@@
World
climate
疗
束
足
收
策@@
容@@
income
院
张
Obama
approach
乌@@
种@@
色
role
勒@@
再@@
接
eurozone
虽@@
few
城@@
气
past
East
短@@
Korea
及@@
景
称
卡@@
higher
萨@@
票
North
兴
back
money
女@@
Asia
削@@
援@@
础
赤@@
石@@
oil
toward
Israel
认
疑
帮@@
远@@
education
切
看
互@@
顿
油
little
next
however
革@@
human
快
private
needs
准@@
律
万
东
条
她
especially
30
monetary
球@@
developing
股@@
费@@
women
thus
局@@
等@@
缩
空@@
down
遭@@
约@@
供@@
头
问
case
注@@
四@@
名@@
台
3
占
情
努@@
族
domestic
助@@
较
角@@
needed
process
rise
others
证
second
democracy
欧
伯
料
clear
军
埃@@
problems
损@@
spending
抵@@
贷@@
伦@@
坚@@
极
即
双@@
come
50
另
停@@
remains
责@@
吸@@
means
strong
尤@@
陷@@
单@@
France
almost
令
只
小
错@@
念
便
兰@@
inflation
5
苏@@
储
批@@
鲜
00
口@@
costs
within
端
潜@@
促@@
reforms
愿@@
business
further
升@@
励
担
election
you
刺@@
阶@@
decades
序
sector
富
continue
物@@
efforts
汇@@
寻@@
积@@
除@@
死@@
离
reform
point
福@@
线
具
退
围
夫
美
测
务@@
靠
五@@
2015
potential
言@@
key
despite
简@@
误
边
different
借@@
交
建
设
激
benefits
seems
2010
键
remain
性@@
long-term
West
every
健@@
/
growing
适@@
质@@
citizens
particularly
agreement
ago
谓
繁@@
待
increasingly
workers
质
price
衰@@
used
区@@
团@@
recently
钱
The
led
services
population
put
Iraq
复
查
础@@
her
able
爆@@
labor
each
emerging
poor
去@@
塞@@
困
流
difficult
底
肯@@
绝
网@@
enough
补@@
追@@
差@@
付
券
记@@
question
members
愿
best
share
均
否@@
报
low
currency
左@@
control
itself
provide
re@@
周@@
level
值@@
greater
administration
毫@@
该@@
致@@
盟@@
set
former
老@@
regime
terms
剧
才@@
族@@
荣
康
interests
整
早@@
my
儿@@
警@@
rights
鼓@@
number
longer
politics
趋@@
Putin
尼
un@@
Turkey
resources
peace
那
access
according
children
0@@
相
倍
never
恶@@
走@@
限
progress
regional
law
say
满@@
instead
War
history
范@@
infrastructure
席
once
轻@@
4
到@@
林@@
Middle
based
jobs
per
声@@
碍
reduce
女
讨@@
突@@
士
州
small
唯@@
卫@@
risks
free
reason
possible
办@@
松
怖@@
life
place
investors
减
impact
媒@@
裁
cost
making
知
团
challenges
背@@
11
层
针@@
effective
off
perhaps
塔@@
释
Western
刻
灾@@
S@@
15
Greece
单
strategy
Syria
鲁@@
竟
create
face
rising
往@@
估
president
义@@
force
态@@
technology
issues
户
again
local
乏
容
2012
data
research
迫@@
true
烈
2014
value
together
结
入@@
him
lead
群@@
leadership
12
水
2013
common
simply
源@@
2009
久
want
left
拒@@
society
member
职@@
action
宗@@
迫
服
童
速@@
40
forces
conflict
bank
significant
stability
-@@
修@@
哥
泛
翼
democratic
赢@@
通
房@@
韩@@
great
sense
纽@@
Arab
serious
华@@
rules
early
ensure
go
across
Russian
需
themselves
2011
unemployment
levels
view
智@@
演@@
被@@
Minister
先@@
until
know
beyond
lower
伙@@
商
药@@
finance
车
deal
联
increased
get
胜@@
see
逐@@
poverty
believe
systems
measures
碳
弃
幅
快@@
度@@
瑞@@
历
永@@
community
崩@@
require
French
firms
牙
program
邦
Ukraine
Party
challenge
什
称@@
British
similar
债
6
另@@
ever
移
home
响@@
莫@@
病@@
threat
乱
9
感
温@@
International
抗@@
亿
7
势@@
25
address
credit
always
60
euro
hard
伯@@
issue
配
袖
find
times
苏
century
曾
dollar
购@@
营
脱@@
party
employment
墨@@
少@@
预
路@@
食@@
友
UN
亡
切@@
工
洋
缓@@
哪@@
班@@
2016
decade
住
客
宪@@
党@@
终@@
网
众@@
纳
Britain
架
German
success
she
兴@@
存
70
young
parties
pay
迅@@
离@@
response
areas
policymakers
怀@@
seem
吗
居@@
Fed
budget
developed
turn
杀
渐
组
UK
曾@@
游@@
识@@
information
lack
初
买
several
米@@
眼@@
毕@@
腐@@
营@@
赖
deficit
裂
conditions
究@@
急@@
move
允@@
rule
审@@
consider
New
open
2007
显
满
训
90
called
having
80
opportunity
food
占@@
average
热@@
model
油@@
假@@
贷
Bush
100
politicians
支
productivity
何@@
犹@@
默@@
号
pressure
半@@
production
exchange
media
粹@@
position
Americans
five
场@@
无
官
officials
advanced
cooperation
讲
focus
署
campaign
voters
big
done
8
算@@
％
控
禁@@
袭@@
short
坦@@
密@@
inequality
海
ways
created
弹
said
良@@
half
核
疾@@
leading
忽@@
恢@@
whose
Italy
run
置
annual
consequences
effects
汗
water
changes
太
groups
转
燃@@
goods
神@@
ability
hope
balance
assets
effort
命@@
带
杂
密
leader
taken
finally
免@@
找@@
industry
古@@
requires
乐@@
term
Council
strategic
连@@
day
care
weapons
映
alone
Pakistan
largely
络
return
层@@
恰@@
违@@
运
largest
护@@
奇
third
top
months
偏@@
妇@@
rest
千@@
消
think
full
failed
structural
宽@@
留@@
massive
签@@
蓄
余
doing
Fund
influence
引
Prime
估@@
opposition
nearly
programs
start
闻
although
consumption
main
wealth
贝@@
powerful
抗
capacity
emissions
exports
economists
位@@
i
cause
four
fall
form
period
banking
爱@@
了@@
majority
岛
伴
either
Nations
拿@@
溃
予
old
working
A@@
头@@
owing
worse
白@@
Asian
shift
伤@@
史@@
呢
哥@@
跌
failure
particular
sustainable
news
relations
落@@
bring
makes
achieve
debate
expected
away
began
试
2000
decline
益@@
funds
lives
lost
increasing
ECB
察
job
付@@
violence
于@@
怎@@
著
improve
supply
习@@
prevent
age
globalization
rich
using
裁@@
natural
告@@
回
benefit
旦
呼@@
E@@
later
taking
怕
2@@
盈@@
框@@
归@@
found
忧
keep
negotiations
姆@@
sure
innovation
遏@@
idea
plan
二
close
Central
aid
elections
total
敦
nothing
固
土
single
month
report
宏@@
experience
living
各
nor
南
盛@@
室
decision
give
散
official
延@@
governance
荡
诉
卫
文
遇
P@@
师
modern
落
seen
Islamic
站
贴
1990
London
罗
bad
taxes
following
F@@
group
opportunities
跨@@
混@@
fear
操@@
evidence
environment
掌@@
倒@@
necessary
秩@@
冷@@
吉@@
峰@@
染
崛@@
comes
in@@
Kingdom
play
安
recovery
异
子@@
每
半
behind
something
G@@
邻@@
疑@@
B@@
Egypt
给@@
agenda
别@@
2005
Congress
trillion
遗@@
probably
轻
actually
Commission
effect
civil
救
艾@@
environmental
维
solution
er
杀@@
贬@@
Brazil
build
缘
T@@
look
things
换@@
规
highly
索@@
Saudi
became
Japanese
右@@
traditional
cities
goal
斗@@
微@@
黎@@
avoid
really
values
慢
析
technologies
soon
黑@@
act
clearly
施@@
kind
录
诸@@
hold
investments
便@@
rapid
o
vote
攻@@
样@@
presidential
protect
觉
缓
科
振
boost
弱@@
脱
cases
压
绪
side
allow
union
苦
Mexico
幸
涨
Development
威
瓦@@
英
装
2001
authorities
account
popular
罪@@
售
博@@
National
legal
测@@
排
reality
bonds
根
Soviet
huge
status
step
R@@
找
白
迪
Security
reducing
Afghanistan
attention
穷@@
known
situation
land
deficits
integration
above
照
D@@
certainly
演
糕
fundamental
书
侵@@
individual
line
live
步@@
露
集
call
contrast
coming
competition
巴
替@@
黎
细@@
量@@
powers
sanctions
汽@@
透@@
守
灭
held
纪@@
matter
larger
住@@
三
梅@@
successful
currently
limited
幸@@
摆@@
collapse
走
late
reach
African
概@@
Donald
took
评
曼
月@@
include
糟@@
果@@
续@@
defense
欢@@
献
针
凯@@
莱@@
L@@
校
光@@
神
K@@
征@@
职
驱@@
判@@
de
圣@@
N@@
outcome
陆
雷@@
State
辩@@
死
楚
creating
standards
右
均@@
犯
勒
gas
领
millions
relationship
略@@
behavior
financing
here
奇@@
库@@
男@@
building
培@@
缺
旨@@
M@@
NATO
六@@
岗@@
敌@@
既
石
corruption
critical
司@@
周
洛@@
破
easy
commitment
along
concerns
corporate
minister
relatively
列@@
悲@@
understand
伴@@
按@@
wrong
2006
established
words
犯@@
Palestinian
decisions
produce
products
H@@
meanwhile
换
据@@
救@@
节@@
1@@
mean
境@@
500
offer
quickly
药
佳
尊@@
岁
软
direct
projects
符@@
meet
cut
润
胜
贡@@
elsewhere
障@@
meeting
Paris
倾@@
害@@
盖
recession
refugees
基
膨@@
freedom
守@@
没
谁
external
2017
develop
everyone
弗@@
businesses
彻@@
results
C@@
Muslim
entire
买@@
Latin
cuts
worldwide
惊@@
came
religious
similarly
confidence
hand
thing
k@@
man
撒@@
let
群
Washington
responsibility
movement
non-@@
so-called
光
weak
启@@
ten
征
脑
unlikely
迈@@
Barack
品@@
片
men
撤@@
Brexit
recognize
罪
show
allies
becoming
general
脆@@
organizations
stop
诺@@
caused
t
毒
赞@@
continued
恩
次@@
旧
beginning
dangerous
Internet
fight
键@@
attacks
basic
roughly
著@@
path
亲
relative
见@@
essential
raise
养@@
reasons
technological
Great
alternative
术@@
certain
performance
查@@
总
funding
痛@@
花@@
临@@
埃
overall
science
诚@@
挥
gains
宫
existing
ultimately
疫@@
claim
卢@@
隐@@
brought
helped
灵@@
forced
喜@@
差
source
industrial
won
days
刚@@
fully
习
状
初@@
话@@
maintain
泡@@
me
outside
志
proposed
target
听@@
intervention
management
孩@@
顾@@
...
属@@
Global
疗@@
配@@
秘@@
eventually
output
reserves
症
穷
b@@
食
Europeans
additional
asset
t@@
雇@@
s@@
Spain
advantage
negative
2004
victory
艰@@
蒂@@
below
防
II
available
positive
prosperity
间@@
creation
deep
偿@@
故@@
company
沉@@
leave
solutions
accept
continues
personal
错
Arabia
18@@
unfortunately
迎
allowed
套
着@@
菲@@
death
liberal
factors
描@@
语
complex
scale
stock
stimulus
典
功@@
姆
陷
e
framework
thereby
障
ahead
技
阵@@
3@@
Indian
choice
office
ate
basis
generation
帝@@
沫
May
Republican
坏@@
访@@
含
鲜@@
Monetary
2003
示@@
individuals
provided
氧@@
manufacturing
吁
era
es
轮
Greek
required
agreed
Federal
amount
抑@@
缩@@
austerity
family
shared
久@@
answer
communities
independent
neither
班
effectively
independence
Korean
carbon
consumers
crises
knowledge
sectors
claims
economics
societies
Xi
insurance
skills
O@@
attack
花
1980
moral
毁
污@@
flows
投
誉
廷
留
increases
儿
森@@
连
W@@
project
quality
声
facing
savings
律@@
September
concern
ideas
throughout
恩@@
谈
18
200
argue
points
short-term
damage
industries
net
stronger
matters
incentives
索
传
负
don
固@@
归
滞
households
wages
早
滋@@
节
transition
likewise
播
火@@
闭
partners
rapidly
vision
泰@@
孤@@
暖
revolution
输@@
21
TPP
disease
掉
卡
遍
扭@@
g@@
距
providing
dollars
service
willing
检@@
残@@
零@@
export
study
养
较@@
径
2030
federal
questions
向@@
A
activities
al
叶@@
歧
湾
遵@@
grow
Israeli
ed
士@@
章
握
摩@@
events
怒
涉@@
答@@
protection
saving
thinking
察@@
提
extreme
moment
surplus
&apos;
粮@@
politically
reached
reduced
亲@@
萧@@
aimed
gain
talks
随
borders
contrary
Trade
impossible
慎
pursue
累
goals
loss
八@@
装@@
e@@
forward
ing
institutional
regulation
必
托@@
享
款@@
裕
账@@
diplomatic
y
six
stable
考
风
expect
衡@@
House
suggests
widely
bilateral
患@@
actions
obvious
sometimes
份@@
授@@
港
loans
伦
急
记
gap
slow
夺
agreements
school
appears
previous
扰
沙
纠@@
elected
怪
area
driven
expansion
岸
逃@@
competitive
housing
significantly
simple
火
border
crucial
focused
剧@@
anti-@@
d@@
福
麻@@
de@@
增
徒
浪@@
parts
书@@
趣
authority
internal
ating
followed
nature
responsible
turned
词
13
reduction
k
understanding
逆@@
YORK
air
class
trying
异@@
智
贵
city
compared
earlier
follow
wants
cultural
George
culture
ers
thought
worth
空
John
summit
潮
矛@@
core
losses
seeking
vulnerable
digital
苗
Reserve
directly
plans
committed
票@@
补
Economic
am
paid
unless
击@@
secure
村
嫩
席@@
鉴@@
terrorism
17
consensus
九@@
森
Clinton
populist
strengthen
neighbors
捍@@
seek
treatment
2020
excessive
imports
regulatory
produced
坛
dis@@
related
绿@@
equity
y@@
伊
扮@@
虚@@
尚@@
whole
覆@@
difference
partly
shows
try
休@@
形
Syrian
size
电
regions
trust
笔
语@@
liquidity
端@@
easily
feel
沃@@
14
begin
属
断@@
聚@@
逊@@
拖@@
ation
p@@
primary
scientific
students
therefore
享@@
盾
龙
agree
demands
establish
book
steps
恶
chance
going
record
ts
wage
座
托
野@@
香@@
warming
your
深
Republicans
historical
models
prime
promote
兵
赛
targets
16
burden
sources
subsidies
始@@
fail
ties
翻
请
4@@
anything
direction
愤@@
coalition
respect
trend
whatever
青@@
顶@@
飞@@
sides
废@@
既@@
argued
presidency
级@@
en@@
immigration
seemed
倒
派@@
蒙@@
ated
思
encourage
property
麦@@
argument
硬
invest
o@@
trading
世
耶@@
faster
lose
serve
般
瓦
unlike
manage
sovereign
Kim
biggest
falling
Palestinians
announced
win
terrorist
December
妥@@
vital
误@@
deliver
extent
wars
threats
ground
uncertainty
暗@@
whom
himself
multilateral
reflects
substantial
房
University
importance
荷@@
鲁
game
option
otherwise
染@@
November
doubt
principle
abroad
child
lending
save
措
纷
购
implement
召@@
疲@@
血@@
assistance
expectations
欢
米
Hamas
J@@
anyone
legitimacy
push
划@@
牙@@
latest
provides
客@@
vast
Organization
consumer
intelligence
奥
屠@@
35
Poland
ates
尽
safety
庞@@
favor
calls
farmers
truth
拯@@
laws
takes
写
范
铁@@
training
毒@@
center
renminbi
supported
刚
profits
various
self-@@
story
息@@
adopted
shown
standard
achieved
19
Merkel
immediate
none
台@@
尝@@
幅@@
辑
changed
health-care
migration
丧@@
厂
暂@@
referendum
urban
环
competitiveness
drug
limits
斗
置@@
赖@@
险@@
managed
raising
DC
Iranian
faces
specific
re-@@
speech
僵@@
软@@
黄@@
middle
焦@@
prospects
range
suggest
tend
commercial
improved
merely
C
current-account
ensuring
happen
thousands
becomes
limit
theory
惧
纵
precisely
却@@
热
safe
协
incomes
lies
over@@
销@@
净
张@@
顾
severe
6@@
mass
respond
tools
York
initiative
reflect
unable
探@@
附@@
2002
罚
spent
spread
兄@@
迪@@
销
efficient
fighting
Secretary
enable
built
Argentina
principles
侵
€
音
额@@
accounts
whereas
杆
疾
跨
launched
promise
彼@@
D
星
started
僚
真
Lebanon
母@@
300
Cold
easing
leaving
杰@@
案@@
牌
督@@
an@@
context
else
macroeconomic
杜@@
老
tariffs
夫@@
activity
week
七@@
丰@@
扎@@
象@@
赫@@
base
n
special
两
她@@
惩@@
门@@
General
震@@
membership
sovereignty
跟
June
lot
截@@
capita
changing
d
drive
outcomes
press
test
链
I@@
di@@
efficiency
running
a@@
normal
spend
improving
possibility
季@@
杂@@
diseases
estimated
折@@
2018
generally
resulting
schools
督
讲@@
faced
fund
prove
widespread
备@@
王@@
听
旅@@
considered
head
伟@@
申@@
designed
l@@
劲
醒
space
attempt
creditors
fuel
Democratic
appear
rural
went
押
Treaty
broader
received
抛@@
迟
闻@@
Islam
giving
near
杠@@
5@@
promises
巩@@
订
agricultural
写@@
helping
图@@
澳@@
democracies
末
红@@
buy
candidates
experts
structure
G20
stand
welfare
causes
happened
regulations
24
hit
清
积
缅@@
families
operations
construction
getting
household
regard
休
V@@
drugs
hundreds
牺@@
Libya
Re@@
continent
legislation
views
影
1.5
collective
释@@
零
circumstances
曲
allowing
enormous
final
goes
照@@
sustained
阳@@
depend
radical
treaty
ted
紧
absence
乔@@
齐@@
message
associated
differences
struggle
tensions
父@@
粹
asked
geopolitical
mostly
present
revenues
渴@@
barriers
remained
scientists
depends
police
m@@
n@@
丹
善@@
顺@@
Abe
addition
name
Eastern
fell
mind
z@@
justice
practices
succeed
supposed
丁@@
moving
resistance
everything
opinion
ratio
届
broad
economist
identity
worked
conflicts
electoral
tried
惊
读
currencies
捐@@
航@@
deeply
raised
undermine
库
循@@
忧@@
22
considerable
ended
instability
permanent
comprehensive
declared
due
usually
镇@@
ally
boom
forms
viewed
含@@
批
谋@@
QE
factor
fair
medical
毁@@
Democrats
closer
entirely
nationalism
returns
居
曼@@
ethnic
hardly
met
车@@
In
agencies
emerged
御
私
Cambridge
stage
斥
capitalism
danger
smaller
unprecedented
叛@@
highest
subject
微
雅@@
bankers
雄@@
Kremlin
upon
典@@
Muslims
cash
migrants
u@@
桑@@
累@@
首
1989
Erdoğan
觉@@
equal
er@@
lines
choose
disaster
弹@@
credibility
摧@@
learn
productive
皮@@
estimates
initiatives
receive
strategies
诱@@
person
revenue
told
commodity
worst
zero
f@@
generate
rhetoric
stands
宾
拜
逻@@
combined
让@@
迎@@
involved
potentially
山
版
甸
Hong
le@@
advance
deaths
measure
孟@@
廉@@
星@@
龄
－
Gaza
borrowing
i@@
payments
distribution
expand
suffering
兑@@
句@@
1970
candidate
hands
task
霍@@
齐
Sea
nonetheless
器@@
广
organization
played
殊
Macron
diplomacy
establishment
includes
positions
offered
u
weeks
Revolution
奖
字@@
课@@
electricity
conventional
quite
soft
堪@@
薪@@
Court
March
agriculture
priority
耐@@
ongoing
余@@
July
contribute
planet
丹@@
耗@@
alliance
overcome
萎@@
January
Paul
army
equally
greatest
sought
analysis
m
pace
recognized
藏
it@@
on@@
practice
slowdown
supporters
抓@@
afford
controls
explain
implications
mainly
ordinary
祖@@
Ireland
achieving
places
ting
佛@@
fallen
participation
sufficient
打
育@@
experienced
trends
v@@
段@@
R
addressing
implemented
俗
冒@@
坡
射
逊
频@@
健
body
scenario
sound
恨
am@@
regulators
transformation
夏@@
&amp;
Republic
Vladimir
commitments
percentage
proved
universal
乐
干
朝
硬@@
45
adjustment
impose
rely
territory
troops
垄@@
撑
al-@@
arms
everywhere
killed
ones
启
夺@@
Venezuela
online
restore
谨@@
P
regimes
strength
suffer
options
获
诊@@
28
belief
gone
1999
break
populations
契@@
扬
渡
纷@@
Assad
decided
heart
imposed
波
active
conservative
h@@
southern
伤
2050
easier
list
protests
垒
cancer
偿
像@@
途@@
amounts
fears
implies
le
胡@@
互
熟@@
登
add
imbalances
join
sharp
赫
迷@@
27
U@@
actors
proposal
延
affairs
inclusive
lesson
烦
牲
赋@@
enterprises
immigrants
nation
road
strengthening
改
迹@@
适
l
round
底@@
昂
intellectual
mechanisms
numbers
pursuing
柏@@
避
1997
perspective
refugee
ruling
sharply
type
剥@@
Treasury
Y@@
bond
leverage
办
唐@@
affect
al@@
ations
conference
developments
园
筹@@
Health
degree
仇@@
default
盘
答
迹
corporations
expensive
良
触@@
诉@@
G
virtually
昂@@
邦@@
隔@@
inevitable
truly
茨
Facebook
armed
gold
objectives
patients
23
debts
immediately
room
wanted
坐@@
饥@@
2.5
75
appropriate
continuing
visit
works
胞
blame
con@@
cycle
green
hopes
sign
仰
招@@
酬
coal
declining
elites
maintaining
typically
疟@@
engage
keeping
red
seven
阴@@
j@@
underlying
戈@@
dynamic
violent
yes
谴@@
constitution
desire
talk
封@@
ask
be@@
critics
networks
credible
secular
CO2
Islamist
economically
é
点@@
狂@@
触
Al
Beijing
combination
promised
催@@
刑@@
ar@@
holding
opponents
senior
奖@@
惑
歧@@
sh@@
山@@
眼
bringing
learned
prospect
介@@
朋@@
煤@@
苦@@
G-20
ar
studies
w@@
壁@@
幻@@
故
洁
线@@
Turkish
aggregate
fortunately
objective
勃
塑
细
affected
causing
producers
reflected
starting
孩
authoritarian
gender
lessons
supporting
刺
幕
指
途
遇@@
language
nationalist
or@@
resolution
佩@@
挥@@
殖@@
短
验@@
7@@
driving
field
girls
learning
movements
turning
ch@@
fast
resolve
sustain
October
regardless
ri@@
Vietnam
believed
c@@
fuels
gave
mistake
nations
桥
灭@@
翻@@
light
poorest
proposals
束@@
涉
渠@@
滥@@
offers
physical
quarter
沃
距@@
David
HIV
peaceful
putting
塔
揭@@
暴
Sunni
front
parliament
prepared
wide
剂
弥@@
constitutional
described
en
expanding
investing
looking
牛@@
遍@@
S
event
quantitative
represents
些@@
华
履@@
第
练
cutting
p
爱
狱
若@@
饱@@
heavily
帕@@
Kong
figure
knows
playing
慌
漫@@
煽@@
1991
surely
determined
published
starters
transfer
Canada
Robert
carry
decide
opening
parliamentary
promoting
robust
temporary
assume
destruction
firm
imagine
mechanism
relevant
transparency
determine
eight
looks
losing
shape
Climate
Indonesia
exit
worry
裔
迷
guarantee
leads
planning
省
街@@
Australia
Jewish
complete
dramatically
ready
setting
apparent
deflation
generations
堡
角
ministers
块
涌@@
温
aim
team
假
勃@@
Financial
ans
backed
deeper
equivalent
occurred
掩@@
若
赶@@
observers
signed
fueled
northern
st@@
technical
concerned
defined
exactly
剩
Communist
choices
essentially
副
登@@
accepted
bound
求@@
舞@@
Modi
divided
gained
house
~
敏@@
材@@
10@@
65
grown
炸@@
Singapore
bear
decision-making
defend
establishing
relief
seriously
useful
戏
沦@@
400
Parliament
purpose
欺@@
辛@@
April
bubble
ending
围@@
possibly
勇@@
训@@
excess
issued
mention
partner
under@@
仿
匈@@
discussion
formal
territorial
unique
惠
Partnership
court
defeat
encouraging
sell
26
paying
忍
捕@@
遥@@
Committee
W.
contributed
liberalization
processes
race
summer
surprise
twentieth
歌
竭@@
Act
happens
humanitarian
刑
捕
innovative
minority
solve
板
ASEAN
People
demonstrated
fewer
healthy
victims
霸@@
WTO
previously
signs
冰@@
梅
adopt
elite
journalists
moved
opposite
requirements
thanks
友@@
草
In@@
Institute
盖@@
翰
菲
贾@@
雷
annually
pollution
showed
son
stagnation
universities
urgent
crimes
failing
meant
1979
arrangements
king
恰
脑@@
1998
ab@@
mis@@
necessarily
players
惨@@
输
begun
friends
se
structures
促
chief
co@@
compromise
employees
joint
represent
restructuring
城
烟@@
!
inadequate
禁
included
presence
purchases
颇@@
added
figures
served
尚
梦@@
篇
host
沿@@
赛@@
麦
August
Italian
Nobel
Taiwan
Taliban
ambitious
equality
large-scale
unsustainable
毛@@
滑
综@@
billions
dependent
occur
remaining
towards
understood
宝@@
OECD
aging
design
hours
targeted
乃@@
冲
卖
填@@
草@@
跟@@
Depression
at@@
closely
pension
shocks
trouble
willingness
股
胡
constraints
dramatic
introduced
mandate
兹
替
ag@@
post-@@
sustainability
ti@@
酷
extremely
li@@
priorities
reported
葡@@
韦@@
F
legitimate
standing
包
愈@@
树@@
&#91;
&#93;
product
protecting
辱
150
Sarkozy
emerging-market
flow
perceived
says
solidarity
volatility
俄
剩@@
授
罕@@
1930
1960
Brussels
clean
dialogue
sharing
t-@@
宗
搜@@
摇@@
熟
White
calling
pattern
默
Berlin
ha@@
intended
moderate
倡@@
屈@@
纯@@
讽@@
born
emerge
engagement
g
im@@
integrated
religion
bill
humans
launch
ly
promising
忘@@
馆
boosting
costly
embrace
gradually
historic
implementation
remarkable
sp@@
stance
survival
卷@@
蔓@@
Gulf
ding
se@@
俱@@
忆
植@@
adequate
enabled
legacy
r@@
ro@@
track
votes
王
癌@@
筑
脚
萄@@
kept
reports
restrictions
待@@
炸
E
aggressive
capable
criticism
linked
paper
researchers
艺@@
scope
剑@@
劣
庇@@
康@@
怖
送
approaches
capabilities
exchange-rate
genuine
identify
谷@@
addressed
emergence
incentive
pushing
surprising
terrorists
母
龄@@
saw
渐@@
ISIS
board
double
humanity
out@@
recognition
•
Chancellor
Russians
heavy
reaching
suffered
披@@
ad@@
als
educational
meaning
threatened
via
辞
诚
globally
ideological
centuries
grew
pushed
ra@@
shock
忠@@
Jews
cheap
concluded
finding
replace
wave
炭
稀@@
Z@@
exist
quo
stake
youth
停
厉
b
eliminate
faith
宰
志@@
England
institution
扎
compete
doesn
opposed
transactions
味
夸@@
宜
河
AIDS
confront
norms
按
Netanyahu
battle
dominated
risky
tell
weakness
墙
妙
抱@@
浮@@
Agreement
carried
strike
undermining
伐
吉
晰
Wall
civilian
contracts
fossil
harm
managing
network
plants
producing
萨
阁
副@@
千
挽@@
敢
胆
董@@
Palestine
reserve
series
drop
nowadays
settlement
someone
8@@
Nigeria
Social
as@@
bottom
modest
securities
fourth
lo@@
private-sector
withdrawal
弟
牵@@
accounting
apply
homes
preventing
repeatedly
倍@@
钢@@
20@@
exposed
suggested
users
狭@@
超
1995
February
populism
灵
编@@
1992
Shia
el@@
exception
logic
pressures
予@@
枪@@
胀@@
讨
踪
concept
ignore
profound
充
峻
9@@
CEO
operating
speak
taxpayers
transfers
wrote
丑@@
纸
败@@
Assembly
Chile
conducted
malaria
woman
版@@
completely
fate
rejected
reverse
welcome
冷
engaged
operate
solar
weight
accompanied
advances
borrow
primarily
r
么@@
访
DNA
died
educated
facts
import
polls
stay
survive
uses
ant
cover
crime
e-@@
mission
substantially
tough
胎
韦
！
California
T
charge
controlled
explanation
mobile
negotiating
realize
statement
yield
街
陈@@
Senate
budgets
deals
felt
holds
mere
practical
sales
哲@@
敦@@
菌
迄@@
link
1994
allows
appeal
disputes
ks
obviously
reasonable
sentiment
state-owned
漏@@
袭
饮@@
B
Georgia
expense
failures
河@@
血
Plan
attractive
delivered
enter
genetic
smart
sort
st
warned
匹@@
跃
铁
elements
emergency
minimum
narrative
ownership
strongly
戴@@
claimed
implementing
z
丝@@
榜@@
¾
吞@@
1945
Christian
is@@
latter
ons
pre@@
sea
wider
塑@@
寿@@
抱
灾
1990s
600
attempts
daily
illegal
innovations
obligations
兼@@
店
泽@@
滞@@
番
迟@@
颠@@
Investment
appreciation
ideology
material
notably
package
weaker
创
梦
Iraqi
earnings
examples
harder
offering
offset
supplies
+
alike
inevitably
parents
企
厌@@
植
讯
迁@@
cross-border
expanded
fire
publicly
wealthy
静
Supreme
attract
die
initial
mainstream
voting
wind
Cameron
Defense
effectiveness
enabling
generated
regarded
resource
species
threatening
痛
靠@@
Goals
actual
aside
invasion
句
蓄@@
阱
bold
counterparts
enhance
killing
released
subsequent
uncertain
unity
乱@@
洞
诞@@
骤
Sweden
balanced
ous
weaken
坎@@
逐
饿
Street
discussions
fragile
mo@@
search
table
undoubtedly
亡@@
央
损
AI
barely
high-@@
managers
nominal
posed
slowly
怨
蒂
隆
1.@@
broadly
contributions
convinced
executive
inflows
ism
renewable
rose
acting
coordination
ic
consistent
creates
escape
ling
par@@
砖
络@@
谋
露@@
Moscow
Pacific
ad
turmoil
version
voted
某
省@@
豪
accountability
devastating
dominant
flexibility
progressive
Department
chains
wake
浓@@
O
newly
threaten
to@@
transport
word
皇
ap@@
facilities
financed
professional
rarely
seemingly
恐
洪@@
溢@@
SDR
arguments
coverage
fundamentally
organized
passed
末@@
肆@@
Israelis
bubbles
interventions
joined
one-third
populists
protectionism
ruled
terror
19@@
Colombia
Jordan
applied
bankruptcy
contain
contribution
declined
ds
father
got
leaves
les
over-@@
purchase
借
四
巨
愚@@
顽@@
Sustainable
ine
momentum
pre-@@
x
卿
峰
Hezbollah
M
demographic
measured
mutual
viable
娜
驾@@
An@@
closed
conclusion
diverse
engineering
es@@
he@@
negotiate
participants
yields
捷@@
ent
female
flexible
placed
pointed
replaced
亦@@
擎
Hungary
apparently
approval
buying
customers
donors
inter@@
refused
right-wing
steel
television
堂
践
1980s
Policy
ac@@
demonstrate
encouraged
gives
revealed
variety
猛@@
bailout
decisive
extend
far-reaching
mobility
style
券@@
汇
绩
舞
覆
TB
corrupt
initially
mid-@@
售@@
绕
衷
Google
academic
tests
weakened
旗@@
灰@@
Angela
Kenya
older
pursued
saying
systemic
佛
秀
黑
Portugal
criminal
exercise
facilitate
selling
twice
庆@@
驻
Le
Netherlands
ambitions
bo@@
ir@@
returned
struggling
white
慨
籍
Justice
Yemen
block
nine
protest
taxation
厚
Agency
Foreign
Forum
cyber
narrow
qu@@
sent
stories
successfully
valuable
凸@@
哈
挪@@
薪
赌@@
29
Growth
Rights
demanding
extended
successor
weakening
丧
do@@
focusing
provision
renewed
承
折
辞@@
Philippines
Spring
centers
chemical
expressed
knew
predict
shifting
soldiers
surpluses
挠
振@@
Keynes
foreign-policy
helps
nevertheless
partnership
patterns
pose
reliable
resulted
retirement
恋
散@@
Pakistani
chronic
computer
policymaking
presidents
regarding
把@@
援
概
牢@@
apart
capture
concerning
correct
improvement
missile
periphery
relationships
奋@@
尖@@
Twitter
fixed
furthermore
platform
specifically
surge
trial
悬@@
症@@
荒@@
贫
ends
except
frequently
instruments
th@@
waste
慧
0.@@
Ar@@
entrepreneurs
foreign-exchange
function
guide
ideal
review
supposedly
treated
twenty-first
李@@
肃
16@@
Al@@
Ch@@
cars
coup
depression
divide
gets
marked
multiple
simultaneously
stress
严
惯@@
摇
浦@@
NAFTA
Reagan
bigger
displaced
eastern
lie
plenty
read
showing
statements
挤@@
1950
Change
Copenhagen
Egyptian
Jinping
lacks
platforms
shareholders
呈@@
春
沟@@
2025
James
condition
debates
happening
painful
raises
responses
travel
戏@@
游
1993
abandon
alternatives
destroy
mark
reaction
si@@
transform
united
卖@@
腊@@
蚀
谷
颇
Bangladesh
damaging
forcing
identified
interest-rate
kinds
talent
慢@@
率@@
adverse
diversity
downturn
dream
phase
two-thirds
wisdom
慷@@
料@@
疫
赐
advocates
consequence
dealing
peak
profit
sheets
suddenly
triggered
厄@@
析@@
笑
Energy
advice
argues
believes
h
meaningful
methods
tion
y-@@
zone
惯
玛@@
臣
Bill
badly
ban
em@@
imposing
treat
吃
镑
17@@
Center
Group
Harvard
Mar@@
abuse
advantages
complicated
courts
impressive
middle-income
resilience
shifts
surprisingly
慈@@
Con@@
SDGs
aftermath
chaos
characterized
image
participate
properly
rescue
rulers
巧@@
庭@@
沮@@
玩@@
consolidation
ded
ethical
governing
warning
北
站@@
般@@
Spanish
assessment
charges
colleagues
downward
rational
somewhat
你@@
姿@@
碳@@
隘
鱼
Germans
benefited
black
borrowers
dead
heads
ho@@
original
prosperous
runs
tool
vaccines
堆
患
轨@@
Peace
accelerate
carefully
foundation
historically
imperative
limiting
mistakes
openness
phenomenon
responsibilities
sexual
津@@
糊
肥@@
遭
compensation
component
dispute
improvements
invested
justify
materials
ne@@
weather
寄@@
州@@
弟@@
陆@@
attempting
challenging
equipment
eyes
for@@
minorities
no@@
occupation
send
stopped
unions
university
written
ze
揭
轮@@
combat
extra
inclusion
obstacles
worried
印
甘@@
钩
800
SDG
aims
depreciation
false
fueling
grounds
guarantees
overwhelming
proportion
staff
strengthened
tradition
丁
吨
季
忍@@
鱼@@
700
Conference
Kosovo
Tunisia
acts
civilians
considerably
consistently
discipline
fails
index
maintained
recognizing
ul@@
ultimate
凝@@
旺@@
横@@
Bernanke
City
W
draw
pain
representatives
survey
trigger
叫
详@@
飙@@
250
au@@
aware
dependence
minds
neighboring
prefer
shares
winning
农
吃@@
汉@@
bodies
brain
concrete
doctors
mortgage
opened
proper
transparent
ve@@
妨@@
泛@@
谢@@
Blair
assumed
brings
congressional
connected
drawn
funded
generating
indicators
ou@@
persistent
plant
proven
types
叶
旧@@
架@@
brutal
confrontation
ously
planned
predicted
stimulate
succeeded
threatens
十
景@@
盛
缘@@
Board
Foundation
Polish
atmosphere
op@@
perfect
pro-@@
pro@@
scheme
streets
unconventional
vehicles
workforce
洋@@
繁
词@@
car
didn
enjoy
free-trade
ic@@
ignored
purchasing
residents
voice
wonder
册
癌
Stability
accused
birth
ch
el
hunger
manner
ot@@
sophisticated
vi@@
壮@@
岛@@
携@@
晚
钟
gaining
moves
protected
revolutionary
south
surveillance
tens
undermined
堕@@
寡@@
晋@@
村@@
荣@@
页@@
Myanmar
counter
extraordinary
monopoly
noted
responded
号@@
望@@
anniversary
creative
famous
outright
partnerships
presented
root
transformed
ve
码
轰@@
骚@@
85
considering
discrimination
ter
偶@@
卓@@
怪@@
裂@@
都@@
As
Thailand
adapt
ance
avoiding
enemies
expenditures
po@@
rightly
secondary
secret
well-@@
妇
渔@@
聪@@
跌@@
Mo@@
content
earn
estate
experiencing
longer-term
pressing
separate
usual
仔@@
烟
送@@
Saddam
co-@@
collapsed
欲@@
邪@@
Atlantic
Sudan
activists
fe@@
greatly
insist
notion
oppose
preserve
resist
slightly
stocks
吹
春@@
歇@@
矿@@
De@@
Human
Mubarak
heard
meetings
negotiated
pe@@
recover
remember
spirit
婴@@
1996
3.5
Free
appeared
artificial
contract
employers
estimate
functioning
informal
links
payment
repression
筑@@
耗
震
Convention
Cuba
US-@@
anger
approved
emphasis
enemy
ge@@
island
severely
tightening
谢
1967
Brotherhood
It
Pen
low-income
missing
poorer
represented
tackle
te@@
岩
欣@@
者@@
聚
blood
operation
real-estate
stem
凭@@
抨@@
推
睹
0.5
Kurdish
caught
deposits
exporters
fields
os
poorly
婚
崇@@
44
Bashar
Jerusalem
communication
manipulation
prison
retain
s-@@
童@@
糟
薄@@
靡
Crimea
N
insufficient
reliance
tions
ur@@
刻@@
奉@@
循
狂
Authority
actively
avoided
commit
happy
involve
me@@
pass
prolonged
reductions
trials
惠@@
拜@@
拨@@
Labour
conduct
directed
involving
motivated
mounting
risen
wait
劳
涯
皮
芬@@
Ben
entered
headed
sensible
ton
unemployed
扼@@
攀@@
肉
肺@@
Berkeley
Shanghai
assumption
dominance
ia
patient
prepare
slower
spur
statistics
testing
瞩@@
读@@
95
Mediterranean
agency
analysts
backing
destroyed
involvement
picture
彩
挣@@
邓@@
Dutch
compelling
dangers
extremists
falls
perception
provisions
realistic
skilled
slowing
吧
堪
屋
羞@@
魔@@
Malaysia
des
features
feeling
granted
nowhere
ourselves
poses
sold
sudden
wellbeing
港@@
社
骗
confronting
dropped
expertise
kill
晚@@
木@@
玻@@
蓝@@
豪@@
邀@@
顿@@
Hitler
Times
acknowledge
c
mental
requiring
杯
纵@@
Front
Hillary
Per@@
Qatar
awareness
backlash
broken
enforcement
ity
labor-market
machines
seats
ta@@
turns
urgently
wish
咎@@
慑
拿
挡
炎
雨@@
1.3
36
bi@@
contributing
date
om@@
贪@@
音@@
#
Mexican
Qaeda
a-@@
competing
crash
feature
ing@@
isolation
lasting
protectionist
sets
speed
underway
vaccine
晤
祉
邮@@
采
Southeast
Tokyo
gu@@
inside
liabilities
prior
prominent
reluctant
ren@@
traditionally
叫@@
壤
讼
-based
160
Richard
careful
chain
communism
explained
foreigners
indicate
influential
la
saved
transportation
孙@@
柱
渡@@
玛
BRICS
albeit
define
rebalancing
rival
rooted
sensitive
sooner
sub@@
targeting
tragedy
tu@@
穿@@
脚@@
Alliance
IC@@
affordable
al-Assad
count
favorable
medicine
pharmaceutical
strikes
冒
沿
独
申
皇@@
逃
Summers
animals
anywhere
bu@@
ec@@
fill
fit
missiles
ness
numerous
proliferation
ru@@
兑
1982
controversial
eliminating
executives
fulfill
ked
五
旁@@
氏
猜@@
稳
素@@
虐@@
请@@
13@@
NPT
art
dictatorship
ease
gradual
match
north
openly
politician
removed
restoring
seeks
欠@@
衍@@
贯
33
AKP
Big
beneficial
catastrophe
comparable
d-@@
ge
guaranteed
imply
ke
mitigate
棘@@
燃
Madrid
adopting
autonomy
balances
couple
delay
difficulties
eager
evolution
monitoring
trap
vulnerability
哪
念@@
讶
辅@@
BJP
constant
foster
il
internationally
loan
memory
tons
卜@@
吹@@
寨
34
37
Abbas
Deng
English
King
achievement
attitudes
closing
enacted
engine
grand
quick
ves
巧
摄@@
淡@@
磨
舒@@
15@@
1970s
1973
31
cells
deepening
extensive
extremism
hurt
ingly
interested
prevented
projected
roads
stood
te
博
抽@@
疏@@
疯@@
缴@@
32
Chávez
Di@@
En@@
Northern
abandoned
absolute
background
communications
expenditure
expression
il@@
reject
stabilize
unfair
w
乘@@
塞
2019
crops
desperate
halt
inefficient
intervene
ists
naturally
outlook
rare
res
resort
sites
伪@@
劣@@
囚@@
床
欲
镇
Kurds
bit
f
finances
fresh
ig@@
multi-@@
ni@@
ran
upcoming
京@@
滑@@
粗@@
践@@
Kennedy
Me@@
Michael
accountable
alliances
asking
assess
chose
discuss
fl@@
ies
onto
ors
pursuit
um
waiting
帝
瘫@@
League
Office
Stalin
ator
cheaper
disasters
electorate
ings
looked
man@@
problematic
puts
shed
stated
volatile
volume
宁@@
痪
38
Be@@
Constitution
FDI
acceptable
adoption
alongside
coordinated
erupted
fossil-fuel
x@@
笔@@
递
Denmark
Earth
Hollande
Sub-Saharan
adding
campaigns
collaboration
der
dominate
feed
imperial
optimistic
persuade
plus
reputation
resolved
respectively
speaking
struck
奴@@
扫@@
挂@@
泉
纸@@
船
辙
返
雄
1.2
Morsi
Norway
Scotland
books
divisions
evident
foundations
ill
lay
low-carbon
signal
software
to-@@
公
抬@@
旱
礼@@
缔@@
船@@
55
Afghan
Army
Un@@
anxiety
de-@@
dynamics
ed@@
mix
withdraw
糖@@
飓@@
Burma
Finance
Keynesian
Thomas
arguing
breaking
concentrated
constrained
facto
formed
generous
low-@@
ma@@
mortality
murder
periods
pricing
public-sector
repeated
乳@@
Le@@
We
adjust
code
conclude
discussed
famously
inspired
modernization
mortgages
ol@@
shifted
toxic
挫@@
蠢
Law
Millennium
Ro@@
TTIP
ard
existence
human-rights
insecurity
legislative
lenders
purposes
ranks
reinforced
retail
reversed
ry
striking
unit
unwilling
v
田
罚@@
Islamists
Ukrainian
communist
details
exists
hence
observed
realized
sufficiently
伐@@
啸
悉
烧
120
Education
L
accession
ali@@
announcement
enforce
greenhouse-gas
hour
optimism
per@@
predictable
richer
yen
暗
48
When
ancient
begins
chances
claiming
delivery
enhanced
fundamentals
inflationary
judicial
near-@@
owners
ters
魅@@
42
Economy
X@@
alism
assuming
division
propaganda
ratios
relying
supports
ter@@
婚@@
庞
忘
逮@@
IT
Nuclear
achievements
acute
arise
doctrine
ence
familiar
gaps
isn
ler
likelihood
male
plays
visible
仿@@
莱
邻
Association
Princeton
id@@
importantly
nineteenth
pensions
spring
teachers
treaties
侧
奋
役
桶
潮@@
租@@
Joseph
aspirations
ative
convergence
convince
dark
judges
reinforce
release
student
冻@@
原
雅
43
47
Ebola
Initiative
Summit
advisers
affecting
classes
destructive
door
end@@
ering
exposure
forecast
joining
judgment
lowering
洞@@
潘
Cooperation
cabinet
channels
explains
flight
inability
lowest
rating
serving
tic
兹@@
旦@@
谎@@
锐
1914
Arabs
Mario
accelerating
constructive
criteria
declaration
fine
lu@@
machine
owned
remove
shortages
steady
割
碰@@
蛋@@
豁@@
辈
1.6
IPCC
Ma@@
arrangement
bomb
catastrophic
delivering
finds
giant
introduce
marriage
pa@@
procedures
younger
扶@@
臭@@
赢
钦
阿
1,000
Draghi
back@@
committee
distant
lived
prevention
seeing
扣
Co@@
binding
ble
computers
deny
embraced
feasible
flawed
integrity
love
marginal
reporting
resilient
tactics
talking
返@@
39
Ex@@
Indians
accordingly
accurate
amid
blow
empire
gi@@
informed
produces
significance
somehow
tech
weaknesses
乎@@
Africans
Serbia
ality
arguably
ary
definition
dilemma
entry
et
fellow
findings
justified
la@@
lend
note
regular
sectarian
th
兼
肉@@
队@@
Nazi
ages
attempted
command
denied
element
entering
ev@@
temperatures
ty
unstable
watch
帮
涵@@
Chairman
Geneva
Pro@@
Research
Switzerland
ah
aspects
ber@@
concessions
demanded
difficulty
foremost
intense
middle-class
revive
sc@@
securing
tariff
wall
丽@@
卷
幕@@
暂
泄@@
甚
签
虫
铺@@
circle
commodities
contemporary
exceed
farm
fix
friend
principal
realities
receiving
reduces
slowed
steadily
tends
tive
us@@
贯@@
迁
Romney
cooperate
deserve
disastrous
enables
logical
ment
ps
reconciliation
shaped
sts
telling
tri@@
unilateral
勾@@
洗@@
礼
肯
货
驻@@
Ethiopia
Greenspan
ably
ban@@
bloc
cast
challenged
competitors
considerations
cope
devaluation
friendly
laureate
mobilize
mutually
peoples
sa@@
urbanization
write
奠@@
淡
献@@
绑@@
脏
颁@@
Irish
Nixon
St@@
appointed
bid
bolster
equilibrium
evil
go@@
regularly
route
threshold
赚@@
逼@@
酒@@
1.4
Cyprus
Mon@@
cell
donor
ineffective
on-@@
sex
shadow
surrounding
tendency
tension
古
君@@
夜@@
奉
录@@
昭@@
Trans-Pacific
altogether
camps
career
ci@@
differently
enterprise
founded
half-century
id
predecessors
professionals
representative
solid
waves
叛
宅
洗
Bo@@
First
Krugman
Ne@@
Sh@@
adjustments
comparison
confident
doubts
ens
fought
greenhouse
providers
rejection
ses
stakes
upward
worker
咨@@
播@@
校@@
漠
碎
腐
苹@@
锡
韩
Lehman
Marine
Musharraf
Road
animal
antibiotics
chosen
citizen
dignity
experiment
hear
heat
ist
lacking
losers
namely
ot
predecessor
recognizes
徒@@
赏
One
ak@@
assumptions
asylum
dire
driver
fi@@
genes
investigation
refuse
resolving
ste@@
typical
吓
武
茨@@
.@@
Piketty
bureaucracy
concentration
desirable
earned
existential
expansionary
ized
multinational
schemes
under-@@
unrest
枪
灌@@
牛
珍@@
蒙
询
鲍@@
Berlusconi
Crisis
Mao
Ronald
accord
automation
camp
components
confronted
discovered
eliminated
emphasized
high-income
implying
lands
newspaper
nutrition
pledged
prevailing
the@@
we@@
​
僚@@
射@@
材
锁
饰
DELHI
Khamenei
SOEs
acquire
ars
ators
bin
charged
cooperative
criticized
har@@
long-@@
nobody
officially
pragmatic
socially
trained
罢@@
芝@@
雇
1.8
Fatah
acceptance
accounted
consideration
decent
eye
forests
in-@@
introduction
isolated
ke@@
meantime
mother
ranging
responding
revolutions
train
underpinned
virus
weapon
募
宾@@
敌
画@@
1981
Ahmadinejad
Ali
Davos
constitute
defending
exacerbated
explicitly
hot
integrate
lift
monetary-policy
ner
popularity
sight
strongest
understandable
丽
弈
惕
挺
曲@@
殖
父
Brothers
Industrial
Peninsula
advocate
bills
cu@@
hospitals
selection
贩@@
&apos;@@
Francis
attitude
can@@
destabilizing
engaging
explicit
genocide
hostile
houses
judge
judiciary
plausible
widening
worrying
zing
宇@@
府@@
歉
纯
6.5
Gu@@
Rouhani
Somalia
accelerated
adults
alleged
dynamism
enhancing
experiences
forecasts
intention
maybe
obtain
suicide
trip
whereby
继
舆@@
骗@@
1971
Austria
Day
Gates
article
coherent
emphasize
er-@@
favored
fish
followers
follows
hoped
initiated
investor
map
negotiation
oriented
phone
redistribution
refusal
relies
supervision
旋
穿
7.5
Rwanda
TV
appreciate
desperately
disruptive
du@@
islands
post
recorded
returning
safer
suggesting
ya
凡
惜
撰@@
竭
箱
肆
14@@
School
absorb
abuses
character
crop
diplomats
frequent
honor
involves
patent
perform
pull
reflecting
settle
straightforward
writing
宝
岌@@
憾
顶
Morocco
fairly
implicit
ins
ratings
seize
su@@
town
zones
戴
柬@@
牧@@
订@@
谱
0.7
Movement
Third
alist
applications
bargaining
blamed
checks
cycles
disruption
earth
employed
exploit
express
high-quality
interpretation
ization
livelihoods
medicines
non@@
odds
pledge
shaping
street
territories
tourism
waters
亮
埔@@
姓
孕
戮
掠@@
桥@@
蛮
阐@@
雪@@
1.7
Friedman
capitalist
customs
focuses
forest
holdings
liberals
minimize
ned
obstacle
origin
overseas
ph@@
preferences
tasks
unexpected
versus
努
圈
奈@@
尖
敬
祝
0.1
1930s
Kyoto
Martin
ambition
channel
deployed
ent@@
ex@@
governed
implied
imported
indicates
industrialization
interesting
preferred
pride
serves
sphere
stuck
°
箭
舍@@
辆
AMR
Bretton
Emmanuel
Hussein
Park
Q@@
San
amp
attend
captured
convincing
creditor
deemed
doubled
headlines
hi@@
mothers
occupied
preparing
representation
skill
suit
tested
visited
whenever
喻
摩
浪
蓬@@
High
Koreans
Lo@@
Woods
accumulation
acknowledged
af@@
determination
fold
govern
grave
gross
ob@@
panic
ra
treatments
wife
wise
é@@
丘@@
伍
奢@@
摆
敬@@
松@@
瓜@@
糖
翰@@
Charles
Governor
He@@
allocation
ats
bias
contraction
declines
liberty
named
newspapers
ocean
parallel
protesters
ship
stakeholders
ten@@
up@@
wa@@
winners
危
拟
账
递@@
1986
2.4
Li@@
Recession
Rome
bought
degrees
devices
diminished
fifth
forget
functions
ically
intentions
median
player
sending
sheet
transatlantic
vicious
ying
荒
餐
Food
H
Roosevelt
ati@@
ay@@
cha@@
com@@
complexity
describe
disorder
enjoyed
ging
shortage
triumph
troubled
voices
曝@@
瑟@@
辜
驳
Conservative
Corporation
absent
affects
alizing
check
cold
cyclical
drivers
emotional
film
freely
happiness
hundred
ir
ker
margin
mixed
occurring
outbreak
persist
post-war
privacy
shing
toll
violations
voluntary
廉
拢
潘@@
畴
铀
Mahmoud
PBOC
Report
Thatcher
administrative
arrest
colonial
constantly
deregulation
electric
ethics
extremist
fashion
infectious
innocent
pays
precedent
trajectory
拓@@
洛
霍
1987
63
67
For
Gordon
Green
Prize
Program
Shinzo
Viktor
epidemic
frameworks
ley
ran@@
remote
revival
settlements
site
situations
warfare
夜
欠
汲@@
涨@@
缚
130
ak
appealing
connection
defeated
devoted
expectancy
fraction
highlights
landscape
mon@@
mood
nets
one-@@
proof
seat
spoke
stabilizing
tolerance
优
Mark
Ocean
PiS
confirmed
contained
governor
hostility
low-cost
regulated
successes
surface
傲@@
序@@
弊
慕@@
溯@@
詹@@
Apple
Business
G7
Juncker
Sa@@
acted
aggression
carrying
clinical
da
dioxide
enduring
exclusively
highlighted
illiberal
medium-size
rebuild
richest
signals
temperature
tied
zed
套@@
孕@@
希
抢@@
攻
板@@
浅
画
背
诈
1933
Economics
Lisbon
Sanders
aged
bridge
civilization
classic
completed
conservatives
courage
elderly
feared
founding
frustration
immense
ironically
min@@
permit
tor@@
ving
川
煤
遣
频
41
Bar@@
Johnson
Power
Qu@@
Sha@@
anemic
factories
far-right
ical
images
lawyers
looming
polarization
protections
psychological
quest
reading
regulate
roles
run-up
sake
so@@
speculation
storm
伸
坝
妻@@
弄
悖@@
衣
衣@@
4.5
accepting
agents
aircraft
availability
broke
buildings
compensate
director
fairness
illness
maximize
method
officers
overwhelmingly
portfolio
rec@@
scarce
scenarios
speculative
tobacco
transforming
宽
幼@@
藏@@
静@@
entrenched
equipped
foreseeable
globalized
harsh
landing
phones
rivals
storage
tiny
unacceptable
vice
year-old
佐@@
偷@@
奏@@
炮@@
餐@@
2.7
62
Consensus
Cup
Valley
Yanukovych
applies
arrested
civil-society
declare
detailed
drawing
enlargement
ful
ice
laid
locked
monitor
negotiators
poll
que
sees
sovereign-debt
spreading
starts
strict
undermines
undertake
vis-à-vis
western
塌
式@@
执
楼
歌@@
止@@
绘
蚊@@
跳@@
麻
2.3
53
Tony
advancing
breakthrough
ecosystems
entities
est@@
eventual
firmly
fishing
hegemony
inputs
intent
legally
meat
meltdown
ministry
occurs
presumably
prisoners
privatization
recall
roots
ships
shortfall
shut
soil
tsunami
亨@@
侯@@
钻@@
99
Lee
We@@
alive
an-@@
biodiversity
cultures
disintegration
draft
duty
expert
farming
gene
government-@@
letter
magnitude
orders
pool
pre-crisis
requirement
respected
restored
shot
solely
stems
sum
temporarily
terrible
丝
丢@@
乏@@
喀@@
掌
氏@@
豫
酒
57
Age
Asia-Pacific
CCP
François
Pe@@
alized
architecture
ari@@
bet
collateral
commentators
consume
deleveraging
forever
ger
ignoring
notable
pl@@
sed
split
兵@@
怨@@
织@@
衅
衷@@
飞
1968
50@@
Chicago
Har@@
On
Seoul
Square
admit
assault
attacked
bureaucratic
car@@
connections
depending
deployment
distributed
edge
hedge
neighborhood
offensive
parity
racial
tomorrow
tradable
value-added
worries
圣
拍@@
枯@@
脸@@
谬
野
阀
-led
1962
Is
Senator
cohesion
contagion
disarmament
display
distinct
drove
evolved
football
generals
proud
shortcomings
sit
soared
teams
tide
veto
virtual
凭
姻
庸@@
1929
2.6
allocated
ample
ana
angry
answers
arrived
av@@
comparative
counter-@@
deflationary
dismissed
exacerbate
excessively
fo@@
ize
maritime
o-@@
qualified
reversal
traffic
vested
呼
坐
奈
拘@@
掀@@
牲@@
耀
赠
雨
0
1.1
54
With
adjusted
attracted
collectively
college
demonstrations
dying
filled
gen@@
guard
guidance
instrument
long-run
mar@@
neighbor
orderly
reasonably
rebels
reckless
reward
shrinking
stemming
supply-side
thrive
¥
介
佣
召
渗@@
绕@@
钱@@
阅@@
AfD
Declaration
Empire
God
Nicolas
Peru
Strategy
U
anticipated
choosing
departure
endorsed
enti@@
excluded
flaws
marks
medium
spiral
str@@
translate
transmission
victim
崖
弊@@
忙@@
扣@@
晓@@
锦@@
46
Czech
Dis@@
NGOs
Oxford
Panel
blocked
brand
combine
cor@@
countless
dec@@
diagnosis
discontent
discourse
forgotten
imbalance
indispensable
izing
lately
malaise
multilateralism
notes
precise
predictions
profitable
raw
reforming
shale
tight
亦
怒@@
挤
符
锁@@
2.@@
Brown
Singh
bargain
benefiting
collection
cre@@
debt-@@
earthquake
ecological
engineers
ently
equitable
fa@@
harmful
impede
inflation-adjusted
insisted
night
obligation
opposing
ought
prevailed
regain
store
subsequently
two-@@
圈@@
峙
径@@
烈@@
琳
糊@@
葛@@
虐
赚
轨
1978
1988
2.2
Abenomics
Action
Chief
Freedom
Islands
Last
approaching
behave
consent
defining
dysfunctional
ery
irrelevant
located
manufacturers
miles
missed
novel
philosophy
polio
post-crisis
reconstruction
routine
safeguard
sanitation
scandal
stabilization
尿@@
池
湾@@
粉@@
课
贝
辩
49
Pact
acquired
association
az@@
balance-sheet
bar@@
biological
biology
blind
bombing
chairman
childhood
degradation
discovery
distinction
fighters
honest
ina
operational
reinforcing
representing
scholars
soaring
surprised
temptation
tempted
theories
unified
婪
庄
怀
昔@@
木
载
龙@@
Churchill
Holocaust
III
Munich
Saudis
V
WHO
application
beliefs
carries
catch
consolidate
demonstrates
den
den@@
deterrence
grows
liberalism
midst
ms
ning
piece
pri@@
promotion
rein
ss@@
suspicion
sustaining
unnecessary
venture
喜
忙
拆@@
朴@@
泥@@
涅@@
羊
1947
CIA
McKinsey
Olympic
Sri
aspect
compare
comprise
controlling
covered
cure
demise
derivatives
fragmentation
hike
ian
minimal
nationalists
ordered
oversight
pound
recovered
replacing
sky
taught
tribal
units
奏
漏
逢
0.3
100,000
Peter
Protocol
US-led
accident
downside
eat
efficiently
fac@@
gases
genuinely
graduates
guided
knowing
loyalty
normally
performing
placing
reportedly
solving
struggles
thousand
unknown
unpopular
unpredictable
warnings
八
宜@@
弄@@
氛@@
甲@@
练@@
腥
骨@@
900
Catholic
Doha
Finland
accumulated
ang
ani
bailouts
centralized
deepen
delayed
disparities
embedded
engines
entails
free-market
gra@@
introducing
remarkably
retreat
techniques
ten-year
嘲@@
悄@@
棒
泽
硅@@
题@@
1948
approximately
att@@
diminishing
entitled
ever-@@
hidden
indicator
indigenous
prevail
prone
purely
relied
reveal
silence
stone
tragic
tremendous
unclear
uphold
ver
watching
冠@@
庄@@
载@@
1972
Alan
Community
Games
MDGs
Project
boundaries
box
deposit
dozens
encourages
factory
kilometers
neo-@@
passing
pi@@
printing
punishment
restraint
rice
substitute
transnational
village
净@@
2.8
3.3
64
Cairo
Israeli-Palestinian
Sachs
alarming
alization
behalf
capability
ched
comfortable
compliance
enthusiasm
exceeds
expectation
facility
fied
ns
participating
partisan
phrase
quarters
removing
resentment
robots
shi@@
sing
spurred
war@@
徙
揽@@
窃@@
肘
1985
40@@
Brazilian
Henry
Iranians
Jong-un
This
bed
bulk
ce@@
ceiling
climate-change
confined
conservation
containment
differ
extending
facilitating
formation
fragmented
gathering
grievances
hire
medium-term
micro@@
naval
norm
overnight
preserving
promoted
public-health
stark
tes
ver@@
侨@@
忌
誓
貌
58
Ber@@
Democracy
K
Secretary-General
Silicon
authors
closest
distortions
dly
erosion
exchanges
excuse
financially
interference
issuing
originally
pipeline
rises
roll
sacrifice
sha@@
symptoms
timing
tra@@
undertaken
wins
℃
刊
抚
搞
树
片@@
稍@@
谐
阳
2008-2009
5-@@
AR@@
Algeria
Index
accomplished
adequately
assumes
automatic
bloody
censorship
cur@@
damaged
deadly
destroying
determining
dimension
distance
distinguish
exceptions
hand@@
inc@@
incumbent
inequalities
inherited
intellectuals
irresponsible
ist@@
liability
militants
misleading
myriad
quarter-century
recessions
recommendations
scrutiny
socialist
sports
stagnant
strain
ta
tackling
vacuum
welcomed
仗
愈
捞
敢@@
盘@@
盲@@
矿
耻
胖
跃@@
院@@
1.9
2.1
3.6
30@@
56
Jo@@
Market
Representatives
Roma
barrel
ca@@
champion
che@@
disruptions
entail
escalating
escalation
forge
hate
hikes
invited
likes
overly
pick
premature
premium
re
superpower
traders
upper
则@@
梁
泊@@
粒@@
脊@@
虎
钦@@
3.2
52
Article
Ghana
Go@@
No
Qaddafi
Sch@@
Special
Vice
Web
abandoning
advocated
coastal
condemned
ecosystem
est
exclusive
forth
frustrated
gun
identities
ite
liquid
makers
possibilities
rally
repeat
suppliers
tors
torture
床@@
漠@@
焦
赔@@
0.2
Ban@@
Cambodia
Charter
G-8
Review
Yellen
burst
centered
characteristics
distress
entity
ents
ff@@
hospital
insurgency
listen
minor
outflows
professor
projections
pu@@
records
scientist
surveys
topic
triggering
uranium
兆
尾
掘
探
毛
肥
莽
馈
1984
59
CDU
Congressional
FARC
HAVEN
Kerry
MDG
Recep
Tayyip
Uber
adaptation
adviser
assessing
beat
cognitive
constitutes
crude
denial
distrust
extension
immune
misguided
normalization
outlets
partial
pen@@
performed
port
ports
renewables
seized
sugar
superior
traded
traditions
仰@@
域@@
纲@@
1975
Ab@@
Abu
GCC
Hu
ack
amounted
ballot
basket
boosted
ce
connect
electronic
freedoms
ged
inaction
ish
iz@@
justification
launching
luck
overcoming
stock-market
subjects
tenure
unequal
unusual
well-being
俗@@
拙@@
拼@@
械
毫
津
濒@@
秋@@
耻@@
莫
趋
180
ICT
Maduro
Protection
SPD
aggressively
arsenal
bondholders
cited
commission
debtors
depressed
deter
dozen
exclusion
foods
ges
grasp
hoping
ines
lic@@
lifted
mining
oc@@
paradigm
rewards
stations
urgency
九
劫@@
叹
垃@@
撞
撮
敲@@
盗@@
祸@@
脏@@
诸
锋
&apos;re
1974
5,000
Bolivia
IS@@
Iraqis
anti@@
brief
brink
bureaucrats
cards
citizenship
conf@@
deploy
emerges
evolutionary
fake
formally
fu@@
high-tech
holders
infections
intensive
left-wing
reflection
request
sole
spreads
suffers
suspect
vary
佩
娱@@
幽@@
碑
绸@@
虫@@
贵@@
透
遮@@
闭@@
隔
顺
饭@@
骄@@
73
88
Affairs
Cha@@
Director
Labor
News
Tri@@
alter
ching
creativity
diminish
discourage
entrepreneurship
grant
guidelines
haven
indebted
marginalized
ments
savers
sounds
succession
treating
ty-@@
unite
villages
乡
云
仁
拔
择@@
眉@@
篇@@
郎
驾
5.5
Car@@
Delhi
NCD
OMT
OPEC
Sal@@
accessible
actor
autocratic
calm
card
central-bank
covering
deliberately
democratically
dy
ening
enrichment
extends
feelings
fees
first-@@
fore@@
fraud
high-level
ignorance
migrant
much-needed
or-@@
propose
province
proxy
reference
reminder
sale
silent
skeptics
stages
tactical
妄@@
慰
户@@
押@@
拟@@
添@@
胆@@
鉴
闲@@
82
Care
Future
Infrastructure
Lanka
Mu@@
Science
Smith
System
bases
borrowed
buyers
calculations
cap
connectivity
decisively
disrupt
drag
embracing
fertility
frontier
ga@@
heading
horizon
impoverished
industrialized
poised
routinely
secured
solved
statistical
symbolic
then-@@
window
呈
350
Ban
Basel
Greeks
JCPOA
Lebanese
Par@@
Su@@
Year
anti-corruption
breakdown
daunting
down@@
error
exporting
favors
hiring
incomplete
infected
intensity
interim
permanently
spectrum
thinks
ved
zation
挖@@
搞@@
撕@@
槛
笑@@
筛@@
询@@
驰
Balkans
Capital
Constitutional
Gi@@
Obamacare
Puerto
ads
aren
bearing
bipartisan
budgetary
burdens
conviction
curb
empirical
energy-@@
environmentally
equ@@
exemplified
fault
games
gar@@
impression
inherent
organize
pact
personnel
producer
protracted
receives
repeal
secretary
square
仪@@
扬@@
搭@@
皆@@
租
辖@@
1940
51
Belgium
Ko@@
Medvedev
Orbán
attracting
bail
borne
burning
clash
contest
continental
dubious
examine
experiments
favorite
intensified
irrational
mu@@
object
postwar
res@@
resistant
revised
sion
stick
vibrant
worsening
伪
伸@@
室@@
尾@@
擦
朱@@
炼
砍@@
窄
誓@@
140
1960s
66
Bosnia
NGO
Pope
Xiaoping
atory
automatically
denying
episode
gotten
hide
insights
keeps
literally
longstanding
mentioned
nation-state
paradox
permitted
physics
reconcile
reveals
satisfy
semi-@@
separation
skeptical
skepticism
spends
tr@@
uc@@
乡@@
亏@@
伏
儒@@
旬
涛
裨@@
闪@@
Christians
Larry
Microsoft
Ra@@
Se@@
Uganda
Yeltsin
Zimbabwe
all@@
ang@@
array
attributed
br@@
cautious
center-left
collect
comprising
devise
diabetes
drought
east
empowered
hatred
highlight
influenced
interconnected
ls
morality
outsiders
potent
probability
repay
restrict
sheer
two-state
unilaterally
串
云@@
井
六
凌@@
旗
田@@
百
茫
贿@@
Ac@@
Sharon
Sunnis
academics
agendas
alists
ants
applying
assembly
audience
benign
clients
coast
complacency
composition
counterproductive
debtor
def@@
domestically
elimination
empower
exceptional
feels
five-year
gl@@
iting
notwithstanding
offshore
perceptions
pivot
pundits
react
rules-based
seeds
systematic
teaching
transaction
unification
worthy
几
噩@@
埋@@
宙
淘@@
裸@@
赋
黯@@
77
Haiti
Reinhart
Tibet
abundant
admitted
annexation
arm
bli@@
blocking
bra@@
clout
concerted
considers
contains
exercises
fication
grants
grip
habits
han@@
inspire
keen
lender
long-standing
ma
merit
miss
names
ong
proponents
punish
rationale
recommended
removal
revived
tanks
wary
zes
冬@@
尬
尴@@
握@@
柯@@
灯
翁
诗@@
--
76
Amazon
Chair
Euro@@
Gandhi
Gazprom
MGI
Maynard
Mer@@
Mikhail
Southern
advertising
and@@
arbitrary
banned
bitter
bro@@
conclusions
counterpart
criminals
crowd
da@@
disproportionate
dividends
errors
evolving
fluctuations
formidable
formula
generates
imagined
indicated
lacked
motivation
nomination
occasion
paralysis
portion
rage
refusing
respective
scheduled
soccer
symbol
trapped
upgrading
winner
witnessed
庸
忆@@
江@@
舰
蔽
贾
钞@@
Arafat
Arctic
CCS
Hu@@
IP
Im@@
Moon
No@@
Swiss
Thaksin
addresses
already-@@
and-@@
combating
defaults
dictator
disappointing
disputed
disturbing
earning
factions
fin@@
induced
lifting
mer@@
militias
ne
neglect
opponent
ore
ped
psychology
repair
sitting
spectacular
super@@
teach
tells
understands
vehicle
voter
ys
仲@@
凶@@
割@@
拾
搁@@
警
赴
Bu@@
Cor@@
Five
For@@
Forces
Government
IN@@
Jacques
Kazakhstan
Marshall
Red
Royal
Stanford
Swedish
abortion
assert
author
autonomous
demonstrating
deserves
documented
enforced
exploited
fre@@
higher-@@
historian
indication
intensify
practically
proceed
replacement
restricted
sions
suppose
three-@@
夕
擅@@
枚
液@@
碎@@
郁@@
闹@@
颜@@
9.@@
AS@@
Australian
ESM
Franklin
Medicare
Narendra
Rio
Vienna
activist
allegedly
averaged
bombs
breakthroughs
certainty
continuous
coordinate
crisis-@@
deliberate
depth
der@@
disappear
disappeared
discredited
disproportionately
endless
enlightened
ing-@@
journalist
narratives
outstanding
overthrow
pping
profitability
pure
reasoning
sadly
settled
staggering
tangible
technocratic
tics
vulnerabilities
worsen
俩
刀@@
垮@@
残
疆
笼@@
髓@@
72
Bi@@
Church
Com@@
El
MENA
Mal@@
Manuel
Ministry
ODA
Premier
Venezuelan
X
Zealand
adult
appeals
ass@@
ba@@
bar
center-right
centrist
equities
flowing
fostering
freeze
futures
gather
giants
grim
handle
inter-@@
invariably
ites
maintains
maternal
monthly
notice
provinces
prudent
q@@
remittances
sal@@
self-interest
tougher
towns
咄@@
垂@@
屿
惜@@
惨
抹@@
拒
腹@@
蔑@@
谁@@
After
Bannon
Boris
CE@@
Dodd-Frank
FSB
Syriza
What
accomplish
ade
appearance
benchmark
construct
dangerously
disagree
droughts
exp@@
explosion
handful
immunization
interaction
invented
items
journalism
lifetime
linking
loose
memories
mired
neglected
nineteenth-century
philosopher
processing
recipe
resisted
rigid
subsidy
um@@
wasted
wherever
wi@@
伙
悔
攫@@
液
2,000
J
Leader
Rogoff
Round
Volcker
air@@
appetite
ber
ches
democratization
empty
ep@@
heightened
ili@@
indirect
location
luxury
market-based
municipal
music
pillar
radically
schooling
shes
speeches
successive
tended
vastly
傲
戒@@
玉@@
腺@@
豆
0.4
Abdullah
Goldman
Mohamed
Socialist
WWII
align
avert
chair
cumulative
episodes
flood
identifying
illusion
impunity
massacre
militarily
missions
neutral
non-state
optimal
packages
pervasive
pretty
state-@@
trans@@
transitions
匮@@
岸@@
徘@@
瓜
芬
袖@@
镜@@
驳@@
Ad@@
Chirac
Istanbul
McCain
Nazis
Stiglitz
authoritarianism
baby
balancing
beings
believing
coalitions
cost-effective
coupled
eng@@
essence
euros
exploitation
floods
gr@@
ills
imminent
ka
limitations
mi@@
mindset
peripheral
profession
quotas
rampant
readily
referred
rejecting
reluctance
rests
rethink
sm@@
trusted
unintended
violation
­
勉@@
奸
寸
弃@@
戈
槿@@
汰
渺@@
腾@@
赂
魁@@
2.9
3.4
86
CEOs
Her@@
Mechanism
Public
Service
Women
Yugoslavia
amp@@
ann@@
booming
breaks
bri@@
bust
containing
doubling
ess@@
facilitated
fronts
geography
helpful
historians
insight
margins
prompted
quiet
shrink
sick
signaled
spot
strange
survived
tor
troubling
underestimated
uni@@
wouldn
倾
卢
卸@@
厅
嫌
屏@@
滩
裸
谬@@
铭@@
页
3.8
68
81
Deal
GNP
Pi@@
Rico
Romania
Second
assessments
bal@@
beneficiaries
civic
commonly
declaring
deteriorating
disagreement
disagreements
dismiss
emulate
erode
eroded
fired
healthier
iron
manufactured
obesity
possess
safeguards
suited
unleashed
winter
徊
憎@@
秘
艘
贴@@
踏
10,000
Annan
CF@@
Li
Reform
acy
adhere
al-Qaeda
ambassador
arrive
breakup
complaints
conversation
dedicated
di
diversification
doors
dri@@
drives
duties
everybody
expects
fying
height
hungry
ideals
inf@@
infection
kes
outrage
overlooked
owed
parliaments
patents
perfectly
pointing
privileged
proposing
row
scene
slogan
ss
stalled
star
sur@@
sweeping
trafficking
uncertainties
vague
厘@@
宁
宿@@
寻
帐@@
彰@@
愉@@
拥
沟
瞻@@
绘@@
腰@@
轴@@
阔
饲@@
驶
鬼
0.8
1,@@
Athens
EM@@
Laden
Milton
Wen
William
aligned
alize
arises
attacking
bio@@
boards
cliff
counts
decrease
dependency
enact
ff
grid
iled
incapable
letting
mal@@
master
miracle
mistrust
ol
penalty
prevents
public-private
reviving
ring
sciences
sen@@
studied
tation
urge
厚@@
尘
狗
莎
谍
赶
躲@@
Asians
Bay
Belt
BoE
ES@@
Egyptians
Exchange
Gorbachev
aw@@
category
clarity
despair
durable
ek
entrepreneurial
implication
interdependence
judging
k-@@
lasted
marketing
motion
nuclear-armed
offices
ostensibly
ping
positioned
prize
ranking
reversing
satellite
undergoing
underground
video
wasn
zero-sum
仇
削
又@@
巡@@
帐
棋
爆
1920
1944
AIIB
Civil
Mor@@
PA
Scottish
Star
accommodate
activism
administrations
ay
caution
counting
credits
daughter
feedback
iling
intensifying
ited
judged
jurisdiction
lan
malnutrition
multi@@
pockets
pressed
ratified
realizing
risk-taking
signing
spoken
struggled
tighter
型@@
封
篮@@
蹈
3D
78
Brexiteers
El@@
FOMC
Margaret
Poles
Syrians
ach@@
ate@@
bas@@
bs
corner
deciding
defensive
deterioration
exceeded
existed
export-led
farms
feet
fires
flat
imp@@
interactions
interpreted
irony
ko
march
maximum
necessity
oceans
ong@@
pillars
preference
proposes
rap@@
reactions
si
sport
stores
suppress
sw@@
swing
tan@@
tax-@@
tw@@
twenty-first-century
ultra-@@
understandably
unresolved
utterly
vaccination
valid
walk
宪
屋@@
捉@@
烂@@
熊@@
肤@@
肩@@
艇
蒸@@
谎
魂
110
170
2100
Administration
Agenda
Corbyn
Ecuador
Italians
Min@@
River
Theresa
assured
bridges
cement
collected
comfort
committing
confirm
contentious
cynical
debt-to-GDP
deputy
dictators
dissent
document
elect
employ
fulfilling
half-@@
humiliation
induce
kers
listed
lobbying
native
origins
panel
preventive
publication
reaches
reap
restricting
sluggish
st-@@
sto@@
stopping
strategically
tically
tolerate
traction
ud@@
underpin
urged
wild
审
悦
插@@
桌
漂@@
纽
酿
鸣
3.@@
71
98
At
Baltic
Banking
Bernie
Budget
EC@@
Hindu
Leave
Lula
Man@@
Representative
Roman
Th@@
US-China
accusations
are@@
behavioral
careers
celebrate
compromises
contact
decentralized
dered
ders
destination
ear@@
ement
emission
emphasizes
incremental
initiate
lest
lethal
literacy
maintenance
ministries
minutes
motives
od@@
ov
presents
proclaimed
quantity
regards
rel@@
resolutions
selected
slump
smoking
smooth
somewhere
statehood
thin
ur
伎@@
圭
坞
委
帕
旋@@
瘤
迭
0.0@@
1-@@
3,000
61
Baghdad
Bitcoin
Celsius
Darfur
Kenneth
Mali
Mohammed
Next
Time
ades
anyway
appreciated
ass
ast@@
bears
ceasefire
circles
comments
compact
consumed
courses
desired
displacement
districts
eli@@
emotions
eradication
evolve
examined
heed
insisting
intelligent
journey
labor-intensive
land@@
mainland
mess
mor@@
plight
plummeted
radio
rou@@
salaries
scarcity
segments
single-@@
sk@@
station
strengths
sums
technically
technocrats
tighten
trees
trillions
un
ure
ven@@
啻
宫@@
牢
猛
贸
郁
钓@@
锋@@
镜
颗
0.6
Cuban
FBI
IF@@
If
Jean
Liberal
MIT
Mumbai
NCDs
Ottoman
Revolutionary
Texas
agent
backdrop
bur@@
deforestation
destabilize
drone
ensures
excellent
explanations
financial-market
firing
founder
ideally
im
indefinitely
mandatory
market-oriented
mine
picked
ranked
reformers
respects
socialism
stressed
ther
throw
universe
violated
west
withstand
witness
孔
旅
枢@@
纺@@
衔
踏@@
辖
霜
鸿@@
鹰@@
74
97
Against
Alexander
Boston
CO@@
Caribbean
Hungarian
Intergovernmental
Markets
Olympics
Pre@@
Sinai
accurately
agreeing
ah@@
appointment
attraction
concentrate
conditional
counter@@
dividend
emb@@
excesses
fallout
flooding
fruit
imperfect
iness
inherently
integral
maneuver
marine
page
reminded
revelations
safely
scores
suspected
乍@@
伟
劝@@
呆
掣@@
澄@@
痕
研
精
辛
酝@@
锡@@
陶@@
3.7
92
Chen
Coun@@
Economist
IP@@
IR@@
Independence
Maastricht
Mandela
Tax
ale
asi@@
assassination
assist
atrocities
battles
bl@@
bleak
bright
casualties
compounded
controversy
cra@@
distressed
environments
exhausted
exploiting
fatal
floor
foot
forecasting
ill@@
internally
linkages
low-
lowered
lucky
masses
mitigation
mobilized
orthodoxy
preceded
procurement
profile
provoke
rebuilding
responsive
retaliation
revolt
sh
sun
three-quarters
web
working-age
件@@
凡@@
届@@
怜
您
敞@@
烧@@
螺@@
财
辐@@
酷@@
&@@
.5
1931
1949
1969
Ki@@
Liu
Milan
Society
Ukrainians
ai
akin
allegations
beautiful
booms
clearer
club
communicate
cross
denuclearization
documents
dry
expose
finished
forming
forum
fur@@
genetically
ignores
ile
injustice
liberties
ming
modified
occasionally
opinions
pan@@
postpone
rebel
registered
rent
residential
reunification
rivers
stepped
sting
storms
suspended
systematically
text
violate
丈@@
侣
榜
瓶@@
窗@@
耕@@
艾
诊
1.25
Area
CBO
Florida
Marx
Oslo
There
accumulate
ation-@@
avi@@
boys
ces
complementary
concepts
conscious
crackdown
dealt
democrats
emphasizing
empowerment
fed
gathered
gh@@
imagination
insistence
interact
mitigating
nuclear-@@
obsolete
personally
plagued
rush
seas
sentiments
stalemate
substance
theme
unlimited
ut@@
warm
ó
刘@@
奔@@
奶@@
寥@@
峡
盯@@
辨@@
-and-@@
2,@@
4.3
Binyamin
Calderón
DPJ
G-7
GM
Ju@@
Kar@@
Zhou
absolutely
advocating
anticipate
assertive
ath
ballistic
besides
bul@@
contributes
correction
dic@@
distorted
els
evaluate
evasion
excluding
forefront
forthcoming
guilty
ial
indifference
leveraged
measuring
myth
ok
ology
profoundly
recipient
remind
satisfied
silver
stimulating
sub-@@
surrounded
th-@@
therapy
tone
troubles
viewing
walls
wing
work@@
za
厌
圆@@
妹
懈
摊@@
毕
污
滥
猪
睫
舍
莎@@
链@@
Bo
Canadian
Hugo
Jeremy
Kuwait
Management
Mohammad
Or@@
Political
Ru@@
affair
axis
bankrupt
broad-based
calculated
commerce
compatible
compelled
criticize
describes
dimensions
drama
drinking
eve
exaggerated
exceeding
handed
her@@
hosted
insolvency
labor-force
lag
mat@@
nightmare
peacefully
persists
print
regulating
restoration
river
scandals
sis
sm
subsidized
tic@@
tie
timely
tion@@
tly
ture
turnout
vers
尘@@
屡@@
抑
礁
450
All
Liberia
Libyan
PE@@
Politics
Sharif
Stephen
Tea
Tel
accustomed
aries
businessmen
capital-@@
competent
consists
counted
disposal
executed
fortune
freer
gay
genome
hardline
indirectly
irreversible
ky
lin@@
mega-@@
militant
morally
od
oligarchs
onset
personality
pessimism
portfolios
privilege
rail
realism
relentless
second-largest
sentence
spurring
steep
strictly
swap
swept
tap
theoretical
touch
tro@@
tz
wh@@
刊@@
囤@@
寅
悠@@
抛
漫
炮
脉
诽@@
跻@@
酋
靡@@
饭
50,000
69
Ayatollah
Mac@@
Monti
Renzi
Ri@@
Silk
aff@@
affluent
allocate
ball
branch
channeled
clinics
comprises
conspiracy
doctor
doomed
ell@@
endured
fleeing
footing
geographic
impeding
impending
instance
integrating
l-@@
lam@@
legislators
mann
movie
navigate
of-@@
oned
os@@
outset
overhaul
passage
pledges
reacted
rebound
recipients
refrain
respondents
rivalry
rounds
sa
select
shore
shouldn
specter
stream
telecommunications
unrealistic
watched
修
厂@@
双
囊@@
嫌@@
忌@@
恒
惮
殆@@
淹@@
盎@@
罹@@
Au@@
Bundesbank
Force
Gaulle
Inter@@
Nepal
Po@@
appoint
capital-account
carbon-@@
categories
constraint
constructed
customer
designing
detect
dirty
disregard
drew
elusive
evidently
fragility
gasoline
gravity
guiding
hostage
ics
illnesses
immigrant
j
lower-@@
manipulate
maturity
much-@@
non-proliferation
organic
organizational
organizing
owe
provincial
quietly
relevance
renewal
resigned
ride
shareholder
ster
sti@@
structured
suspicious
thriving
totally
tt@@
unthinkable
ward
writer
倦
坠
孔@@
彻
撒
痴@@
脂@@
1900
8-@@
8.5
87
Daniel
EMU
Fukushima
Jean-Claude
Mis@@
SMEs
Tur@@
Warren
absurd
alarm
approve
correctly
cul@@
destiny
diagnostic
ef@@
execution
exporter
fled
ils
inclined
insists
interview
leftist
len@@
lesser
ners
obliged
outsize
posts
prediction
preventable
proposition
re-election
readers
reformed
remembered
ric@@
season
speaks
stra@@
strains
subsidiaries
super-@@
supportive
taxed
troika
withdrawing
励@@
匿@@
咒
喊
噬
尤
旱@@
竟@@
袋
赎@@
....
93
Adam
Bahrain
Bri@@
Karl
Muammar
Oil
PPP
Right
TFP
To@@
aluminum
anti-Semitism
anxious
anytime
arrival
ast
attended
barrier
broaden
collapsing
compel
crucially
description
dictatorships
enormously
eradicate
exceptionally
golden
greed
ide@@
innovate
inspiration
intervening
judgments
laying
mistaken
off@@
ord@@
paradoxically
patience
peacekeeping
powered
quasi-@@
revealing
slavery
surpassed
talented
tru@@
tures
unleash
visits
witnessing
ws
yielding
七
咖@@
墟
完
惧@@
斜
辟
鸦@@
0.9
Belarus
Century
College
Euro
Framework
Hosni
La@@
Medicaid
Nor@@
Open
Ryan
anchor
belong
berg
broadband
cl@@
conducting
conflicting
consecutive
corporate-tax
detail
devote
dreams
el-@@
exclude
grade
hardest
headquarters
herself
insolvent
inward
mer
merits
ome
organisms
par
predominantly
prestige
proximity
rac@@
reactors
rents
rigorous
rolling
second-@@
squ@@
star@@
systemically
tion-@@
unavoidable
va
wishes
worrisome
况@@
寺
左
朔@@
棋@@
氢@@
淆
畅@@
虔@@
貌@@
阈@@
隶@@
83
BOJ
Comprehensive
End
Ge@@
Ham@@
Jim
Resolution
TR@@
UN@@
Warsaw
achievable
atively
auto
blueprint
capitalize
chi@@
consequential
constituencies
constrain
credit-@@
crossing
deb@@
delegation
denounced
distributional
drain
exile
gy
handled
hearing
helicopter
inhabitants
loyal
med
mobilizing
odd
outdated
perspectives
pulled
repayment
ro
socioeconomic
summits
tries
well-known
working-class
yed
兜@@
午@@
圾
忠
汉
溉
茶@@
菜
91
Andrew
BBC
CP@@
Cal@@
Digital
Macri
Not
P5
PC
Pol@@
Tsipras
Turks
ai@@
breast
confusion
derived
developing-country
dismal
distribute
educate
embodied
enrollment
ess
explaining
fundamentalism
havoc
hero
inconsistent
incurred
influx
lows
machinery
ment@@
meters
mismanagement
moderation
ory
perpetrators
pragmatism
privately
public-@@
rapprochement
resemble
shame
sters
sub-prime
tuberculosis
withdrawn
倘@@
刀
劾
堆@@
惑@@
柔@@
毋@@
熙@@
窃
筹
聘@@
跑
辅
2.0
2035
Affordable
Christmas
Costa
EFSF
Liberation
MBS
Mc@@
Moldova
Mueller
Non-Proliferation
Powell
Transatlantic
asserted
capitals
clo@@
competence
comply
debated
defenders
dictate
disadvantage
dose
drops
efficacy
explore
fixing
flourish
gri@@
heated
hitting
ier
impasse
jeopardize
killings
markedly
modernize
no-@@
nominee
objections
operates
passive
permits
provoked
questioning
resume
retired
shocking
sons
stunning
succeeds
surging
symptom
synthetic
thinkers
thrown
title
undercut
underpinning
upheaval
virtue
visiting
von
仑
侮@@
劫
勤
哀
堵@@
寒@@
拔@@
瞒
章@@
绑
缠@@
脸
誉@@
逆
-up
20,000
2000s
Ben@@
Eurobonds
Guantánamo
Khrushchev
adversaries
avoidance
brave
commentary
cosmopolitan
cro@@
deploying
device
dge
directors
discover
eligible
ency
enshrined
enting
extremes
ger@@
governors
headline
headwinds
igh@@
incidents
ire
loc@@
majorities
mature
misery
moderates
neuro@@
overhang
persuaded
proceeds
racism
refuses
reinforces
repressive
ser@@
studying
surrender
tional
tracking
tur@@
underestimate
valued
would-be
乌
医
哀@@
唤@@
喷@@
悲
牌@@
纾
耶
胚@@
酵
钞
1977
6.7
Caucasus
Debt
Dubai
Fo@@
Francisco
Ho@@
Janet
KONG
Men@@
Te@@
Wilson
adapted
apartheid
aring
asylum-seekers
co
color
comp@@
conceived
confused
dam
deficiencies
detention
disappointment
discussing
engineer
ensuing
exacerbating
hardship
hazard
hearts
hor@@
husband
ill-@@
investigations
monopolies
near-zero
obsession
one-quarter
ow@@
picking
pipelines
populated
predicting
proving
reactor
reassuring
reconsider
speculators
susceptible
switch
sympathy
talents
tendencies
tim@@
turbulence
ugly
undervalued
unfortunate
uprising
井@@
吸
懂
捉
旷@@
盗
红
谤
赞
陌@@
1953
84
At@@
CPI
Castro
Facility
Frankfurt
NA@@
Rousseff
Wil@@
adds
afraid
apparatus
asset-price
associations
bly
calculation
capacities
col@@
complained
complement
correlation
defended
defenses
diffusion
diversified
double-digit
drones
embassy
endemic
enjoys
explosive
fits
flag
floating
frequency
gs
guns
hu@@
imposition
incident
ining
lagging
locations
maximizing
mayor
needless
obtained
once-@@
oring
ours
outlays
owes
owner
persecution
plot
pluralism
postponed
praise
promotes
pronounced
quantities
questionable
rated
skin
social-welfare
staying
substantive
symbols
taxing
twin
ty@@
ung
upholding
姗@@
岁@@
崭@@
抉@@
挺@@
晓
炼@@
耸@@
芽
蛋
逝
铝
须@@
鸡@@
鼠
1956
1957
2-@@
4.6
Carmen
F.
Gra@@
NTC
Now
Si@@
Soros
Y
analogy
busy
chan@@
cite
combining
critically
crunch
deprived
divergence
divorce
dra@@
fantasy
globe
groundwork
guess
hom@@
hub
imposes
incoming
inv@@
irrigation
jail
len
leveraging
lists
materialize
narrowly
nurture
pessimistic
precious
prescription
priced
proves
punished
purchased
questioned
rank
rebalance
reformist
render
rendered
spike
standoff
stri@@
subjected
superiority
transitional
triple
und@@
undertaking
unwillingness
verge
workplace
亏
址
垮
堵
尺
慎@@
梯
澜
玩
瘾
辉@@
&apos;ve
1938
2022
6-@@
70@@
80@@
AN@@
BS
Black
Carney
Do@@
Er@@
IBM
Shi@@
Thai
Tillerson
Up
analytical
announce
atic
ation@@
brother
burned
clause
compromised
conferences
contradictory
cross-@@
curve
demonstration
demonstrators
depended
disadvantaged
disclosure
dismantling
diversify
empowering
enthusiastic
extraction
full-time
highlighting
illicit
improves
ingredients
intends
interpret
intervened
mp@@
notorious
outsourcing
parent
perceive
posing
post-World
professors
qualify
racist
radicals
ratify
rebellion
remedy
riots
sho@@
signatories
specialized
spillover
steam
tively
twentieth-century
underscores
varieties
varying
vo@@
刷
堡@@
扰@@
绩@@
耳
航
鸡
4.8
Air
Argentine
Bur@@
Can@@
Frank
Gülen
Harry
Lu@@
Old
Post
Since
Tanzania
ack@@
administered
admission
all-@@
artificially
automobile
aversion
beneath
computing
consultation
decreased
distinguished
ed-@@
ell
embargo
entertainment
everyday
exported
financial-sector
four-@@
ft
geographical
growth-@@
havens
identical
imperatives
inauguration
ine@@
innovators
invisible
jurisdictions
ki
kin
locally
loses
manages
morning
nation-states
nearby
opt
ori@@
preoccupied
prevails
republic
restructure
score
social-@@
swaps
theirs
transformative
tre@@
ve-@@
vowed
woes
writers
£
厉@@
嘴@@
尸@@
招
桌@@
窘@@
署@@
蹂@@
躏
阻
隶
1946
30,000
CSU
Carter
Cas@@
Executive
Home
IAEA
Je@@
Kissinger
Mitt
Osama
Pradesh
SEC
Silvio
Stockholm
Tiananmen
Two
Winston
admittedly
alcohol
anti-immigrant
band
beating
buffer
consuming
continuity
cy@@
deepened
discount
discoveries
dog
dubbed
fearing
feat
financial-@@
flying
foreign-@@
hegemonic
ie
intellectual-property
invaded
le-@@
lifestyle
lower-income
market-@@
meets
metrics
non-governmental
penalties
persistently
radiation
realization
repercussions
resignation
ri
ruler
siege
translated
unchanged
unhappy
unskilled
unsurprisingly
visions
wisely
worldview
匆@@
废
旁
灯@@
猩@@
痹@@
祸
箭@@
翼@@
聘
肮@@
腿
遣@@
醒@@
钉@@
魁
,000-@@
1963
20-@@
79
BA
BP
Britons
Conservatives
D.
Dream
Fi@@
Guard
Ha@@
Intelligence
KGB
Kashmir
PA@@
Sen
Ste@@
Taylor
Trichet
Workers
accidents
accommodation
amendment
amounting
anti-establishment
ari
ath@@
au
awarded
bacteria
blaming
boon
classified
colleague
cool
corresponding
crossed
decision-makers
disorders
flee
fulfilled
graduate
harassment
heating
hel@@
illustrates
incompatible
incompetence
inner
inspiring
installed
ken
messages
minded
mount
murdered
newcomers
obscure
off-@@
oldest
ological
oppression
overcapacity
paralyzed
poli@@
post@@
precautionary
privileges
pulling
reminiscent
retains
risking
self
simplistic
tail
tical
warn
weigh
yo@@
á
仓
依
娩
御@@
悖
掏@@
旨
猩
磋@@
笨@@
罕
肪
肿@@
讯@@
赠@@
韧@@
骇@@
1932
2040
4.@@
Americas
Anwar
Austrian
CN@@
China-@@
Control
EU-@@
Hy@@
Is@@
La
Na@@
Ni@@
SA@@
SWFs
Salman
Uni@@
Work
acknowledging
advised
ams
analyses
authorized
boy
burdened
chess
coercion
contradiction
decides
depositors
describing
disposable
duration
el-Qaddafi
enriched
exciting
fertile
formerly
fortunes
framed
frozen
functional
glut
gridlock
homeowners
hosting
jihadists
ki@@
languages
lap@@
ly@@
officer
ome@@
oms
opaque
orientation
papers
paths
payroll
pilot
portrayed
prevalence
pro-European
prohibited
qualities
radicalism
realm
recommend
resembles
satisfaction
screening
sively
soci@@
societal
sted
still-@@
tier
traits
tropical
uncomfortable
val@@
weakens
乙@@
亮@@
仁@@
伏@@
佐
冈
卑@@
卜
扑@@
杰
汗@@
珠@@
瑟
舰@@
蕴@@
诡@@
4.2
4.4
750
AIG
Data
FIFA
Fox
GDP@@
Gen@@
Jazeera
ME@@
Muhammad
Network
Osborne
Our
PKK
Vi@@
Wal@@
algorithms
asserting
ational
autocrats
automobiles
bonuses
brothers
bru@@
catalyst
celebrated
champions
chemicals
chooses
cleaner
climate-@@
comm@@
complain
composed
condemn
convenient
cou@@
couldn
countering
delicate
ented
exploration
exploring
extraordinarily
fastest
fierce
gan@@
gel
hugely
imprisoned
inflicted
invention
lan@@
liberation
matched
meddling
occasions
occupations
outbreaks
outs
outweigh
particles
peninsula
proactive
procedure
proceedings
prohibition
prosecutors
publish
reporters
specialists
squeeze
strengthens
submit
transferred
transmitted
trauma
treasury
twenty
upside
van@@
wealthiest
withdrew
冗@@
啡
尊
摸@@
氛
沾@@
疹
腕
醇
1961
96
Academy
Bal@@
Cultural
Fre@@
Hollywood
Iceland
Lagarde
Leone
Malaria
PR@@
Pen@@
Persian
President-elect
Services
Sur@@
abrupt
acceleration
ach
advanced-country
announcing
arm@@
barring
bles
boats
civilized
clashes
consequently
convened
convention
convert
craft
crowds
depressing
deterrent
developers
diaspora
diet
domination
enjoying
fundamentalist
fundamentalists
gers
hardliners
hole
hopeful
human-@@
independently
indicating
insurgents
intractable
ity-@@
lags
lawyer
literature
manageable
married
modernizing
monarchy
nervous
occupy
oning
portray
precarious
protects
prudential
rer
shopping
short-lived
shortly
smo@@
stein
stringent
supplying
surged
transit
unilateralism
user
俑@@
勤@@
棉@@
滚@@
胞@@
舌
裙@@
隆@@
-to-@@
ACA
Bhutto
Br@@
Coalition
Dar@@
Du@@
ESG
Enlightenment
How
Ku@@
Lawrence
NASA
New@@
Prague
San@@
Sierra
Solidarity
advocacy
airports
alleviate
app
armies
ate-@@
balance-of-payments
banker
betting
bizarre
branches
civilizations
clever
coffee
crowded
cru@@
discouraging
discretionary
divisive
eating
ements
endure
engineered
fire@@
fusion
gamble
hal@@
hard-@@
imprisonment
inform
jihadist
lessness
license
listening
metaphor
operated
opted
ose
pan-European
perverse
pieces
polarized
pped
pretend
prosper
recovering
rejects
remedies
retained
sad
sec@@
sequence
sh-@@
tank
ue
uring
utility
violating
virtues
倡
凶
剔@@
勘@@
叠
扩
拖
搬@@
狼@@
诞
飘@@
鸟
-year
0s
1951
8,000
8.@@
AL@@
CI@@
DB
Edward
Fa@@
Franco-German
Joint
Los
Rica
Shi
So@@
Val@@
War@@
accumulating
blessing
classical
coincidence
connecting
contempt
convenience
cour@@
dar@@
dies
downs
dual
elevated
employee
entitlement
erratic
examination
fastest-growing
fever
forging
gener@@
grassroots
homeland
hosts
ides
impeded
inclusiveness
inertia
isolationism
lobby
mathematics
modernity
moments
myself
occupying
one-fifth
optimists
pages
participated
peers
plunged
possession
post-Soviet
primacy
refer
sacrifices
seekers
sive
sizeable
sorts
sponsored
stretch
submitted
tactic
technologically
ures
uri@@
water-@@
乔
俘@@
嘘
夏
橙@@
氓
池@@
洁@@
锐@@
1939
200,000
Armenia
Ba@@
Case
Chinese-@@
Common
Jiabao
My@@
PLO
Poor
Schäuble
Slovakia
Sol@@
adjusting
agrees
allied
analyze
arising
automated
bets
blockchain
broadening
campaigning
cholera
constituency
credentials
cushion
cyberspace
defines
delays
dent
disrupted
dividing
donations
drug-@@
economic-policy
escalate
experimental
expressing
fast-growing
foolish
free-@@
gift
heritage
heroic
horrific
hy@@
hybrid
hypocrisy
ick
je@@
lock
logistics
lucrative
micro-@@
multinationals
observation
om
overwhelmed
passes
percent
polling
pre-industrial
predicament
prerequisite
punitive
puzzle
reproductive
restrictive
rewarded
senators
servants
slack
slaughter
sparked
stops
stricter
successors
suggestion
supervisory
swings
tailored
tering
trades
transformational
ultra-low
unbalanced
underpins
unfolding
varied
vigorous
virtuous
volumes
ye@@
yielded
喇@@
园@@
夭@@
尸
岭
己@@
帜
拙
栖@@
畸@@
稍
荐
葬@@
豫@@
雪
颈
驱
鼎
17.@@
1936
1983
6,000
CDS
Can
Criminal
Fourth
G8
Gore
History
ICTY
Jong-il
Journal
MPs
Pan@@
RBI
Santiago
Sy@@
Ver@@
Will
ade@@
advent
alle@@
assurances
ater@@
autumn
belt
boosts
cal
charismatic
collapses
comparing
continuation
curtail
deadline
diagnosed
disappointed
disorderly
draws
eg@@
epidemics
evaluation
fascist
flu@@
forged
fraught
futile
gre@@
head@@
hyper-@@
hypothesis
importing
infant
jeopardizing
jo@@
landmark
ll
minimizing
nuclear-weapons
patriotism
pie
pp@@
prosecution
railway
ray
replied
resurgence
risk-@@
rolled
scant
sensitivity
settings
stayed
subtle
suppression
talked
tar@@
theft
ther@@
upgrade
valuations
victories
widen
wood
―
亟@@
侧@@
君
嘴
坠@@
媒
媲@@
档
稼
艰
赌
230
4-@@
Am@@
Communism
Hassan
Michel
Nicaragua
Northeast
Senkaku
Target
ani@@
arming
ash
backs
bent
capturing
cat@@
chaotic
characteristic
citing
climb
combines
committees
compassion
completing
dropping
e-commerce
ensured
ey
fans
fertilizer
fruits
geopolitics
influences
jointly
lo
manipulated
militia
multipolar
neighborhoods
obsessed
overlook
peril
plan@@
relating
resign
resisting
retirees
rit@@
robotics
shelter
simpler
spiritual
tale
textbook
ths
tipping
trade-@@
trivial
tt
unchecked
undergo
删@@
唱@@
宰@@
幻
廷@@
抚@@
浩@@
涌
烷
畜
瞬@@
缝
苛@@
薄
诫
陪@@
靖@@
顷
190
190@@
1950s
1976
3-@@
Ay@@
Colombian
Des@@
Emirates
Fiscal
Life
Morales
Olmert
Rob@@
Russian-@@
Snowden
TA
Tibetan
YouTube
accordance
advancement
aided
arts
assembled
assessed
behaviors
bes
better-@@
broker
burn
canceled
centric
che
clock
collaborative
compound
contend
contested
cronies
cryptocurrencies
develops
diplomat
disparate
dissidents
district
experimentation
extract
ez@@
fiction
gesture
glance
ham@@
handling
hegemon
investigate
leap
lin
livestock
lofty
milk
mixture
mobilization
nostalgia
panels
persistence
pessimists
possesses
q
ratification
reassure
referenda
section
selective
shocked
shop
sin@@
ski
smarter
spo@@
stic
string
subsidize
swift
takeover
tal@@
til@@
tin
tip
top-down
topics
tripled
tweet
tyranny
uneven
unregulated
untenable
xenophobic
佬
彩@@
楼@@
缔
胎@@
览
译
谊
贺
逍@@
颓@@
骤@@
CH@@
Cypriot
Good
HPV
Haram
IM@@
Ibrahim
Jintao
Land
M5S
Nairobi
Orthodox
Pas@@
R2P
Regional
Rodrik
Securities
Strategic
Tehran
Uruguay
Water
Wor@@
Zuma
alas
anymore
arena
assertion
audiences
battlefield
biases
coal-fired
conditionality
cop@@
criticizing
devastation
disciplines
don@@
drastic
dysfunction
etc
fascism
fat
human@@
ians
impacts
incumbents
ini@@
interdependent
jump
legislature
length
lifestyles
low-wage
magic
mantra
mile
mirror
mountain
multiplier
oli@@
plain
plastic
populous
port@@
properties
recourse
reviews
rid
rogue
sacred
self-determination
self-fulfilling
severity
signaling
slide
stabilized
stars
strife
suitable
tourists
ventures
versa
well-functioning
亨
仓@@
侈@@
偶
奶
巫@@
泥
炫@@
甩@@
详
谦@@
躁
&apos;m
12@@
1958
7-@@
Atomic
Balkan
Catalonia
Catholics
DP
Environmental
Fischer
Kyi
Lam@@
MD@@
Matteo
Mike
Mul@@
Prince
REDD
RMB
Ser@@
St.
Tal@@
Three
Uribe
Why
Wolfgang
absorbed
abundance
acquiring
ada
ano
backward
basically
ble@@
bled
brilliant
candidacy
cap@@
catch-up
chaired
championed
debacle
depreciate
devastated
embarked
ent-@@
fan
fatigue
fearful
financiers
har
horrors
hotel
hur@@
i-@@
ica
impetus
infamous
kids
killer
know-how
lean
lim@@
lining
load
logy
lying
mandates
meaningless
measurable
mergers
mild
motive
opposes
patriotic
planting
preceding
prosecutor
rainfall
real-world
relatives
repaid
safeguarding
savvy
searching
secession
separatist
simultaneous
sister
sixth
slows
sou@@
subdued
supreme
surpass
tail@@
tape
teacher
tempting
tightened
toppled
traveled
underscored
uniquely
updated
uprisings
useless
vessels
wartime
wholly
worthwhile
í
ö@@
吓@@
娅
拨
捷
昆@@
梵@@
涂@@
熊
稻@@
绳
菌@@
藉
逝@@
酸
酸@@
青
1964
1965
199@@
7.@@
9-@@
BC
Bra@@
Bre@@
Congo
FDIC
Fin@@
Governing
Gre@@
Hamilton
Hurricane
Kaczyński
Khodorkovsky
LDP
Ph@@
Schengen
Suu
UNICEF
Universal
Wilders
acc@@
ail@@
arsenals
athletes
atomic
attainment
beef
bel@@
believers
bling
bor@@
breach
brutality
ced
compensated
confirms
constituents
converge
convicted
council
curbing
dams
dest
deteriorated
domain
doses
dragged
dynasty
escaped
exposing
ey@@
fast-@@
films
foot@@
footprint
fortunate
frame
goodwill
guaranteeing
hasn
holiday
ideologies
inflated
intact
izes
ju@@
ker@@
lab@@
mandated
manipulating
marketplace
massively
mes
non
nuanced
of@@
olo@@
pe
persons
plague
plunge
preparation
public-debt
pursues
rape
rescued
responsibly
retro@@
ron@@
royal
seldom
shipping
shops
spill
stagnating
start-ups
stating
sul@@
supranational
totalitarian
tour
trick
tting
viability
visa
xenophobia
巾
弗
抓
暖@@
曙@@
沉
涅
溯
犬@@
瑞
畏
畏@@
盲
祈@@
秉@@
粉
罩
遗
钟@@
雕@@
4.7
5.8
AAA
Boko
Challenge
Del@@
Deputy
Einstein
Environment
FT@@
Globalization
Guinea
José
Ke@@
Kofi
Kyiv
Massachusetts
Over
Pa@@
Poli@@
Rohingya
SD@@
Shah
Varoufakis
Way
acies
acks
acquisition
all-time
ama
anti-Semitic
appropriately
bi
biased
brains
cents
charisma
clubs
codes
concludes
consciousness
consolidated
covers
designated
deteriorate
determines
devised
discouraged
dismantle
divert
earners
elling
endorsement
ened
enforcing
expecting
faction
famine
fil@@
fisheries
food-@@
foresee
governmental
harness
ik@@
indebtedness
injured
lobbyists
mode
national-security
noting
oil-@@
parallels
peg
pit@@
plastics
powerhouse
prop
quota
regret
religions
scre@@
seed
session
short-run
shy
slight
sovereigns
spark
supplier
teen
throwing
ug@@
underscore
unusually
urging
voluntarily
wealthier
wear
widened
侈
冰
剂@@
孱@@
廊
摒@@
柴@@
桑
殴@@
炎@@
煌
聆@@
诱
雾
1941
4,000
4.1
50-@@
Alternative
Ara@@
Bureau
CD@@
CN
EC
Em@@
Golden
IA
Islam@@
Jeffrey
Mur@@
Orange
She@@
Soviets
Wa@@
Yu@@
alienated
ambiguous
answered
ar-@@
articulated
ash@@
ba
banning
bits
blocks
bullying
char@@
cho@@
conception
conducive
contemplate
depleted
designs
disinformation
ely
employer
es-@@
ethnicity
fiscally
fla@@
formulate
founders
friction
full-blown
healthcare
hoc
hun@@
inde@@
individually
injections
inquiry
killers
lac@@
lawmakers
local-government
magazine
metric
misses
operators
ousness
overheating
owning
practitioners
pregnant
prevalent
prudence
radicalization
recapitalization
rev@@
shorter
show@@
side@@
signature
similarities
soul
spotlight
starkly
starvation
tism
tolerant
unanimously
unfettered
unraveling
van
variable
wholesale
win@@
嘉@@
忡
忡@@
杆@@
杉@@
睐
鼻
125
1919
2007-2008
3.9
5.6
Alibaba
Better
Bulgaria
CTBT
Cap@@
Darwin
EA@@
Five-Year
From
Manmohan
Mas@@
Mat@@
Money
Morgan
Pri@@
SDRs
Scandinavian
Sergei
Standard
Taiwanese
Tra@@
Zedong
abound
adapting
altered
arose
babies
backstop
bol@@
bombings
brands
bus
cer
chart
cheaply
clarify
confronts
cost-@@
denominated
departments
disappearance
encounter
exc@@
externalities
farther
fines
foreign-currency
girl
grids
hailed
humiliating
hurricanes
imperialism
implicitly
incorporate
indices
interfere
invite
ironic
jihad
lli@@
lots
loud
naive
non-performing
ologists
one-party
peer
periodic
pes
positively
premise
premiums
proportions
pur@@
rankings
recruit
referring
refinancing
reiterated
reminds
rocket
rooms
sch@@
self-defense
separated
shake
shooting
sidelines
spared
spearheaded
spin
stan@@
stolen
strive
succumb
testimony
textbooks
torn
tweets
usage
valuation
vigorously
vocal
warranted
wrought
墙@@
妥
妻
肌@@
胃@@
艺
谜
雀@@
270
3.1
7,000
AI@@
AMLO
Arab-Israeli
Beirut
Columbia
Democrat
Ehud
Estonia
Eurasia
FDP
Gar@@
Georgian
ICC
Insurance
Ki-moon
Kohl
Koizumi
Latvia
Mi@@
Nature
Nicholas
OSCE
Sam@@
To
alignment
appearing
asymmetric
bans
bloodshed
blunt
bo
bon@@
bosses
broadcast
catalyze
chapter
circulation
clothing
collecting
colonialism
communal
completion
contradictions
conversion
countryside
crafted
cy
dan@@
decay
diarrhea
dro@@
dumping
employing
enters
favoring
flaw
gh
happily
harmony
high-speed
hubris
imper@@
indications
isolate
istic
it-@@
knowhow
leg@@
liberalizing
lingering
looms
ministerial
non-tradable
offsetting
plane
planners
pos@@
pro-growth
prohibit
readiness
redress
relentlessly
reliant
requests
riding
riskier
rock
salary
secrecy
segment
self-serving
sink
sn@@
squandered
staged
surgical
taste
tered
tissue
trains
two-year
unconditional
universally
variant
wearing
whoever
yesterday
yourself
à
í@@
兽
唾@@
夕@@
嫩@@
恼
悟
慰@@
掉@@
斩@@
棱@@
殊@@
湖
猖@@
獗
绍
脆
菜@@
蠢@@
赦@@
跑@@
遴@@
酋@@
0.25
5.7
89
9.5
AC
Chernobyl
Danish
Disease
Hansen
Left
Luxembourg
Murdoch
Nordic
PR
Pew
Rajan
STEM
Technology
Trust
adi
anchored
ards
attributable
attribute
bidding
boat
boss
burgeoning
calculus
capitalized
cease
celebration
cing
ck
clearing
cloud
coined
condemning
contacts
convene
coordinating
corporation
crimin@@
dates
deli@@
discern
dollar-denominated
drastically
endangered
eroding
euro-zone
ex-@@
excitement
fairer
fat@@
form@@
grab
highs
input
invoked
kov
label
labeled
loved
maker
marijuana
midterm
mines
nationality
nu@@
out-@@
passion
peculiar
pneumonia
reckoning
regulator
remarks
renewable-energy
requested
rethinking
revenge
revision
rumors
scenes
seeming
small-scale
spots
supplied
swiftly
sy@@
taxpayer
thoroughly
thoughtful
turbulent
unveiled
ush
utilities
verdict
vocational
wishful
wo@@
worlds
writes
伍@@
厦
唤
嗤@@
恋@@
拱@@
江
淋@@
犀@@
犹
睛
碗
诅@@
迈
颂
240
4.9
5.@@
Bundestag
Chechnya
FTA
Friedrich
Hayek
Iron
Israel-Palestine
Kurdistan
Lan@@
Plenum
Problem
Samuelson
Socialists
Trump@@
Wolfowitz
Yale
Yasukuni
Yushchenko
abstract
academia
addiction
adherence
alizes
ambiguity
anim@@
ao
autocracy
bailed
belongs
bite
bolstering
bre@@
campaigned
capitalists
charity
commander
comparisons
complications
contingent
courageous
criterion
cruel
deductions
department
depreciated
disability
dogs
drug-resistant
embodies
ens@@
ethos
ets
exact
federalism
fly
gam@@
grain
guilt
habit
heroes
hiding
holy
horse
hubs
identification
idle
inflict
kills
lawsuits
lax
lengthy
liked
manager
mas@@
masters
measurement
methane
mid@@
natural-resource
notoriously
obs@@
observer
p-@@
passionate
paved
permitting
preferable
prioritize
proteins
publishing
register
republics
retaining
revise
rivalries
routes
seizing
self-defeating
sla@@
spell
spheres
supremacy
taboo
tacit
third-@@
thoughts
versions
walking
wor@@
worsened
zero-@@
喘
嘛
嫉@@
崇
恒@@
摸
湿@@
烂
狱@@
睡@@
缪@@
腾
萌@@
虎@@
讳
谜@@
赦
蹈@@
钉
饿@@
,@@
10-@@
200@@
5.2
Agriculture
BIS
Barroso
Children
Croatia
Election
Eurozone
Fu@@
Liber@@
Mad@@
PI@@
Rumsfeld
Santos
Sciences
Stream
Ta@@
UBI
Venezuelans
Vol@@
abide
ading
aiming
allocating
alternatively
apo@@
attached
barred
best-@@
birds
cleansing
cli@@
collaborate
com
complicating
concede
conservatism
conversations
covert
crumbling
declarations
delaying
discriminatory
displayed
enrich
feeding
filed
for-@@
fun@@
granting
halved
hawks
hierarchy
homegrown
importers
incorporated
intend
interior
invading
leisure
lets
mad
matching
negligible
nic@@
now-@@
outgoing
overvalued
panacea
pivotal
pres@@
pretext
prisons
radi@@
random
recoveries
retrenchment
rhetorical
rift
smoke
smoothly
standpoint
steer
straight
strained
suffice
suspend
tortured
transferring
unimaginable
variations
waging
watershed
zo@@
仪
倪
囊
彭@@
惟@@
栋
泻
渊
眠
瞻
臂@@
踪@@
辜@@
阵
驯@@
鼓
2021
220
94
Amendment
Bhutan
Bro@@
Buddhist
Cam@@
Char@@
Czechoslovakia
Gavi
IPS
Jackson
Lama
Westerners
You
abilities
alli@@
alo@@
amendments
articles
artists
aspire
assertiveness
ately
bars
blocs
bolstered
buried
circum@@
coin
constraining
contexts
contracted
contributor
conversely
copy
crossroads
crown
cry
del@@
derive
differential
directions
dre@@
ect
egregious
ei@@
eighteenth
equals
ero@@
excellence
filling
finish
freed
fringe
grouping
ha
halted
home@@
iPhone
ignorant
inefficiency
instances
int@@
iring
laboratory
lat@@
lessly
lip
longest
longevity
mankind
military-@@
mini-@@
modification
nom@@
non-tariff
noticed
old-fashioned
ominous
ort
overarching
oversee
pensioners
por@@
post-communist
predatory
provider
rep@@
responds
restraints
retire
rin@@
sel@@
setback
sey
shaken
shattered
spaces
spec@@
specialization
spectacle
sterling
stifling
stroke
stupid
treats
ura
wa
yer
yp@@
喘@@
墨
孚
座@@
悄
撞@@
档@@
添
磁@@
肿
胁@@
谅@@
跳
铲@@
驭
魔
-related
170@@
5.1
6.4
8.3
Al-@@
Armed
Be
Cheney
Club
DS
ECT
Fight
Game
Helsinki
Information
Karzai
Kur@@
Mari@@
Mexicans
Op@@
Outlook
Pl@@
Relations
Rom@@
Schumpeter
Stanley
Stat@@
Str@@
The@@
Tom@@
USSR
Without
Zionism
accompany
ace
aggravated
ased
attending
biofuels
calamity
caliphate
comprised
concert
condemnation
consolidating
conventions
costing
cs
curious
dare
debating
demographics
dictates
diets
disdain
dom@@
drift
educating
electronics
endorse
entrants
envoy
equation
examining
expands
flu
folly
full-scale
fy
gent
high-profile
horror
humane
i.e.
incompetent
intergovernmental
jumped
junta
landslide
lers
life-saving
macro
minute
nit@@
non-financial
nurses
often-@@
organs
outlined
outward
pandemic
pat@@
pesticides
pin@@
please
pon@@
pr@@
preferential
processed
rain
realistically
recruitment
retailers
rewarding
ris@@
shel@@
sized
slu@@
solvency
spillovers
squarely
stepping
strides
suits
the-@@
top-@@
topple
unc@@
vengeance
verification
viewers
wards
wasteful
妖@@
师@@
愤
慕
憧@@
憬
栏
汤@@
润@@
涩
痕@@
矶
耀@@
肇@@
蔬@@
谅
钢
陈
鬼@@
0-@@
2060
300,000
7.6
Abkhazia
Anglo-Saxon
C.
CB@@
Den@@
Eichengreen
HC
IC
J.
Melinda
Mnuchin
Nigerian
Pic@@
Poverty
Ros@@
Seattle
Sin@@
Steve
Sunday
Wo@@
Years
Youth
Z
abolished
absorbing
altering
articulate
asis
bind
breeding
builds
by-@@
by@@
cleaning
combatants
contracting
cow
curriculum
dairy
defiance
defy
demagogues
derail
descent
dilemmas
elaborate
embody
en-@@
ential
environmentalists
escaping
establishes
exert
export-oriented
fle@@
forgiveness
forward-looking
generational
ght
hear@@
heights
ight
immoral
immunity
inexpensive
intimidation
intolerance
investment-@@
jailed
job-@@
journal
law@@
lement
los
maps
messy
murderous
ney
offense
pay@@
peaked
person@@
persuading
persuasive
petro@@
post-Cold
precision
pregnancy
presupposes
printed
provocations
punishing
purge
recycling
renegotiation
reshape
restaurants
roadmap
settlers
shield
shutdown
slo@@
sometime
sorry
stifle
stresses
suppressed
surgery
survivors
suspension
sympathetic
therapies
totaling
transcend
traumatic
ubiquitous
unexpectedly
uniform
ups
ven
waning
wield
wondering
world-class
wounded
xes
yan
yellow
á@@
僧@@
冻
卵@@
厢@@
唱
喂@@
够@@
妈
挫
汹@@
睡
肾@@
蝇
骑@@
鲨@@
15-@@
1954
6.8
7.8
Agricultural
Albania
Alexis
Barry
Bosnian
CS
Cy@@
Elizabeth
LGBT
Likud
Lord
Migration
Miller
Pax
Ram@@
Refugees
Ross
Shiite
Tamil
Tw@@
Vatican
Wi@@
_
abolish
accuracy
acquisitions
airport
all-out
ame
analogous
appalling
appointing
assi@@
astonishing
ben@@
bloated
briefly
ca
ce-@@
characterize
circumvent
classroom
commensurate
confusing
conscience
constructing
copper
crippling
culminated
cultivate
curricula
dearth
deficiency
distort
divides
dol@@
dom
dominates
drilling
eled
exercised
exiting
fabric
five-@@
ham
hardware
highway
impediments
implosion
indoor
insurers
invitation
issuance
lobbies
low@@
ly-@@
master@@
melting
mentality
migrate
monitored
nationwide
neoliberal
ore@@
pandemics
pause
plentiful
polar
politicized
prejudice
propel
proxies
qui@@
remembering
renew
repeating
rough
sample
sco@@
sentences
shortfalls
shoulder
sinking
sponsors
stagnated
startups
subprime
succeeding
surveyed
sus
suspects
swe@@
tainted
taper
ter-@@
texts
thereafter
tici@@
tribunal
victorious
weakest
weighed
wonders
ä
兆@@
哺@@
姑@@
宛
涵
罔@@
肝@@
虑@@
铸@@
驶@@
08
0th
500,000
AT
Ali@@
BEACH
Bas@@
Commissioner
Dalai
Damascus
Death
Drawing
Eurasian
Himalayan
Innovation
Jam@@
Janata
Jimmy
Katrina
Keynesians
Leadership
Lithuania
Make
Medical
Nord
Over@@
PAS
QE3
Rise
SGP
Seas
Serbian
Single
Speaker
Treasuries
Yes
aded
ain@@
alienation
analyzing
ancestors
barrels
beauty
bit@@
blo@@
cal@@
campaigners
comprehend
concession
constituted
contrasts
convey
dampen
desert
desires
disparity
downgrade
ena
ered
fathers
frightening
greatness
han
helm
ign@@
install
instant
instincts
legality
li
linguistic
loaded
narrowed
nationals
normalize
ols
open-ended
ousted
overdue
owns
park
passions
perpetual
petroleum
phased
phenomena
physicians
planes
pleasure
powerless
praised
predictably
prompt
promptly
provocative
publications
quar@@
read@@
reelection
rein@@
restaurant
scaling
sen
shall
social-media
specified
stretching
theater
third-largest
ti
tightly
translates
tted
uk@@
undeniable
vers@@
warrant
婴
慌@@
扫
捆@@
斤
杜
滤
狡@@
猫
甜@@
盐
笃@@
紫@@
绳@@
苛
茂@@
茶
葬
袒
蹒@@
闲
陋
2008-@@
AD
Aleppo
Are
Ash@@
Back
Bharatiya
Bran@@
EITC
Ed@@
Eisenhower
Financing
Gerhard
Gini
Glass-Steagall
ID@@
Khan
Khomeini
Lau@@
Manchester
More
Nieto
PISA
PLA
Patri@@
Rowhani
SO@@
SR@@
Sadat
Sheikh
Survey
Tocqueville
Ve@@
abruptly
accusing
afforded
ain
ake
ala
aled
alert
ami
arrow
ase
attractiveness
beli@@
belonging
bers
biotechnology
block@@
boasts
bombers
catching
childbirth
continually
converted
culprit
deadlock
defeating
definitive
del
determinant
disconnect
discretion
ech@@
empathy
enacting
encountered
encouragement
enter@@
espionage
expenses
expressions
fade
faltering
fashionable
favorably
gue
hard@@
harming
healing
hurdles
inadvertently
incur
indifferent
inferior
labor-@@
laundering
lights
macroeconomics
merchandise
motivations
nationalistic
nice
nonsense
ny
oked
onic
ony
orthodox
ounding
pan-@@
pave
physically
plo@@
plummeting
polluted
pot
practiced
prompting
protocol
pul@@
pump
pun@@
railways
reaffirmed
redistributive
refers
refuge
registration
schedule
scholar
scourge
shi
shly
sian
sleep
slogans
speaker
stag@@
stature
sticking
stubbornly
stuff
sub-Saharan
sun@@
sway
tant
tapping
tations
tenth
tertiary
traveling
troop
uniting
viruses
wildly
willingly
ü
刃@@
圆
姐@@
庆
戒
攸@@
昧
械@@
歪@@
汀
泰
狐@@
疼@@
祝@@
稽@@
缠
虏
袤
讽
谣@@
醉
鸟@@
-of-GDP
101
7.7
Bak@@
Barcelona
Battle
Citigroup
Comey
Commerce
Company
Cro@@
Denver
Drug
EU-wide
Grand
Han@@
Island
Jer@@
Lev@@
Mag@@
Manafort
Melbourne
Military
Navalny
Niger
PRI
Pentagon
Peres
Price
Ricardo
Rice
Saakashvili
Salvador
Saud
Silva
Steven
Strip
Tahrir
Western-@@
ables
accommodating
accompanying
aides
alities
analyzed
appropri@@
aps
architect
arity
arrogance
billionaires
blue
brunt
capitalization
cartels
cas@@
cep@@
chancellor
coefficient
complacent
consumer-@@
corn
culturally
data-@@
dawn
dead@@
demon@@
destined
deterred
digitization
ef
emanating
endeavor
eradicating
erupt
euro@@
fallacy
fence
formulated
friendship
full-fledged
genius
geostrategic
gran@@
hang
highways
hurting
idity
inconvenient
ind
ine-@@
intermediate
ities
ji@@
land-@@
liberated
lier
like-minded
logistical
marry
mercantilist
milestone
misplaced
na@@
neutrality
nominated
objects
obtaining
one@@
open-@@
ots
pap@@
parameters
pending
philosophical
pol@@
polity
polluting
posturing
price-@@
protective
provoking
reinvigorate
relate
relates
remarked
retraining
ron
sand
sat
secularism
selfish
sentenced
servicing
shores
shortsighted
sin
sins
skewed
spare
stall
static
suicidal
surviving
tag@@
tasked
thesis
tivity
trump
ts@@
umb@@
undemocratic
unwanted
upheavals
utter
wake-up
wrongly
县
唐
嚣@@
妙@@
懈@@
挨@@
撑@@
敛
斐@@
昨@@
杯@@
浇@@
溺@@
琴
琼@@
窒@@
窟
窥
羊@@
肚@@
蛊@@
辍@@
逾@@
郊@@
鲸
&apos;ll
16.@@
1800
1966
Anti-@@
Azerbaijan
Bol@@
Buenos
Christine
Dani
Deutsche
Fran@@
Hol@@
Inequality
Jared
Jonathan
Kushner
Many
Napoleon
Nelson
RC
Res@@
SCAF
Scott
Senegal
Sunni-Shia
Ty@@
US@@
Xinjiang
abor@@
ac
accepts
adversary
ano@@
anonymous
antibiotic
antimicrobial
architects
asset-@@
averted
below-@@
billionaire
brutally
buildup
bullet
businessman
capital-intensive
casting
chairs
chemistry
church
clean-energy
coercive
commissioned
compromising
conceptual
conflict-@@
cooking
cooling
cooperating
deepest
deficient
delusion
devaluations
disarray
discredit
dit
downstream
egalitarian
emit
envy
et@@
float
forums
g-@@
ga
generic
gic
gun@@
half-million
harmonization
histories
hood
humanities
hyper@@
illiquid
illusions
impaired
incite
ined
ingredient
invaluable
ise
isolationist
ji
layer
less-@@
lied
life-@@
lifelong
loom
loop
loosening
mag@@
marking
mathematical
measles
mediocre
mid-century
money-@@
mystery
non-profit
oral
petty
prescriptions
prohibiting
propensity
restructured
resumption
run@@
scarcely
se-@@
separately
sequ@@
she@@
shine
shrunk
sia
soar
stoking
supporter
sustainably
tired
unrelated
unreliable
vanished
wheat
winds
吵
喝@@
嚣
夷
契
嫁@@
扯
搅@@
斡@@
旺
橄@@
葛
赵@@
跚
逸
银
霸
颖@@
169
193
1937
2-3
360
550
6.3
6.9
AVIV
Accords
Ass@@
Assistance
CRA
CS@@
Child
Consumer
Countries
Dialogue
Gary
Governance
Kha@@
Khatami
Macedonia
Managing
Portuguese
Return
Sino-American
Thirty
Tobin
Tr@@
Tusk
aci@@
admired
adversely
antagonism
anticipation
any@@
arriving
arrows
assure
ata
augment
backgrounds
baseline
beset
bing
bipolar
build-up
bury
calculate
care@@
carnage
chauvinism
client
coherence
daughters
deception
deduc@@
defuse
delegates
descendants
desperation
detained
disaffected
dition
divergent
echo
emp@@
emperor
enhances
exemption
forecasters
freeing
gauge
guerrilla
hacking
hectares
hesitate
ie@@
impeachment
impedes
inappropriate
incipient
income-tax
inheritance
intermediaries
invests
inviting
ja@@
journals
ket
lar@@
lau@@
legislatures
levy
linear
meager
mercy
momentous
occasional
offspring
one-time
opium
oth@@
parks
pas@@
peso
ples
posture
predicts
pressured
projection
propelled
quit
ration@@
re-elected
recalls
reconciling
reshaping
resource-@@
risk-free
rupee
ruthless
scaled
sends
settling
showdown
sians
slashed
stakeholder
stockpiles
subsistence
tam@@
teeth
thorough
time-@@
um-@@
umbrella
undergone
unifying
unpaid
upheld
upset
veness
visitors
volunteers
website
wounds
zi
啊
埋
夹@@
娃
摄
斑
斥@@
暇
欣
泄
烦@@
瘟@@
粒
缪
臃@@
诈@@
诗
鄙@@
阅
鹅
齿
1952
1955
25-@@
330
7.4
Amsterdam
Biden
CA
CITY
DDT
Dec@@
Euro-@@
Fe@@
Federation
GNI
Grexit
Gujarat
IV
Institution
Kirchner
MS@@
Mozambique
Muslim-majority
Nicolás
Ob@@
Ossetia
Politburo
Rabin
Ran@@
Risk
Shell
Test
Today
Tu@@
Tymoshenko
Vs
Wat@@
Zika
acknowledges
afflicted
alls
ammunition
annualized
antly
anxieties
at-@@
ater
attachment
attendance
awi
banner
big-@@
biomedical
bloo@@
blue-collar
bribes
celebrating
cocaine
coins
colleges
comment
compulsory
countercyclical
couples
coups
database
deliberation
delivers
detainees
dictated
disclose
dissolution
doubtful
eligibility
embark
emergencies
eness
entitlements
explored
free@@
fro@@
fuel-@@
gas-@@
grossly
harvest
hearings
hi
hits
hollow
hum@@
ily
incidence
incited
influencing
interestingly
ious
kets
kin@@
kings
ko@@
lead@@
leaked
legacies
legitimize
locking
mate
math
millennia
mineral
molecular
morale
mping
multiculturalism
narrowing
non-nuclear
og@@
organ
originated
ov@@
pioneering
pir@@
ple
positioning
prematurely
probe
prominence
provocation
raging
reputations
resurgent
ridden
sil@@
song
sounding
spirits
ss-@@
stal@@
substitution
tables
tible
tin@@
tom@@
tou@@
tourist
tti
ttle
tune
twist
uncontrolled
undesirable
unhealthy
univers@@
validity
violates
vo
waged
wanting
weekend
welcoming
wit@@
workable
xi@@
zy
佳@@
堂@@
壳@@
屑@@
帅
晨
氦
浮
炉
珊@@
番@@
磅
磨@@
稚
纱
耐
聊@@
衰
铜
闹
骂
10-15
2000-@@
6.@@
Andre@@
Bali
Bangkok
Banks
Benjamin
Bon@@
Burmese
CE
Chase
Der@@
Euro-Atlantic
Fillon
GST
Hab@@
Hal@@
Health@@
IEA
IS
Islamabad
JP
Joe
MO@@
Navy
Nazism
Panama
Peña
Presidents
Recovery
Refugee
Rex
Romer
Rus@@
SA
Sand@@
Sen@@
Sil@@
Staff
Ti@@
Tom
Trap
WWI
Wolf
Zone
accomplishments
admitting
airlines
aming
ases
attained
averaging
avoids
ays
bank@@
bare
black@@
blackmail
blockade
bottom-up
cali@@
cam@@
caring
caste
charter
cher
clam@@
clauses
codependency
complicate
contractors
crack
crazy
critique
curse
cutting-edge
decade-long
defl@@
detection
differentials
dig@@
directing
divi@@
economic-growth
eggs
elec@@
embarrassing
equi@@
excludes
expire
fare
file
fore
franc
freshwater
garment
greener
grounded
helium
hurricane
ic-@@
ick@@
illiteracy
immensely
impulse
infants
inject
installations
intermediation
internationalization
jihadi
joblessness
justifies
lens
letters
long-lasting
metals
moderately
money-market
mounted
nationalization
navy
non-existent
nutritional
opens
oppressive
orph@@
paramount
patronage
perilous
pot@@
precipitate
preparations
preservation
pronouncements
psycho@@
publicized
reconciled
reign
relation
relaxed
reserved
restrain
ris
ruin
sanctioned
screen
senator
sequencing
setbacks
shoes
short-@@
six-@@
spectacularly
stoke
suppressing
tability
telephone
tives
transformations
un-@@
una
unpleasant
update
ust
vain
variation
watch@@
ze@@
zombie
丑
侦@@
懒@@
摊
敏
桩
榄@@
潭
猎
琐
睁@@
绌
绥@@
绵@@
荡@@
詹
骨
12th
30-@@
30-year
40,000
5.3
6.2
Abdel
Addis
Again
Aid
Arthur
BR@@
Botswana
Budapest
Carlos
Communists
Cre@@
Dilma
Direc@@
Dmitri
Electoral
Eurogroup
Europe-wide
Fannie
Fidel
Geert
Gil@@
Gl@@
Guatemala
HA@@
Hi@@
IA@@
Income
JPM
Juan
Khashoggi
Man
Mattis
Mayor
Milosevic
Mitterrand
Orwell
PN@@
Ren@@
Schröder
Settlements
Shia-@@
Sho@@
Should
Sp@@
Tru@@
VAT
Vo@@
Wahhabi
Watch
Young
Zhao
ace@@
aling
allegiance
allocations
ally-@@
analytics
anti-EU
appointments
asks
assurance
atmospheric
bat@@
beaten
bout
bullets
burdensome
buys
cigarettes
clothes
clouds
clusters
cohesive
coincided
collabor@@
commissions
comple@@
constitu@@
cont@@
conundrum
cornerstone
corrected
counter-productive
cyber-@@
dating
debilitating
disabled
dissatisfaction
diver@@
diversion
dominating
dy@@
economy-wide
electorates
endgame
envisioned
eternal
euro-@@
exclu@@
explo@@
extinction
farmland
featured
fies
four@@
ful@@
generosity
glass
glory
greeted
hazards
hints
hired
illa
impediment
ini
insecure
institutionalized
intentionally
iri
leaning
lent
loosen
lunch
m-@@
manufacture
marginalization
merger
minerals
mismatch
moratorium
mosquito
muster
mutualization
negatively
nine-@@
noble
optim@@
ouster
part-time
petition
philosophers
poet
post-2015
precedents
presided
presses
prolong
quantum
rallied
rants
recruits
reliability
rigged
risk@@
robot
rockets
rupture
rushed
sellers
separating
separatists
shir@@
sinister
six@@
skir@@
sober
social-security
spe@@
strip
succumbed
supplement
surprises
taxi
tepid
tradeoff
tree
unanimous
unaware
unjust
variables
videos
warns
wat@@
仙@@
冠
妮@@
捧
焚@@
纲
羁@@
芒
诋@@
贩
锚
阔@@
鹫
&apos;a
1917
400,000
60-@@
AP
Ap@@
Baker
Bolton
CAPE
CP
Carl
Cho@@
Credit
Cur@@
Doing
Dominique
Eric
Far@@
Four
Friday
GAVI
Grillo
Havel
Inflation
Institu@@
Kenyan
Long
Mae
Michelle
Model
ON@@
OR@@
Opportunity
PP@@
Petersburg
Progress
Progressive
Promise
Rule
Sahel
Sam
Stu@@
TC
Tar@@
UAE
Yo@@
accuse
ado
affiliated
afterwards
ailing
ampnbsp
anic
anti-American
anti-Western
anticipating
appealed
appearances
attest
attributes
ax@@
bble
book@@
boring
bread
brighter
cable
ceremony
colonies
combustion
consultations
crushing
cultivated
cyber@@
dam@@
deep-seated
delu@@
density
dev@@
devalue
devising
direc@@
disbur@@
distinctive
distorting
draconian
ears
eased
elled
energy-intensive
essed
evening
evenly
exempt
ez
fan@@
finger
fiscal-@@
frontiers
gal@@
gender-@@
ghost
glob@@
grandchildren
graphic
haircut
harmed
holder
holes
holistic
inclination
inconceivable
inity
insure
insurmountable
interpretations
intra-@@
invoke
isolating
junior
keys
ladder
lease
leg
liable
long-range
manifest
manifestation
misuse
motor
muddle
muscle
nascent
naïve
near-term
palpable
permission
perpetuate
premier
pro-market
quarterly
radioactive
ravaged
reaffirm
record-high
reliably
relieve
rendering
retaliate
rife
rup@@
satisfying
sells
spawned
sporting
stretched
substitutes
swung
tall
tenets
terrain
thir@@
tian
totaled
touted
tribes
unease
ung@@
vaccinated
val
vegetables
vic@@
warheads
warmer
wide-ranging
windfall
wrenching
yearning
zi@@
zo
丛@@
俾@@
圾@@
墓
姬
宴
寿
懂@@
挂
撼@@
浑@@
穆
编
羞
聊
蜂@@
踌@@
迥@@
述@@
颗@@
饼
鸽@@
09
12.5
3-4
AM@@
AS
AT@@
Adviser
BM
Bismarck
Col@@
Commonwealth
Curtain
Dick
Dod@@
Employment
ExxonMobil
Gor@@
H.
Hope
IT@@
KRG
Kevin
Lenin
Meeting
Mitchell
NA
Obrador
Press
Pu@@
SE@@
Sandy
Sputnik
Supp@@
Ted
Tha@@
Tunisian
UNESCO
amend
anarchy
anti-European
applicable
arbitrage
assigned
backbone
biomass
boast
brightest
bully
cares
cash-@@
categor@@
channeling
closure
coffers
common@@
complexities
concentrations
concluding
confirmation
consul@@
continuously
cooperatives
damages
dear
denies
denounce
din@@
dissident
distract
doc@@
dress
endowments
epic
ere
eu@@
fol@@
fostered
frankly
frustrations
gambling
gangs
guerrillas
hallmark
hesitant
honored
human-induced
humiliated
illegally
illi@@
inducing
instantly
intrusive
leftists
lighting
medi@@
meter
microfinance
minus
mp
mutations
notions
nurturing
objection
observations
one-child
onian
overlapping
paranoid
pass@@
passengers
peasants
planetary
plummet
policing
predictability
prefers
preserved
principled
pro-democracy
probable
prosecute
rant
recessionary
releasing
rent-seeking
resounding
revelation
sav@@
shots
sion-@@
siveness
slip
smallest
smallholder
social-democratic
start-up
tele@@
tense
threw
timetable
tionally
tization
tracks
turnaround
ular
unwise
urs
visas
war-@@
wished
zer
且@@
伞
佣@@
傀@@
壑
孙
嵌@@
悉@@
悔@@
昆
湖@@
畅
砸
磷@@
荷
莉
觅
违
铜@@
锻@@
197@@
1997-1998
A.
Ahmed
Airbnb
Ambassador
BRCA1
Bachelet
Bloomberg
CO
Capitalism
Carbon
Cu@@
During
EI@@
Emerging
FS@@
Farage
Geithner
German-@@
Governors
H.W.
Hole
IDA
Jobs
Line
Operation
Order
Pad@@
Pal@@
Pay@@
Pearl
Phelps
Principles
Reddit
Sav@@
Serb
Shiller
Sou@@
Stern
Strait
Threat
Timothy
Too
Walter
Wealth
Yukos
admiration
alling
anti-globalization
apology
aspiring
associate
attain
award
bear@@
behaving
beleaguered
birthday
breath
brinkmanship
but@@
cancel
cancers
capital-flow
changer
childcare
climate-related
complaint
compounds
compreh@@
corporate-@@
counter-cyclical
credited
creditworthiness
critic
curtailing
dealings
decarbonization
decreasing
deeds
dinner
disrupting
domains
downturns
du
dust
earliest
employs
enforceable
essions
exercising
facilitates
farmer
feder@@
fitting
fluid
fool
genetics
geo-@@
glaring
glimpse
gn@@
guards
headway
health-@@
heels
hotels
hurts
identifies
ids
inal
inaugural
inflation-@@
institute
instrumental
investigative
jobless
lavish
leaks
lecture
levers
lion
loopholes
macroprudential
man-made
massacres
matches
mechanical
mitigated
mountains
movies
muted
nasty
newfound
nurtured
oni@@
ound@@
our@@
painfully
phases
pity
planted
pleased
policy-@@
pools
prejudices
presenting
proclaiming
programming
prosecuted
protesting
pumped
ramifications
reacting
reassert
recapitalize
recurring
references
regaining
revolutionaries
runoff
satellites
seriousness
sexually
sible
sit@@
sor@@
stam@@
steal
stewardship
stored
stricken
subordinate
subsidizing
syn@@
theorists
therapeutic
token
tolerated
truths
unfinished
unfold
unnoticed
ured
us-@@
ust@@
usti@@
vindicated
violently
vitality
winner-take-all
woefully
刷@@
剑
勿@@
匪@@
叉
垫@@
壁
奴
宠@@
寒
寸@@
恼@@
抹
掷
昏@@
栏@@
祭@@
祷
肃@@
鼠@@
0,000
1920s
20th
6.6
About
American-@@
An
BRCA2
Bashir
CNN
CRIS@@
Chi@@
Corps
Cruz
Dawn
Deep@@
Do
Dom@@
Donbas
EEA
ESDP
Fifth
Ga@@
HF@@
Hel@@
Hill
Holland
Hor@@
Indonesian
Ir@@
Limits
MP
Manila
Monnet
Nasser
Nation
PDVSA
PP
Paulson
Rab@@
SNP
Saleh
Schroeder
Stock
Stuart
Theory
Tobacco
Tre@@
Truman
Wolfensohn
Yemeni
Zionist
abolition
abortions
abyss
adherents
adhering
ado@@
advertisers
aggravate
air-@@
anism
aspiration
asu@@
auspices
bac@@
battered
boo@@
bordering
breathe
bureaucracies
chips
coexistence
commissioner
conce@@
conceivable
consistency
constitutions
contemplating
correcting
cotton
culminating
cynicism
dar
depletion
depths
derives
diesel
disciplined
disclosed
distracted
diverted
doom
econom@@
eff@@
electrification
energies
envisaged
eruption
essay
exploded
failings
fel@@
fend
fications
fights
first-ever
fixes
flags
flooded
foes
forbidden
forcefully
fran@@
frontline
frustrating
generalized
gged
hampered
hand-@@
hydrogen
ideologically
iev
illustrate
impartial
impressed
ination
inherit
inspectors
intertwined
invade
itable
kick
kingdom
lagged
las
laudable
lia
liberalize
lif@@
liver
localized
locals
loser
low-skill
maturities
medication
mentally
metropolitan
modes
motivate
murders
muscular
nationally
northeast
observe
oll@@
orbit
ordering
oun@@
out-of-@@
overtaken
pale
paraphrase
partition
persisted
piecemeal
poster
precedence
preliminary
prey
prospective
quagmire
recommendation
recruiting
red@@
reg@@
renaissance
rence
repo
residual
respecting
righ@@
ruble
script
seventh
sex@@
six-party
smuggling
sol@@
son@@
sourcing
stoked
stor
strikingly
sue
sup@@
sy
tandem
tantamount
tear
terrifying
thri@@
time@@
undocumented
uneasy
unnecessarily
vitally
void
wildlife
yev
É@@
俯@@
噪@@
寓
捏@@
搬
朽
永
溪
秋
稿
竿@@
腰
虽
蛇
鼎@@
1870
193@@
198@@
2º
A-@@
AD@@
Af@@
Alex@@
Algerian
Angola
Antarctic
Aviv
Blue
Brookings
CA@@
Confucian
Da@@
Dollar
ER@@
Far
Flynn
Giscard
Hague
Haldane
Helmut
Homo
IRGC
ISI
Institutes
Islamism
Ken
Kyrgyzstan
Libyans
MFF
Mic@@
Mil@@
Nokia
Novartis
Okinawa
PM@@
Philip
Protect
Protestant
Resistance
Rim
Rud@@
Sahara
Standing
Truth
UMNO
Uzbekistan
Virginia
Ye@@
advantageous
age-@@
aker
akes
aligning
ameliorate
analogies
ara
arbitration
arian
atically
attracts
avoidable
bang
bashing
batteries
bay
bedrock
betrayal
bio-@@
borrower
bottlenecks
boundary
break@@
breathing
builders
burden-sharing
calories
cervical
charging
charities
cher@@
chip
churches
cla@@
colossal
communists
competitor
complicity
conglomerates
coping
corrections
counterweight
creators
cumbersome
dared
dem@@
destabilization
detriment
distances
dr@@
dragging
eas@@
ection
emig@@
evaluating
exodus
faded
fee
fer@@
fic@@
fli@@
flo@@
fluctu@@
formali@@
gestures
graft
growth-enhancing
hell
hindsight
hol@@
hydro@@
hydropower
illy
income-@@
indexed
ingenuity
injustices
instructive
insulate
interwar
intolerable
intrinsic
ished
kan@@
lasts
licensing
long-awaited
loudly
lowers
maj@@
malign
manufacturer
mers
moribund
n-@@
nativist
onal
oper@@
oph@@
orship
overwhelm
paint
periodically
phasing
physicists
plunging
political-@@
pouring
practicing
pretense
prisoner
productivity-enhancing
profligacy
radar
rallying
raz@@
receipts
redistribute
redundant
regained
renegotiate
repairing
republican
sacrificing
sanctuary
saves
scramble
sect
selecting
semblance
shaking
sits
soft-power
startling
starved
stigma
stre@@
stripped
striving
stry
stu@@
supervisors
suspicions
textiles
th-largest
ticket
tis
trade-off
travails
travelers
tricky
tumor
tweeted
ud
underwater
unlock
unreasonable
usher
varies
veil
villagers
voiced
wiped
wire
yuan
ç
ł@@
俘
兀@@
勇
壮
忏@@
戛@@
氢
猎@@
猪@@
玷@@
矫@@
芯@@
蚕@@
袱
诀
诠@@
踵@@
辱@@
逼
颈@@
1913
195
23andMe
APEC
Ababa
Abdul
Advisers
Albert
Aung
BRIC
Buffett
COP@@
Che@@
Christianity
Dam@@
Dwight
EPA
EPP
Euroskeptic
Gamal
Hamburg
Independent
JPMorgan
Jiang
Kan
Kelly
Keqiang
LE@@
Lake
Len@@
Mecca
Mr.
NSA
OM@@
Orleans
Os
Pakistanis
Palin
Por@@
Produc@@
Ps
RI
Reconstruction
Schul@@
Space
Sun@@
UNRWA
US-Japan
Ze@@
Zuckerberg
absor@@
absorption
abused
aches
airspace
airstrikes
ald
amplified
ante
appeasement
associates
atri@@
aya
backers
battling
beacon
benchmarks
bode
cameras
ch-@@
cheating
child-@@
chronically
cling
communiqué
compares
correlated
cr@@
crowding
customary
deferred
developed-country
devi@@
disguised
displace
dogma
drafted
draw@@
echoed
ective
editors
electri@@
eling
email
emboldened
endanger
ender
exorbitant
expelled
exuberance
federation
feeds
fighter
fixed-@@
flames
flies
flourishing
for-profit
formulating
fulness
gan
groundbreaking
high-risk
hostilities
iP@@
ich
impossibility
incub@@
injuries
insiders
instinct
instructions
insulated
insured
ja
joke
laboratories
lauded
mar
mask
mayhem
me-@@
medications
mel@@
mini-grids
mir
monitors
mortgage-backed
nau@@
nerve
objec@@
oted
pac@@
pharmaceuticals
photos
pop
post-2008
post-Brexit
postponing
poured
profligate
proudly
quoted
rai@@
reassured
recovers
red-@@
redefine
ref@@
regul@@
renounce
repressed
reset
resolute
resorting
resource-rich
respectable
revitalize
revolts
ria
ries
rot
row@@
sacrificed
salt
segregation
shadows
shaky
shor@@
short-
short@@
sincere
sle@@
slipped
sophistication
speakers
suc@@
sunlight
supervisor
tapering
technology-@@
tious
tness
trac@@
triggers
tual
tumultuous
underdeveloped
underinvestment
unelected
unwarranted
vacation
verse
vigor
vit@@
vivid
weekly
weighing
weighted
world-@@
º
és
ö
冤@@
募@@
呆@@
夷@@
妓@@
妨
宿
岩@@
慨@@
溃@@
滴
爵
琐@@
萝@@
辨
逞
遥
靖
颂@@
115
175
1918
25,000
4,@@
8.4
9,000
Angeles
Ankara
Bear
Borders
Brazilians
Ci@@
Daily
Def@@
Delta
Don
Dre@@
Dublin
EBRD
FAO
Green@@
Gülenists
Harbor
Hoover
Huawei
Ig@@
Imperial
Japanese-@@
Jr
Kabul
Kat@@
Kerala
LAC
Lahore
Med@@
Most
Nigel
Non-@@
Podemos
Power@@
Province
RE@@
Rev@@
Ric@@
Scandinavia
Serbs
Sum@@
Syn@@
Terror
Vic@@
Wal-Mart
Wars
Zhu
abundantly
accrue
aces
acutely
administer
age@@
ais@@
amenable
amnesty
analyst
ancy
ant@@
antagon@@
antitrust
apt
arch@@
arithmetic
arrogant
asserts
atism
await
bailing
beggar-thy-neighbor
behaved
bert
big@@
bolder
brake
breed
bribery
businesspeople
bypass
caps
cattle
charitable
cites
cleared
clearinghouse
coinci@@
comeback
compounding
cost-benefit
councils
cricket
crony
cult
dd@@
debt-financed
defaulted
denomination
dering
deserved
desp@@
dge@@
directives
disadvantages
discovering
dt
editorial
electrical
em
embraces
empires
ende@@
ert
ethanol
fading
files
fingers
footsteps
forceful
fra@@
gate
gging
gifts
grateful
homeless
homosexuality
incendiary
infighting
infiltr@@
injected
insider
insofar
instituted
intuitive
inventions
investigating
item
jeopardy
lev@@
lid
maize
mattered
medieval
meritocracy
mighty
mo
mond
moon
multi-year
municipalities
my@@
nanotechnology
nat@@
natural-gas
objected
ods
ora
orial
overlap
overseeing
parliamentarians
pendulum
pho@@
pioneered
pling
pluralistic
pocket
pooling
post-1945
posted
precondition
preparedness
presumed
proprietary
psychologists
pumping
pushes
reactionary
real-time
reasoned
regre@@
relaxing
reservations
revaluation
revert
revisionist
rich-country
salient
scare
self-inflicted
shoulders
slim
someday
speci@@
spur@@
ssing
stays
stealing
stemmed
swaths
tal
tame
tioning
too-big-to-fail
totalitarianism
traced
transactional
tter
uck@@
unprepared
unsafe
unsuccessful
uri
uro@@
vent@@
wiser
zero-carbon
亩
俭
儡
午
咋@@
恕
扁
拷@@
皆
盆@@
瞄@@
禧
简
缄@@
贿
辉
100-@@
1789
1907
19th
250,000
8.6
ARC
Ak@@
Anna
Az@@
BNP
BRI
Bel@@
Chechen
Clo@@
DRC
Democr@@
District
ES
Eu@@
FA
FDA
Fukuyama
GPS
Goal
Hiroshima
Ide@@
Lincoln
Louis
M2
May@@
Medicine
Michigan
Mill
Nehru
Out
PAR@@
Peoples
Pervez
Point
Pr@@
Programme
Real
SB@@
SS
Sadr
Sar@@
Sat@@
Sher@@
Slovenia
Solzhenitsyn
Sun
Tech
Tuberculosis
Ur@@
Vietnamese
Watson
Weber
Well@@
Yor@@
adventure
advisory
after-tax
anda
ania
apes
app@@
arrests
assaults
assisted
awakening
backfire
bag
bigotry
blunder
bother
brac@@
bud@@
buttress
cap-and-trade
centrality
challenger
characterizes
cherished
city-@@
classrooms
clu@@
cohort
commanding
confrontational
contagious
contradicts
converting
coral
cow@@
credibly
crushed
cultivating
defects
definitely
degraded
demand-@@
deprive
dismantled
dispersed
drink
dwindling
emotion
energetic
enriching
enrolled
err@@
ethically
evic@@
ex
exemp@@
financial-services
flag@@
flights
follow-up
front-@@
fts
glo@@
gloomy
grace
gul@@
halving
harbor
heel
holdouts
hypocritical
ially
id-@@
illusory
illustrated
importer
initiating
internationalism
invent
ises
laborers
lic
lung
macro-prudential
mantle
mayors
microeconomic
missile-defense
monumental
monuments
mot@@
negotiator
ner@@
occurrence
ota
ounce
ounded
outrageous
pa
paltry
payoff
penchant
pernicious
pledging
portable
post-election
preemp@@
preemptive
premia
prescribed
pro-cyclical
rallies
rati@@
rav@@
reaping
recommends
reformer
rehabilitation
reinvent
remotely
reply
residence
resorted
retrospect
revol@@
rich@@
san@@
schoolchildren
scratch
ser
shale-gas
shar@@
shness
shoot
sided
signatory
smokers
spontaneous
squeezed
ste
stereotypes
sticks
stockpile
strongman
tate
textile
tify
translating
unforeseen
unleashing
unsettling
untold
upswing
usable
veterans
viral
visionary
wea@@
wings
è
乍
块@@
彦
恭
拓
挝
擦@@
李
株
榷
氮
爵@@
牧
珠
男
秒
藐@@
蜜@@
译@@
鼻@@
&apos;Ivoire
.com
15,000
1934
800,000
9.9
Alawite
Americana
Arabic
Ashton
BRICs
Bor@@
CAFTA
CALIFORNIA
CDF
Charlie
Christopher
Cities
Coming
Currency
Diaoyu
Diet
Emperor
FC
FP
Gran@@
Hamid
Ifo
Iran-@@
Ivan
Jack
Japan-@@
Ji@@
Jones
Kam@@
Ken@@
Kennan
Kir@@
MF@@
Ori@@
PMI
Pandora
Pennsylvania
Pierre
Raúl
Sab@@
Sim@@
Sk@@
Statistics
Tele@@
Thin@@
Things
Tigers
Tor@@
Transparency
UNHCR
UPA
Weapons
accommodative
accords
acious
adept
aders
agan
ances
anybody
apathy
appreciating
approached
arial
aud@@
averting
awkward
backsliding
binge
blatant
bleeding
bouts
boycott
buffers
calculating
carrier
cartel
catastrophes
catch@@
cation
ceased
cede
cell@@
chers
collusion
comb@@
commanders
confidence-building
consciously
conserv@@
contributors
convertibility
crafting
cri@@
curtailed
dal
demonetization
denouncing
depress
derailed
des@@
deterring
disciplinary
distributing
divergences
dor
dormant
dow
dressed
eighth
electing
eni@@
entailed
epicenter
evidence-based
exceedingly
expedi@@
fascinating
featuring
fer
fif@@
firsthand
fleet
forcibly
geared
genomics
glaciers
gli@@
grabbing
habit@@
hackers
halting
hangs
heavier
high-growth
highest-@@
horizons
implausible
inefficiencies
inflow
injury
insult
intern@@
interviews
intimidate
inventory
investigated
itated
jeopardized
just-@@
kilograms
lab
listened
long-time
longtime
marched
mas
meals
men@@
monetization
neurons
oath
observ@@
oil-price
ouse
paranoia
percentage-point
perils
philanthropy
photo
pile
plug
poisoned
possessing
prophecy
propping
proverbial
prowess
puzzling
randomized
recalling
refu@@
rers
resentments
respiratory
rosy
rubble
runaway
ry@@
sati@@
short-sighted
sights
slashing
slave
sorely
sow
staunch
ster@@
stor@@
sword
tag
tarnished
temp@@
thrust
tile
tran@@
ua
ums
undue
vet
vian
vigilant
ville
washing
whopping
wonderful
wound
xing
year-@@
youngest
乃
乞@@
侪
刹@@
姊@@
帖@@
扪@@
拦@@
撇@@
撼
晋
柄
榨@@
沼@@
涂
渊@@
渎@@
滴@@
炒@@
爬
疆@@
痒
绰@@
缴
虚
踢
辈@@
辕@@
齿@@
-like
12-@@
18-@@
1940s
1959
280
40-@@
9.6
Arabian
As@@
BT@@
Barak
Bin
Black@@
Bou@@
CC@@
CPC
Camp
Chapter
Clin@@
Confucianism
Correa
Cz@@
Dow
Eri@@
FC@@
Feldstein
Felipe
Ford
Franco
GM@@
Gallup
Gam@@
Geor@@
Good@@
Greater
Hawaii
High@@
Holy
IFC
Il@@
Interpol
Jan@@
Jud@@
Ker@@
Key@@
Kibaki
Koran
Lessons
Lin@@
MH@@
Ministers
Montreal
Mugabe
NP@@
Navarro
Nawaz
Nu@@
Nutrition
Pati@@
QE@@
RM@@
Remain
Responsibility
Riyadh
Ron
START
Save
Schmidt
Section
Shenzhen
Sir
Studies
Susan
THAAD
Tro@@
US-based
Valls
Wang
Who
affirmative
afflicting
alarmed
ali
anne
answering
ap
apprehension
aspires
assemble
auto@@
ballots
bankruptcies
battery
bend
betrayed
blin@@
bonus
bran@@
bull
calibrated
cardiovascular
celebrations
cer@@
charm
clerics
clou@@
collaborating
commerci@@
commons
comparatively
consulted
consumption-tax
contender
conver@@
cows
criticisms
cutbacks
daring
dashed
day-to-day
debt-service
defied
detected
devil
discounted
disillusioned
disp@@
displays
distortion
distribu@@
disturbances
divine
drafting
dynastic
eagerly
echoes
embryos
emitted
emo@@
energy-efficient
entr@@
evaluated
exhibit
far-fetched
far@@
foresight
frightened
full-@@
furious
geographically
gg@@
gro@@
hair
hard-won
head-on
heavy-handed
hint
honesty
hype
ila
illegitimate
inaccurate
incursions
ind@@
inhabited
interlocutors
inventors
ist-@@
itation
lam
lamented
legitimized
lends
liberalized
liberate
lify
looser
loss-@@
macro-@@
meal
medic@@
memor@@
metal
mid-1990
miscalculation
mod@@
modify
monks
myths
nar@@
navigating
neg@@
nexus
not@@
noti@@
oil-producing
oneself
outsider
overt
packaging
pal@@
path@@
pathways
penetration
performs
pitfalls
pointless
post-conflict
pour
prise
profit-@@
proportional
protein
quell
raft
rationality
realignment
rebuilt
recalled
reclaim
recurrence
regressive
reside
revising
rigidities
securitization
self-confidence
similarity
sionary
ska
slipping
sobering
sses
stagflation
statesmen
stimulated
strings
substances
sum@@
taboos
tap@@
technique
thank
themes
then-President
thwart
timid
tolerable
tradeoffs
traffickers
tragedies
transmit
tribunals
truce
trucks
tta
unaffordable
unambiguous
undertook
undo
unipolar
unravel
use@@
usefulness
ushered
visibly
vs.
wan@@
websites
wedge
well-designed
well-educated
weren
worship
worst-case
丢
冈@@
厨@@
喋@@
坑
妊@@
店@@
慑@@
抢
拍
揽
枝
横
烙@@
焰
熔@@
痢@@
盒
盼
硫
粘@@
羡@@
觑
赎
,500
-minded
135
180@@
2010-@@
50th
9.1
African-Americans
Ag@@
Allies
Ariel
Armenian
Blanchard
Bob
Bridge
Chilean
Chris
Cla@@
Compact
Cross
Crown
Cs
Côte
DF
DSM
Dan@@
Dem@@
Dou@@
EP
EU-15
Euroskeptics
Exchequer
Fisher
Foshan
Geun-hye
Go
Graham
HICCup
Hans
Hariri
Hindus
Hun
IPL
IV@@
Johannesburg
Kindleberger
Koch
Kon@@
Laos
Las
Leonid
Malawi
Marxism
McConnell
Mervyn
Mes@@
Mik@@
Mosul
Nationalist
Nexus
Nov@@
Omar
PO@@
Philippine
Pompeo
Prevention
Rec@@
Russia-@@
SNB
Study
TARGE@@
TS
Tajikistan
Tran@@
Tren@@
UNFCCC
Wel@@
Wer@@
Willi@@
Wrong
abnormal
abolishing
acqu@@
across-the-board
admits
after@@
alistic
amazing
anc@@
anom@@
apartment
appease
appointees
arable
assertions
ati
bic@@
biting
bombed
branded
buc@@
cab@@
cease-fire
chambers
climbed
clinic
commemor@@
compliant
conditioning
congestion
consisting
contaminated
contents
convictions
copyright
counteract
cyclically
deduction
dele@@
deliberations
dged
diminishes
disabilities
dish
dried
duc@@
editor
elitist
endowed
entrance
enty
equip
erected
ero
erodes
espoused
essing
estimating
evade
exacerbates
exemptions
faiths
fertilizers
ffs
fifty
foe
fracking
fray
fri@@
fun
greedy
griev@@
gues
halfway
hampering
handing
hanging
harmonious
hat
heartland
heterodox
hinges
homogeneous
humility
hydrocarbons
idd@@
ile@@
inate
incursion
indefinite
inflicting
interbank
ints
joy
kins
knees
lanes
lavi@@
lawlessness
ld
leak
lectures
lian
lifeline
lira
lity
lobbied
log@@
mall
manifestations
mastery
maxim@@
minimum-wage
misunderstanding
modeled
modeling
monarchies
mone@@
nes
newest
non-violent
nor@@
nutrients
occupational
offenses
onward
orchestrated
outraged
overestimate
overtake
overthrown
ows
ozone
parental
ped@@
pegged
perpetuating
pictures
pit
plainly
poison
pollutants
pra@@
prim@@
prince
princes
proclaim
prof@@
prohibits
prominently
propag@@
psychiatric
rationing
refra@@
reign@@
remark
replaces
replicate
repu@@
rescuing
restive
reversals
reviewed
rings
rs
ruins
sand@@
see@@
shu@@
silenced
slash
snap
spi@@
spilled
standardized
stranger
superpowers
swee@@
syndrome
taxable
terror@@
tery
tex
three-year
thwarted
toppling
toughest
tricks
trilateral
turnover
underlies
unfavorable
unfunded
upturn
uru
verbal
virulent
well-established
wreak
ww@@
x-@@
yn
youthful
ype
ü@@
叠@@
吴@@
喊@@
喝
壳
妮
崎
扯@@
抵
挖
枝@@
柳@@
泡
浸
淫
狗@@
琴@@
甩
盯
碑@@
禽@@
窗
窥@@
耕
肖@@
胺
舟
芭@@
蔑
贱@@
躇@@
邸
魏@@
&apos;d
,0@@
2003-@@
2023
27@@
60,000
8.7
9.7
Amartya
Aquino
Assessment
Bad@@
Benghazi
CT
Coal
Coast
Colonel
Cristina
Delors
Dy@@
Eng@@
Ethics
FE
FN
Forward
French-@@
Geo@@
Guangdong
HS
Higgs
Indo-Pacific
Kel@@
Lima
Mac
Mah@@
Major
Namibia
Nikita
Norwegian
Ol@@
Olivier
Pap@@
Pop@@
Pot@@
Presidential
Queen
Ramaphosa
Regulation
Relief
Romanian
SWIFT
Salaf@@
Sharia
Shinawatra
Sochi
Stein
TF@@
Techno@@
Tesla
Tripoli
Vision
Winter
abandonment
abi@@
able-@@
acquiescence
adolescents
ae
aking
amplify
anis
annexed
apologies
ared
asing
assassinated
asses
astounding
aters
avenues
awa@@
bastion
belonged
beneficiary
births
blog
blowing
blunders
bottle
breeds
broadcasting
burg
cash-strapped
causal
checking
cigarette
cleric
cluster
commercially
concentrating
conquest
consensual
conspicuous
contraception
contractionary
corridor
counsel
countered
crippled
curiosity
dding
derivative
determinants
devoid
differs
directive
discomfort
disengagement
disillusion
dismissing
distr@@
documentary
donated
early-@@
educators
elementary
emails
emi@@
eminent
enactment
endangering
equity-@@
extrapol@@
feminism
fes@@
flip
flowed
fury
gates
glori@@
graduation
graphy
habitat
hammer
harnessing
heady
heralded
hesitation
hinder
hook
http
hyperinflation
iconic
idly
imperialist
inciting
inflate
insignificant
insurgent
intuition
invoking
inward-looking
irresistible
irrit@@
isms
ital
itor
jec@@
jihadis
jury
keepers
lation
law-enforcement
legitim@@
liner
livelihood
lottery
lure
mafia
mali@@
mental-health
meth@@
migrated
militarism
motto
mouth
necess@@
neutralize
offline
omni@@
organism
oul
ouses
outdoor
overblown
overseen
packed
pair
palace
paradoxical
parochial
partially
pathogens
patron
pin
piracy
plurality
polarizing
polluters
poly@@
power-sharing
private-@@
prob@@
progressed
protested
qualifications
ques
reform-minded
reining
relax
relocate
restart
resumed
revisions
riches
romantic
saddled
salvation
scholarly
scored
sea-@@
sham
shining
shoots
sli@@
smartphone
smartphones
sof@@
stamp
standstill
starving
state-controlled
streams
stubborn
submission
summary
superficial
sweep
sworn
tac@@
tains
tan
teaches
tears
ten-@@
tha
tigh@@
tionalism
titude
tops
trade-offs
uck
ues
uncompetitive
une
unequivocally
unt
vac@@
vely
venue
vered
versi@@
veteran
wai@@
walked
weights
win-win
workings
zen@@
串@@
冬
吕@@
吝@@
哦
喧@@
帖
惹@@
挟
撬@@
棉
棒@@
涡
渴
牟@@
禀@@
窝
纤@@
肩
胸@@
辟@@
醉@@
10.5
18th
700,000
8.2
8th
ANC
Abraham
Aires
Andy
Ang@@
BM@@
Beppe
Brezhnev
Chan@@
Cour@@
DS@@
Despite
Dr.
Dur@@
E3
EA
EL@@
Ed
Fall
Fattah
Fol@@
GB@@
Ghraib
Herbert
Hon@@
ICSID
Interest
Irving
Ja@@
Janeiro
Jean-@@
Lancet
Leviathan
Lugovoi
Maghreb
Maliki
Marco
Mars
Marxist
Max
Mit@@
Moder@@
Nar@@
Net@@
Ok@@
Punjab
Pur@@
Pyongyang
RA
Rajapaksa
Reduction
Regulatory
SWF
Safe
Siberia
Solow
Srebrenica
Stearns
Sub@@
TT@@
Task
Thucydides
Van
Van@@
Vegas
While
Yar
Zero
Zi@@
Zs
abstr@@
acknowledgement
adventures
advise
akh
aly@@
anti-Muslim
anti-immigration
arities
as-@@
ascent
asymmetry
attests
authentic
autocracies
ave
awaits
beg@@
beside
best@@
blames
blanket
bluntly
bodes
boldly
bothered
bottom@@
broadened
cannabis
carriers
chasing
chilling
cians
cies
clearest
clerical
colon@@
communicable
complicit
conceivably
confidently
conjunction
constitutionally
contamination
contra@@
contradict
cosmo@@
country-@@
crashed
credit@@
cronyism
cubic
databases
decimated
destabilized
destroys
diagnostics
dictum
dim
dimensional
disregarded
dness
double-dip
ects
editing
edition
efully
elephant
end-@@
endorsing
ese
esh
euph@@
exceptionalism
exchanging
exposes
extensively
externally
fateful
fences
fiercely
finger@@
fraudulent
gambit
generously
global-@@
grams
grappling
gravest
grips
gy@@
hab@@
happier
harms
health-insurance
heeded
heir
hel
hopeless
hypothetical
inception
incoherent
incredibly
indicted
inequities
injection
inspection
inspections
interrupted
intimate
inventories
ired
ith
junk
kar
kick-start
lackluster
lah
legalization
liber@@
loo@@
lur@@
males
mam@@
managerial
marginally
menace
mob
modern-day
mold
monopoli@@
mosques
muddled
multiply
multitude
murky
nan@@
nation@@
navigation
neglecting
nes@@
nuclear-power
old-@@
olu@@
one-off
one-size-fits-all
org
overstated
packaged
paving
per-@@
personalities
persuasion
ph
physician
pornography
posi@@
post-WWII
pounds
pretending
privatize
pro-Western
profiles
propped
protocols
publicity
quot@@
rab@@
raid
realist
rebu@@
recapture
reckon
redirect
reestablish
refinance
relaxation
relieved
restrained
retribution
risked
sanction
scapegoat
scar@@
sealed
secretary-general
sections
security-@@
seven@@
simplify
skyrocketing
slightest
slow-@@
slums
soldier
sta@@
staffed
startup
statesman
sterilization
storing
strongmen
sty
subsidiary
superstar
switched
synchronized
synthesis
taining
termed
timed
tipped
tiveness
top@@
tract
transparently
treason
tty
tying
unconscious
underlie
unethical
unfounded
unify
unproductive
untested
upgraded
vel@@
vice-@@
vitamin
wal@@
wane
wel@@
well-defined
whi@@
whites
worn
wrest@@
zz@@
丰
凌
卵
卸
吐@@
吵@@
坡@@
奎@@
寝
弈@@
弦@@
恣@@
扑
摘
摘@@
晦
晴@@
棍
溢
熄@@
瑚@@
甲
畜@@
疮@@
疯
竖@@
绪@@
虾
襟@@
诟@@
蹶@@
铺
锚@@
镕@@
镳
陵@@
鞭@@
-free
1.0
18.@@
1942
194@@
35-@@
60th
Adenauer
Adolf
African-American
Alexei
Bab@@
Bangladeshi
Bec@@
Bonn
Cat@@
Claude
Cohen
Communic@@
Deaton
Deb@@
Deutschland
Emergency
Emissions
Enrique
Family
Ferdinand
Gap
Greens
Gul
Holmes
Humala
Kadima
Kra@@
Lind@@
Lucas
Luther
MHP
Ma
Made
Malaysian
Mission
Mogherini
NT@@
Nak@@
Nation@@
PBC
Partn@@
Platform
Q
RO@@
Raghuram
Rate
Realpolitik
Renaissance
Samsung
Sor@@
Sultan
Sup@@
Sw@@
Swaraj
Tim@@
Trading
Twenty-First
UKIP
Venice
Walmart
Working
Xiaobo
Yitzhak
abduction
accelerates
accidental
addi@@
adequacy
adi@@
administrators
adopts
advanced-economy
advising
aiding
alty
alu@@
antiretroviral
anu@@
appe@@
appliances
approxim@@
arly
arms-control
asc@@
aviation
bird
bloggers
blows
border-@@
breaches
brewing
brokers
bulwark
buy-@@
carbon-dioxide
centerpiece
centralization
chec@@
chickens
chur@@
cio
circulating
clear-cut
column
commands
conceal
conceded
conspir@@
coun@@
cracking
cross@@
cruelty
custody
dated
decades-long
decoupling
demand-side
democratizing
deposed
destinations
detractors
dian
disguise
dissolve
disturbed
divestment
drowning
egg
emitters
emotionally
enced
enclaves
engages
enmity
entrusted
envi@@
equitably
eradicated
erect
erecting
evolves
expedient
facile
faithful
fiscal-policy
fixated
fosters
four-year
framing
frank
gist
gor@@
governs
grabs
gram
grand@@
guest
hard-to-@@
hazardous
herald
hierarchical
hijacked
hinted
hovering
humankind
hunt
hydrocarbon
idealism
ility
inch
indictment
indiscriminate
information-@@
inhibit
ino
instructed
insurrection
intangible
inter-Korean
intergenerational
invasive
ion
itations
itous
ivory
justifiable
kidney
knowledge-based
ku@@
labeling
largesse
las@@
last-minute
latent
legs
leveled
levied
licensed
lined
lled
loading
long@@
low-productivity
madness
malicious
measurements
mediation
ment-@@
middle-
misinformation
mismatches
modestly
motor@@
mutation
na
naked
narrower
needing
nia
nicotine
normative
oil-rich
onerous
organizers
oth
ound
outer
overestimated
peacekeepers
plac@@
policemen
ponder
precursor
predictive
presumptive
priv@@
probabilities
proceeding
publics
quote
races
record-low
reelected
refined
refl@@
repudi@@
rested
riddled
rier
right-@@
ripe
risk-averse
rulings
sabotage
screens
secretly
seizure
shapes
shortcoming
side-@@
small-@@
socialization
squeezing
state-sponsored
steering
stimul@@
switching
symbolism
tapped
tastes
technology-driven
telecoms
temper@@
tempered
termin@@
thering
toolkit
trans
traps
tric
trips
trustworthy
tuous
unbridled
untapped
upper-@@
utmost
vow
watchdog
wielding
wives
wondered
yo
zeal
勋
圳
妈@@
娠
暧@@
检
滨
炭@@
焕@@
罩@@
苍@@
茅
菅@@
衅@@
趣@@
辄
酶
酿@@
隐
雀
饱
黄
-style
1-2
128
13th
1916
1924
20-30
200-@@
2028
2P
600,000
7.2
Andrei
Anim@@
Annual
Argent@@
Around
Art
B.
BA@@
BAT
Bad
Burkina
COP21
Catherine
Choice
Christ@@
Clar@@
Coll@@
Commons
Cowen
Crow@@
Dor@@
Es@@
Every
Fal@@
Faso
Fle@@
GGE
Ger@@
German@@
Hai@@
Human@@
ID
INDCs
Jan
Jeff
Kal@@
Maoist
Mbeki
Minsk
Mussolini
My
Myth
NAM
Nuremberg
On@@
Pashtun
Path
Perry
Petroleum
Piñera
Pon@@
Post-@@
Protec@@
Protestants
Rad@@
Risks
Rust
SNCF
Sec@@
Soviet-@@
Sta@@
Sunni-@@
Sydney
Tiger
Tribunal
Under
Water@@
Wh@@
Yahoo
achieves
acupuncture
addictive
aes@@
affirmed
ag
airline
ales
alienate
alizations
ane
animated
animosity
anonymity
anti-Japanese
apologize
appro@@
arc
archi@@
aria
assa@@
astic
awaiting
awash
beholden
blurred
boasted
boldness
bow
breathtaking
bund@@
c-@@
cake
call@@
captures
casualty
cent
chicken
chorus
clan
clari@@
clues
coer@@
colors
commemorate
confis@@
continents
contractual
corrosive
cost@@
ddle
deaf
dearly
decidedly
defying
deprivation
depriving
despotic
diagnoses
dier
disconnected
displacing
distinguishing
dog@@
doubted
dreamed
dwellers
ego@@
enlarged
enthusiastically
envelo@@
envision
escalated
eth@@
ethnically
euphoria
ever-increasing
exits
extra@@
extravagant
eyed
faculty
fifteen
figured
forego
frac@@
freezing
gene@@
glorious
grandfather
grandiose
grandparents
grapple
great-power
groupings
heirs
hen@@
high-end
hopelessly
house@@
hunting
icon
iest
impulses
incre@@
induc@@
inj@@
insidious
intellectually
interconnectedness
interventionist
investment-led
issuers
jihadism
lame
lament
late-@@
league
legendary
lightly
litigation
long-overdue
lou@@
masked
materi@@
materialized
mega-regional
menu
meritocratic
mid-term
mirrors
misallocation
mistakenly
mosquitoes
mps
museum
nam@@
net-@@
networking
newer
night@@
nitrogen
no-fly
noise
non-traditional
nongovernmental
normalcy
nose
nud@@
oblivious
offerings
ois
ominously
one-half
onist
oppressed
ote
ounds
outreach
overreach
overriding
pack
pacts
painted
passport
peace-@@
philanthropic
pil@@
pioneer
playbook
possessed
presentation
presumption
problem-solving
procedural
produc@@
prohibitively
proliferating
rain@@
reciprocal
reefs
regi@@
relegated
relocation
remedi@@
renowned
resent
resident
resonate
respectful
risk-sharing
rock-bottom
roy@@
rushing
sacked
saga
sanity
scales
sea-level
secrets
sectoral
secularists
self-reinforcing
seventeenth
sexuality
sick@@
singled
sixteenth
sizable
sizes
spar@@
sson
staging
staple
starve
statecraft
stave
stiff
strategists
structurally
stunned
subpar
suggestions
super-rich
synonymous
tax@@
tectonic
thered
thers
thro@@
thumb
tica
tifying
tilted
tive-@@
tor-@@
tot@@
tracked
trail
treatable
tumors
turbines
uk
unambiguously
undercutting
unequivocal
unlocking
unsure
unused
unwelcome
unwinding
upend
upsurge
ure-@@
ut
utilization
vanish
vation
vel
velocity
vendors
victor
victors
wan
wetlands
wn
xed
yawning
zzle
凑@@
吻@@
哮@@
坎
奄@@
帷@@
幌@@
弭
愧
拐@@
拳@@
捞@@
晶@@
柯
梭
毗@@
泊
洒
烹@@
甸@@
疚
矩
码@@
筋@@
缉@@
胖@@
览@@
蹊@@
附
2027
3,@@
377
5-10
5.9
5th
6.1
Anat@@
Arizona
Articles
Att@@
Ax@@
Beyond
Bomb
CBR
CG@@
CM@@
Canal
Centre
Chad
Chiang
Chil@@
Civic
Comm@@
Deposit
E.
Fac@@
Florence
Freddie
GD@@
Golan
Gold
Greenland
H1@@
Heights
Hen@@
Howard
Kansas
Kant
Khmer
Lady
Mauritius
Media
Mekong
Mig@@
Missile
Moody
Much
Nagasaki
Oxfam
P.
Planning
Private
Process
Rock
Rosneft
SP@@
Saint
Salvini
Sarah
Schuman
Sichuan
Sing@@
Slobodan
Smo@@
Spe@@
Spence
Sufi
T3
Tariffs
That
Tim
UNEP
Up@@
Us
VI@@
Ven@@
WEF
Watanabe
Western-style
Wilbur
YP@@
You@@
Zak@@
abducted
abusive
accompanies
adamant
adaptive
admire
ady
afi
afloat
agro-@@
aj@@
alien
announcements
anti-Americanism
apocalyptic
apps
arians
astro@@
asures
audit
augmented
averages
barometer
benevolent
bility
brokered
buck
bursting
cage
captive
cat
cated
checked
chemical-weapons
civil-@@
cle@@
clean@@
coc@@
collision
columnist
commun@@
compensating
confrontations
connects
consist
conspicuously
consumes
conveniently
counterbalance
cozy
crush
currents
darkness
deceleration
definitions
dence
densely
depicted
devol@@
differentiated
dignified
discourages
discrepancy
discrimin@@
disinflation
dislike
dispose
distraction
diverting
dreaded
drowned
détente
early-stage
ected
ele@@
elegant
embarking
embroiled
emerging-economy
ences
encro@@
ene
eng
engulfed
eries
erred
ession
evacuation
execute
exiled
expansive
expe@@
expropriation
expulsion
extra-@@
eye@@
fantasies
fatally
feeble
fester
firepower
fix@@
forgiven
fractured
fracturing
frictions
friend@@
gen
gene-@@
gists
glu@@
groundwater
guarantor
heroin
hindered
hitherto
hukou
ico
illing
ime@@
imit@@
impa@@
impe@@
inadequately
incorporating
inescapable
inexperienced
ingrained
instituting
inter-governmental
itate
itted
knit
laissez-faire
lash
lastly
layers
leaf
left-leaning
leveling
lever
libel
library
licenses
liquidate
listing
literate
logies
louder
low-skilled
lowing
lum@@
manifested
manifesto
marshal
medium-
megabanks
messi@@
middle-@@
mobile-@@
mockery
modicum
mortal
mutu@@
mysterious
naming
narrow@@
neatly
neoliberalism
non-EU
normality
nostalgic
nur@@
obese
obli@@
ond
ops
ough
outflow
oxygen
pain@@
panicked
pardon
pariah
paternalism
peaks
perestroika
permissible
physicist
piled
pluralist
plutonium
polis
politicization
pollu@@
preclude
premiership
prestigious
privatized
proceeded
professions
projecting
proportionate
protagonists
psychologically
rattling
reads
reassurance
reciprocity
rectitude
reeling
reflation
regim@@
reli@@
remainder
renegotiating
replicated
researcher
ringing
roiled
roman@@
sadness
satisfactory
sectarianism
sel
senses
sessions
shment
shook
simplest
simplicity
sing@@
slope
solvent
somebody
soybeans
speculate
ssed
stances
stomach
stranded
sty@@
submarines
supplemented
supplements
swath
system@@
tar
tative
teenagers
tentative
terribly
thin@@
tionary
tiv@@
tocracy
tournament
trace
trans-@@
twins
unaddressed
uncovered
undone
unsettled
upstream
verifiable
vou@@
wasting
watches
weary
well-intentioned
wells
woo@@
workforces
www.@@
yan@@
yard
yers
吻
坟@@
姓@@
孵@@
恪@@
恭@@
愧@@
慈
扔@@
拾@@
操
枚@@
栗
殿
沸@@
浴@@
渲@@
滚
灸
猾
珀
瓶
硕@@
臣@@
苟@@
蔡
衫
裹
谍@@
谕
钚
钵
铅
鲸@@
鸣@@
19.@@
1910
2,500
301
4-5
5,@@
5.4
7.3
9.3
Ah@@
Anderson
Antimicrobial
Asset
Basic
Benedict
By
Ca@@
Carnegie
Channel
Chongqing
Cri@@
Dhaka
Doc@@
Doctrine
Down
Duma
EBA
EIB
EU@@
Ear@@
Eff@@
Evo
FCTC
Flake
Fra@@
GS@@
Gro@@
Hadj@@
IR
ISD@@
Impact
Internet-@@
Jordanian
Khar@@
Konrad
Kuroda
Leninist
Lib@@
Lim@@
Luiz
Mach@@
Mahatma
Mellon
Mitch
Monday
Moore
Moral
Museum
NE@@
NIH
Naz@@
Ohio
PD
Paradox
Patrick
Pence
Pla@@
Populism
Porter
Pra@@
Rap@@
Republican-controlled
Rodrigo
Rouge
SL@@
SS@@
Sector
Shar@@
Sisi
Solutions
Sykes-Picot
Tariff
Tsai
USTR
Venter
Waziristan
Westerni@@
Zardari
Zurich
aching
activ@@
adolescent
adulthood
aerial
all-powerful
allure
alumni
anomaly
anti-democratic
antiquated
apolo@@
applauded
arch
ario
arisen
arti@@
artillery
asymmetrical
attackers
backfired
bags
basin
basing
baz@@
belligerent
blessed
blood@@
boil
bone
borrows
bot@@
bounds
branding
built-in
buoyed
buttressed
cellular
chaebols
championing
characters
chemotherapy
circuit
civili@@
clin@@
clone
cocoa
comforting
commentator
commonplace
commu@@
communicating
concomitant
configuration
confuse
consumption-@@
contests
contingency
controversies
corners
corps
corridors
counsel@@
crashes
creed
cured
cusp
custom@@
dealers
decades-old
decom@@
deepens
deleverage
dental
deployments
design@@
deton@@
dia
diamond
diamonds
dictatorial
disagreed
disappearing
discarded
dishon@@
dissolved
doub@@
dressing
droves
earmarked
earns
easiest
embarrassment
emul@@
encompassing
encounters
entrepreneur
environment@@
epitom@@
equations
esse
evidenced
executing
explode
fanatics
fanfare
faulty
fav@@
fe
fervent
flexing
floo@@
formulation
funders
für
gang
gol@@
graph
graph@@
grass
grotesque
gut
hair@@
hale
hamper
handouts
harbinger
hardened
harmonize
heal
heft
hopelessness
hot@@
hou@@
hourly
icddr
ices
ideologues
iles
imed
incitement
inept
inextricably
influenza
inging
innovation-@@
inser@@
instruction
intransigence
intrusion
investigators
ita
jargon
jump-start
juncture
labor-saving
land-use
lawless
marty@@
mechan@@
medals
mend
mentions
merge
micro
middle-aged
militarized
minimized
misconduct
missteps
misused
mongering
mosque
muddling
mul@@
multipliers
mundane
neo-liberal
new@@
non-Western
nourishment
obstruc@@
oks
ola
ona
one-year
operative
operator
opting
oting
paralyzing
peasant
play@@
ple@@
pope
power-@@
pre-emptive
preeminent
prepares
primaries
primitive
principally
profiling
public-policy
quez
ram@@
reception
recording
recurrent
relinquish
reminding
remorse
replic@@
repudiation
reputational
retaliatory
revi@@
revolutionized
rigidity
roof@@
sab@@
scattered
school-age
school@@
scrap
second-round
self-sufficient
sensitivities
servic@@
sharks
sharp@@
sharper
short-termism
shrank
shutting
sket@@
smugglers
sociologist
solar-@@
solic@@
sour
sourced
spy
state-run
stationed
steered
stly
strangers
streamline
subjective
submarine
sued
sunk
supervised
surges
tackled
tain@@
tang@@
teachings
temper
temptations
tes@@
testament
thrift
throes
throne
tigers
timber
tionist
tough@@
traces
tsunamis
ual
unanimity
undeniably
underpinnings
underscoring
unites
unmistakable
unruly
unsurprising
utopian
variants
verted
waited
warriors
wrath
wringing
yn@@
ç@@
ó@@
乘
亥@@
倚@@
凿
勋@@
匿
喷
夸
奸@@
娘
宅@@
寥
崩
帽
戚
截
挣
敷@@
梁@@
歉@@
毙
氧
浏@@
渎
漩@@
炉@@
燥
爽
猜
甘
瘦@@
睿@@
砂
缕
羽@@
肝
膜@@
臂
舌@@
艳@@
蜂
衍
衬@@
裤@@
裹@@
蹴@@
隙
雏@@
霉
饪
饶
-of-@@
00-@@
127
150,000
16-@@
1st
215
24-@@
7.9
AO
Accord
AfDB
Afghans
Ahmedinejad
Allen
Allied
Alvin
Alzheimer
Anglo@@
Angus
Antarctica
Barnier
Belgian
Belgrade
Benazir
Blin@@
Brad
Brunei
Bul@@
Carolina
Catalan
Centers
Colorado
Comple@@
Condoleezza
Dhabi
Dominican
Don@@
Eco@@
GHG
Galbraith
Gaz@@
Gender
Gold@@
HIV-positive
Hil@@
Hindu@@
Hoenig
Horn
Hum@@
Inácio
Israeli-@@
Jarosław
Jokowi
Judaism
Justin
Kaczynski
Kash@@
Lie@@
Lom@@
MILF
Maldives
Manhattan
Maria
Mauricio
Mind
NI@@
Nat@@
Nile
Oliver
Ortega
PO
PYD
Palace
Patel
Pinochet
Population
Proctor
Prodi
Prophet
Rand
Roc@@
SCO
SOE
Seehofer
Self-Defense
Sie@@
Sirleaf
Smart
Solution
Somali
Sude@@
Systems
São
Tak@@
Tig@@
Transition
Turkmenistan
U-@@
Woodrow
Xilai
Yellow
above-@@
addicted
admirable
agony
aire
airplane
aler@@
anathema
aned
anew
ange
annihilation
anno@@
antipathy
arist
artist
aspir@@
atter
avowed
bacterium
bitterly
blatantly
blow@@
bluster
bogus
breakout
butter
capped
cared
cheer
chem@@
chlor@@
ck@@
collateralized
commodity-@@
common-@@
complaining
conclusive
congress
conserve
consisted
contemplated
contractor
copies
crowdfunding
decentralization
deceptive
dedication
deep-rooted
deficit-@@
definitively
depressive
derided
differing
digging
din
dislocation
dispatched
distinguishes
dollar-@@
domino
dump
duplic@@
eagerness
earthquakes
economic-@@
ections
edi@@
eless
eliminates
eloqu@@
emigration
emitting
employment-@@
ern
ever-larger
exhi@@
expansions
expel
exploding
exponentially
exten@@
extern@@
extracted
extracting
fabric@@
fact-@@
fanatical
fared
feminist
fiasco
fitness
fon@@
foothold
frenzy
func@@
futility
galvanize
galvanized
gated
gatherings
genomes
ghet@@
gigantic
gon@@
gripped
gru@@
half-decade
hard-line
heart@@
hectare
hedging
hereditary
hin@@
hydroelectric
iceberg
ido
illiterate
implicated
import-@@
impotence
impro@@
improbable
incarceration
inexorably
inflation-targeting
informally
inspirational
inspires
insular
intentional
interviewed
irrelevance
ite@@
kan
kel
lec@@
leprosy
lick
life-threatening
literary
loosely
lords
lun@@
magnified
main@@
manipul@@
mapping
marriages
maturing
may@@
medium-@@
menting
merging
microbes
millennium
moderated
morphed
multifaceted
nai@@
nationalized
natives
never-ending
nity
nonprofit
northeastern
obscured
occupies
oligarchy
oming
onia
onslaught
originate
ostrac@@
ous@@
overex@@
overhauling
overthrew
palatable
paramilitary
parasites
participant
particle
patri@@
peer-to-peer
penalize
performan@@
persecuted
personalized
pes@@
pesticide
philanthropists
photo@@
phy
picks
polite
powerfully
precipitously
preconditions
prosecuting
pur
purged
re-establish
recalcitrant
recklessly
regener@@
reluctantly
renders
replete
reporter
repro@@
resettlement
respite
restructurings
reverting
rigi@@
ring@@
ritual
sad@@
scientifically
scra@@
second-class
self-destructive
self-proclaimed
self-reliance
seminal
sequester
sequestration
service-sector
shallow
shark
shedding
shoring
sigh
singular
slaves
slice
sliding
slowdowns
smile
som@@
spelled
statutory
stering
stones
stop@@
stric@@
stun@@
stunted
succumbing
surround
swallow
swimming
t-based
techno-@@
testified
theorist
thirst
thresholds
thugs
ticking
tiers
timeline
tionism
tized
too-@@
tos
tribute
trick@@
trickle
tun@@
udd@@
unbearable
uncharted
uncommon
unconstitutional
unfairly
unorthodox
unpopularity
unstoppable
uously
uptick
urban@@
value-@@
vertical
vir@@
vying
weaponry
whatsoever
wheel
with@@
å
乳
傻@@
卑
嗜@@
奔
婉
宙@@
尺@@
岗
忽
扔
扮
昌@@
枭
歇
浸@@
涡@@
湄@@
爪@@
珀@@
皂@@
盐@@
睁
睦@@
祥
秒@@
羹
耿@@
肢@@
荼
莉@@
萦@@
讦
诛@@
诩
谨
赁
趸
邀
锅
陵
鞋@@
饰@@
髦
,000
.org
12,000
2004-@@
21st
6-7
AGI
AU
According
Albanian
Alberto
Anthropocene
Anti@@
BMW
Ba
Bac@@
Bam@@
Bethlehem
Bil@@
Brent
Bruce
CACs
Canberra
Chuck
Citizens
Competitiveness
Consequences
Conservation
Consul@@
Cook
DI
Diseases
Divi@@
Dra@@
ENP
ER
Ener@@
Eno@@
European@@
External
Feder@@
Filipino
GH@@
Gal@@
Hay@@
Hob@@
Honduras
I.
IG@@
ILO
Id@@
Industry
Iowa
Jakarta
Jersey
Khal@@
Kle@@
Knesset
LNG
Laguna
Lead
Leung
Lyndon
López
M.
Mahathir
Master@@
McMaster
Mess@@
Moss@@
Mount
Moz@@
NAIRU
NEWPORT
NTDs
Nice
Nik@@
Pado@@
Paulo
Plan@@
Pru@@
QE2
Rac@@
Rafael
Santa
Scots
Sein
Sino-@@
Some
Strauss-Kahn
Sudanese
Summer
Tai@@
Ten
Tencent
Toronto
Ts@@
USMCA
Under@@
Values
Wales
WikiLeaks
Wol@@
Zambia
aba
ached
adventurism
age-old
agile
aka
al-
al-Maliki
alleviating
alter@@
altruistic
amplifying
anachronistic
anch@@
apologized
applicants
arbiter
arma
arranged
arrives
assed
ast-@@
asthma
asy
ative-@@
attaining
authorization
awa
bad@@
ballo@@
band@@
behaves
besieged
bewil@@
billion-dollar
bond-buying
breastfeeding
bric@@
bull@@
buster
captain
cats
chaebol
chamber
citizenry
cle
cleavages
cler@@
coexist
coincide
collaborators
collec@@
colli@@
community-based
compar@@
competi@@
conciliatory
conquer
cons
constituent
consulting
coo@@
culprits
curtain
dation
decarbon@@
defer
deline@@
demography
demor@@
depar@@
depleting
desc@@
deser@@
development-@@
dians
diff@@
diplomatically
discer@@
discord
dishonest
dispar@@
disper@@
dissatisfied
distancing
distinctly
dium
downfall
drought-@@
dur@@
dwarf
earnest
ecting
electr@@
embryonic
emer@@
ense
entangled
esa
exac@@
exchanged
expansionist
export-@@
exual
familiarity
fanciful
fats
façade
fear-@@
federalist
fickle
fintech
first-hand
fishermen
ford
fossil-@@
front-loaded
gateway
gau@@
gle@@
guarded
hart
hasten
helicopters
help@@
helpless
herd
high-yield
hon@@
honestly
horri@@
hygiene
ied
ik
inconclusive
indisputable
individu@@
infinite
instig@@
insul@@
int
internation@@
izer
jets
justifying
ke-@@
kicking
kowto@@
labs
lear@@
legitimately
lengths
livable
loving
macro@@
mandarins
mani@@
manipulator
marsh@@
mass-@@
meg@@
mercantilism
messaging
mindful
miserable
mistre@@
monetize
multi-polar
murderer
muscles
musical
myth@@
narcotics
nativism
nearing
nee@@
nel
neo-conservative
nest
nish
normalizing
not-so-@@
novelist
nuc@@
nudge
nutri@@
old-age
optimize
organiz@@
ories
orious
orrow
outcry
outpaced
outsourced
over-indebted
overlooks
overtures
pains
perennial
perv@@
piling
pitch
pitting
pol
pollsters
porous
ppm
pre-war
precipitated
precipitous
premises
prescri@@
progressives
provi@@
pt
public-relations
py@@
ranges
rebounded
recruited
redefined
redouble
referendums
reformists
regionally
regrettable
reiter@@
releases
remuneration
reproduction
reservoirs
resolutely
resonates
risk-management
road@@
robustness
roiling
rol@@
rolls
ruined
rying
sands
scapegoats
scary
seasonal
seasoned
seg@@
self-sufficiency
semin@@
sheep
shelf
shipped
shri@@
sibility
simul@@
single-minded
siph@@
sk
smar@@
sni@@
snow@@
soli@@
sounded
spills
spiraling
spite
sponsor
spree
spying
stadiums
stagnate
state-led
stered
stifled
stock@@
strategist
supply-@@
suspending
sweet
synergies
taming
tantrum
tea
tellingly
tening
then-US
thinker
thy
tic-@@
tickets
tiger
tilt
tish
tit-for-tat
titles
torate
tracts
tread
tren@@
tribe
two-way
uda
ules
unacceptably
unchallenged
unfamiliar
unfolded
upwards
ute
var
vaunted
verify
vetoed
war-torn
wash
wedded
whales
wil@@
wireless
withhold
worsens
wrongdoing
凑
刃
卧@@
吾@@
喉@@
培
姐
婿
寓@@
巅@@
巫
庙
惩
披
挪
掩
描
插
晰@@
梳@@
棕@@
橡@@
沁
沛
泪@@
浅@@
煎@@
珊
瘾@@
碍@@
稻
绊
绊@@
诘@@
贼
躬@@
轩@@
逻
遏
钝
阶
雾@@
鞋
黜
&apos;Estaing
16,000
2007-@@
3-5
8.9
80,000
90-@@
AIPAC
Admati
Alejandro
Anne
Antonio
Arms
Attorney
B-@@
Bangalore
Bengali
Biological
Breivik
CAP
CD
CDC
CSR
Cancer
Carson
Cir@@
Cl@@
Ds
Duterte
EU-level
Economies
Edmund
Electric
Engine@@
Equality
Era
Ethiopian
Ever
Every@@
Experts
FML@@
Fam@@
Fer@@
GOP
Gene@@
Huntington
INA
IVF
Itali@@
Jab@@
Jar@@
Jeb
Juli@@
Kemal
Kor@@
Level
Lit@@
Lives
MA
MFIs
Macro@@
Magnitsky
Mani@@
Marc
Marche
Mid@@
Mé@@
Norman
Nye
OS@@
Only
PS
Pakistan-@@
Paper
Petrobras
Py@@
Rafsanjani
Rah@@
Raj@@
Raz@@
Rupert
SARS
SDF
Samuel
Scho@@
Sechin
Standards
Stre@@
Supervision
Swe@@
Syri@@
Ten@@
Thought
Transd@@
Troika
Tsar@@
Urban
Uttar
Vent@@
Vill@@
WM@@
Windows
aa
accessing
acquain@@
adap@@
adheres
affront
airplanes
aks
algorithm
alled
allowances
altruism
ambivalent
amended
ander
ands
angst
apparel
apping
aquaculture
aro
ask@@
assign
assuage
aug@@
awe
bank-@@
barbaric
bec@@
bickering
blan@@
blew
blindness
blu@@
boomers
brush
bumpy
buyer
campus
carrots
casts
cautiously
cent@@
cessation
chest
cian
classi@@
clinging
close@@
coal-@@
commodity-price
compatriots
complemented
conditioned
congratul@@
consultants
contention
convertible
cooperated
counter-terrorism
countervailing
creature
cultivation
cup
decelerating
decency
defender
defensible
demograph@@
devastate
devolution
diagnose
did@@
diffuse
dirt
disapproval
discriminate
disgust
disposition
disrup@@
dot-com
downgraded
dru@@
dual-@@
educ@@
eigh@@
elev@@
elicit
ema
emitter
encroachment
endlessly
enviable
erable
erring
erson
erupts
esses
eurozone-wide
evils
expresses
fai@@
family-@@
fanaticism
fear@@
feasibility
fiduciary
fig@@
fir@@
fish@@
fit@@
forfe@@
forman@@
fuel@@
fulfills
gade
gal
gem@@
genic
genocidal
gered
gloom
go-@@
god@@
growers
growth-oriented
guise
guy
hai
halve
harvesting
hat@@
hawk
hawkish
headquartered
heaven
hefty
heighten
henchmen
ho
horrible
hospitable
hr
hurdle
idealistic
identi@@
idi
ield
imitate
impersonal
impover@@
impress
indignation
individualism
inevitability
infect
infra@@
inian
initi@@
inland
inroads
intensifies
intriguing
irs
iz
jan
key@@
kind@@
kitchen
kon@@
landed
lawsuit
ledge
lef@@
liberating
licity
limitation
liquid@@
lit
locate
long-held
lor@@
lusion
mach@@
maneuvers
mechanics
mentation
mid-1980
migr@@
milli@@
mini@@
mud
multicultural
multiplying
muni@@
non-binding
numbered
nursing
obe@@
obscures
observing
oil@@
omy
one-tenth
one-way
orchestr@@
ould
paci@@
passivity
passports
pathway
patrol
payoffs
perceives
perme@@
pharmac@@
pic@@
poisonous
pooled
portraying
pre-2008
president-elect
pressuring
pro
pro-business
prosecutions
protector
quantify
rance
religiously
relocating
rement
renege
renunciation
reparations
repatriate
repayments
reproduce
resemblance
rewrite
rig@@
rison
rumor
ruthlessly
s-based
samples
sang
sanguine
sayers
sch
scha@@
sem@@
shrug
simplified
skillful
sky-high
snow
so-@@
soils
souls
soup
spac@@
specifics
spel
spheric
spies
staking
statesmanship
statist
stic@@
stir
stirring
su
summarized
supra-national
surgeon
synthe@@
tabloid
tally
televised
tenuous
tet
theoretically
thick
third-party
thrives
tification
time-consuming
toring
tragically
transported
trickle-down
tycoon
ull
unabated
unanswered
understandings
unofficial
unpredictability
uns
unseen
upfront
ury
va@@
vaccinations
validate
vehemently
vest
vigilantes
viol@@
walks
ware
wed
well-meaning
wine
wipe
witz
wom@@
worthless
write-downs
write-offs
ym
zer@@
zz
án
丘
伽@@
剖@@
匙
叙
叹@@
吊@@
咬@@
哗@@
唯
啬
噪
噶@@
坚
坷
塌@@
壤@@
妄
妒
姬@@
屁@@
巢@@
帆@@
帽@@
恙
捣@@
昔
朵
枕@@
桎@@
梏
汤
沈@@
泳
浆
浦
熬
狄@@
猿
盼@@
碰
稠@@
粟
纹
肤
芝
苗@@
蛮@@
赅
&apos;Adua
1,200
1.90
11.5
20-year
2014-@@
23@@
2nd
6,@@
70th
AF@@
AG@@
Air@@
Airport
Alesina
Anthony
Apo@@
App@@
Associ@@
Ati@@
Becker
Bern@@
Bla@@
Boehner
Bollywood
Breitbart
Brother
Budd@@
C-@@
CL@@
CLAREMONT
Cambodian
Charlottesville
Civi@@
Cohn
Connec@@
Continent
Corruption
Cou@@
DA
Detroit
Disaster
Druze
Exxon
Ferguson
Finnish
Fron@@
HDP
Hann@@
Harold
Hebdo
Himalayas
ITER
Inter-American
Intifada
Invest@@
Jacob
Ka@@
Kenyans
Know@@
Koreas
Levant
Living
Mand@@
Marcos
Matthew
Mercosur
Mirror
Multi@@
Must
Oval
PCA
Perón
Peshawar
Plaza
Prices
Prosperity
Rail@@
Raj
Ramallah
Rawls
Rel@@
Rescue
Rick
Rules
SM@@
Sarajevo
Sebas@@
Shu@@
Song
Spaniards
Star@@
Steel
Suez
TE@@
TO
Tam@@
Temp@@
Terrorism
Tories
Trudeau
Ts
Tudor
UN-@@
UNCLOS
USAID
Vaccine
Valéry
Vá@@
Wester@@
What@@
Wikipedia
ab
abad
abe@@
abysmal
accidentally
accorded
accoun@@
accusation
adjudic@@
advertisements
aev
affiliates
afflict
affordability
ails
aine
alarmist
aliz@@
allay
altar
amply
analy@@
animus
anti-dumping
anti-trust
antibodies
antidote
arche@@
ardent
arresting
aspirational
assaulted
assimilation
assisting
astonishingly
astute
asy@@
atop
atro@@
attering
atters
auction
auster@@
authoritative
autocrat
automotive
aven@@
back-@@
bacterial
balkan@@
bbed
betray
bic
business-@@
cancellation
cargo
castes
casual
ceilings
cem@@
cens@@
centrifuges
check@@
chi
cock@@
commits
communicated
compass
competencies
concessional
condemns
condi@@
congen@@
conqu@@
conquered
consortium
consult
consumer-led
contextual
convening
converging
counties
country-specific
cracks
creatures
cries
currency-@@
deadliest
deal@@
debt-fueled
decree
defect
demar@@
deni@@
depend@@
deposit-@@
descended
detached
detrimental
dges
dip
disastrously
discernible
disease-@@
dish@@
disillusionment
dismissal
dispute-settlement
dissemination
distinctions
distortionary
doctrines
doorstep
downgra@@
drinks
eding
edly
eed
encing
enders
entials
entrench
envisage
ester
eva
excuses
facilitation
far-sighted
faraway
farm@@
fascists
fast-changing
figuring
finalized
finite
flaun@@
fledgling
fleeting
flock
foregone
frigh@@
fringes
frothy
fruitful
fulfillment
game-changing
gays
glacial
gling
globalizing
good-@@
grabbed
guardians
hall
harassed
harbors
hea@@
headscarf
hemisphere
heyday
high-ranking
high-value
high@@
hiking
hindering
holdout
holidays
home-@@
hormone
humble
hysteria
ide
ill-advised
ill-conceived
implo@@
inconsistency
incorrect
injecting
inmates
innumerable
inson
intensely
interfering
interrogation
intrinsically
io
ior@@
irrationality
isenberg
ising
istically
justifications
knowledgeable
kri@@
krill
lane
laureates
lav
least-developed
left-right
less@@
libertarian
lifesaving
limbo
lively
logically
long-established
loyalties
malfeasance
man-@@
manpower
manual
market-driven
mean@@
memoirs
mice
mil@@
mimic
mmed
mol@@
monopolistic
monument
mony
murderers
nal
nearest
nefarious
newborn
non-military
noteworthy
on-based
ong-@@
onists
opportunistic
outlet
overhangs
overturn
overturned
oxy@@
painting
pales
participatory
partisanship
patented
pathetic
payer
peacemaking
peacetime
pioneers
placement
plea
plethora
plots
poisoning
portrays
poverty-reduction
predicated
preempt
preferring
pro-EU
productively
progressively
prolonging
psychologist
purportedly
pyramid
qualifies
que@@
quipped
raged
ram
rash
ration
rationally
reactive
realizes
rebate
receded
recla@@
reconstruct
record-breaking
recur
reinvigorating
relapse
repatriation
replicating
research@@
resembling
resentful
reshaped
reti@@
rightful
rin
robustly
rub@@
rumored
savage
scorn
scripted
seal
searched
searches
self-evident
self-interested
seller
sens@@
sensing
serv@@
server
services-led
sett@@
sid@@
silencing
ski@@
skill@@
skillfully
sleeping
socio-@@
son-in-law
sparking
spaw@@
spearhead
speculated
speeds
spikes
spilling
spl@@
spor@@
stand-@@
stand@@
staunchly
sten
straining
strang@@
styles
stymied
subscri@@
subt@@
sucked
surrogacy
sustains
swamp
symbolically
tain
tearing
tedly
tel@@
theolo@@
there@@
therhood
thre@@
tial
timeframe
tiz@@
translation
transplant
tuition
twelve
typ@@
uation
ult
unanticipated
uncoordinated
underestimating
underwriting
uneducated
unfit
unfulfilled
unmet
unprecedentedly
up-@@
vanguard
varo
vege@@
vend@@
vention
vor@@
warrants
wart
wastewater
whichever
wind@@
witnesses
wr@@
wreck
ºC
è@@
ón
冯
刮@@
剪@@
咬
哭@@
圭@@
坊
宠
宣
巷
惰@@
掠
搭
斧
椅
椭@@
楷@@
涸
淖
混
渥
溶@@
滔@@
炬
璃
竹@@
筋
篱
粮
绞@@
缛@@
缝@@
膜
蒿@@
蕾@@
袍
趁@@
踩
钥@@
铎
闷
阁@@
颖
11@@
70-@@
Ala@@
Ale@@
Aristotle
Auschwitz
BL@@
BMI
Bankers
Base
Bayrou
Bennett
Bentham
Bir@@
Bow@@
Brady
But
CHWs
Capitol
Cham@@
Chamber
Code
Collins
Colombians
Conflict
Cubans
Dangerous
Dark
Dawkins
Deep
Diam@@
Dilemma
Dimon
Dornbusch
Duke
ECO@@
Eliot
Enough
Equ@@
Eritrea
European-@@
Fethullah
Fri@@
Fro@@
Fun@@
GN@@
Gho@@
Griesa
Hagel
Harvey
Haz@@
Hear@@
Hunger
IQ
Import
Isa@@
Jama@@
Kadyrov
Klaus
Ky@@
Kyong-hui
Lat@@
Lavrov
Les@@
Livni
Ludwig
Main
Malays
Mun@@
Naif
Neighborhood
Northwestern
Nouri
Obasanjo
Occupy
PI
Papers
Parkinson
Parties
Pat@@
Philippe
Pius
Planet
Plato
Potter
Presidency
Prim@@
Put@@
RS
Race
Radio
Raisi
Resources
Respon@@
Responsible
Rich
Schol@@
Simon
Sino-Japanese
Smoot-Hawley
So
Socrates
Somali@@
Stabilization
Still
Subramanian
Suharto
Super@@
T-@@
TAR@@
Temer
Thaler
Thatcher@@
Ther@@
Trump-@@
VE@@
Wisconsin
Yew
Yong
Zar@@
aberration
abetted
aboard
aca
acity
acquiesce
adage
adly
admi@@
affiliation
agribusiness
aked
alarmingly
alley
ambassadors
ance@@
approving
arist@@
ascendancy
assuring
asymmetries
attainable
atus
augmenting
backyard
bail-@@
bark
battleground
binds
biotech
bitterness
bonanza
bowl
bub@@
buybacks
calorie
capping
carpet
carved
cau@@
celebrity
centenary
centrally
ceremon@@
championship
chim@@
clim@@
clinicians
clow@@
collective-@@
colum@@
comfortably
commemoration
commissioners
complicates
conceive
confederation
consequent
contending
contrac@@
conve@@
corporatist
cosmopolitanism
courting
credo
crowd-@@
cunning
curbed
dampening
darker
dash
declares
deductible
deep-@@
defamation
defective
deflect
delegating
democratize
dens
desirability
detecting
devotion
dious
diversifying
dot@@
double-@@
doubly
dram@@
dup@@
eastward
eaten
eb@@
ecologically
edit@@
efs
eighteenth-century
electro@@
ella
embolden
emis@@
ensen
ensively
et-@@
evaluations
ever-closer
exemplary
exhaustion
exotic
face-to-face
factual
fairy
falsi@@
famines
fathom
feld
fetus
ffed
fin
fixation
fixed-asset
flew
flux
fodder
forestall
formul@@
fractious
freight
fru@@
fty
full-employment
gaping
gar
garbage
garnered
genomic
geothermal
gifted
gin
gio
govern@@
grandmother
grasped
guer@@
hani
harmless
hasty
hated
hemorrha@@
herein
heroism
high-skill
hinge
horrendous
hs
hypothe@@
ich@@
icks
ida
idan
ider
illumin@@
illustration
imaginary
imbued
imitation
impairment
imperi@@
impres@@
inadequacy
incredible
indul@@
inexorable
infancy
inflammatory
inism
installing
institutes
institutionally
instruc@@
intelligentsia
intercep@@
internationalist
interrup@@
intifada
intricate
inventing
invo@@
iously
iry
ised
isting
jewel@@
journalistic
jumping
kes@@
ket@@
knock-on
laugh@@
launches
lays
learns
legitimizing
likened
list@@
lonely
loosened
low-hanging
low-lying
loyalists
magazines
malnourished
manuel
marginalize
marke@@
mediate
mediated
megawat@@
memoir
menacing
mentor
mess@@
micronutri@@
mightily
mills
mim@@
misdeeds
mismanaged
monetarist
mos
nail
needlessly
neoclassical
nepotism
networked
newborns
next-generation
non-interference
numb@@
numerical
obstruct
odious
oke
oling
origin@@
ou
ounced
outperform
overcame
overshadowed
overweight
owski
patently
pec@@
performers
peri@@
personal-@@
photographs
pla@@
plausibly
pleasant
plotting
pollin@@
popul@@
postcommunist
precautions
precipice
predetermined
preoccupation
preschool
princelings
product-@@
productivity-@@
programmed
promoters
prostitution
publi@@
purity
qualitative
rays
real-@@
realpolitik
reb@@
reco@@
recommending
recycled
region-wide
reined
repaired
reputable
requisite
reservoir
resonance
retreated
revanch@@
reviewing
revisit
rigging
rigorously
ristic
roof
rotating
rout
rows
rum@@
run-off
runner
scal@@
secretive
self-employed
self-esteem
shack@@
shadow-banking
shale-energy
shirts
shockingly
shrewd
sim@@
simplification
soften
specialize
specific@@
stabili@@
stalls
stants
steadfast
stipul@@
stripping
strips
stronghold
stumbling
subservient
suffoc@@
suffrage
supervise
surpassing
survives
symbolized
tales
tali@@
tec@@
technocracy
tem@@
template
tender
then-Prime
theor@@
thetic
though@@
tig@@
tizing
toler@@
topped
torpe@@
trader
train@@
trait
trajectories
transcends
trivi@@
troublesome
tters
tually
udes
ulation
unarmed
unavailable
unde@@
underdevelopment
usur@@
vacations
vacill@@
vu
vultures
warrior
water@@
weapon@@
whip
wishing
wrong@@
xity
zations
ä@@
剃@@
巢
彰
恳@@
掘@@
掺@@
朊@@
朱
梗
楚@@
氯@@
汶
灶
玫@@
篡@@
纭
翘@@
肢
腹
臆@@
茵
莽@@
蔽@@
谚@@
郎@@
酵@@
钻
陡@@
隧@@
韧
饶@@
鸭
1,500
11th
2002-@@
2011-2012
201@@
5-6
500-@@
6th
Access
Ahtisaari
Allah
American-style
Analysis
Aqu@@
Arunachal
Atlanta
Aust@@
Belar@@
By@@
CB
CFTA
CJD
Call
Chin@@
Class
Clean
Comman@@
Competition
Confederation
Confucius
Continental
Daiichi
DeLong
Deficit
Deflation
Disp@@
Dynasty
Equity
Erdogan
FDR
Fair
Gove
Guar@@
Guterres
Haitian
Hasina
Hein@@
Hospital
Hou@@
Hughes
IL
IMF-@@
Imp@@
Inclusive
Integration
Ivanka
Jac@@
Jawaharlal
Jihad
Jin@@
Journalists
Kigali
Lagos
Leon
Let
Madison
Mary
Mayer
McAfee
McKin@@
Means
Medellín
Meh@@
Multilateral
Mus@@
Musk
Must@@
NPLs
Nancy
Nicol@@
OAS
Oman
Oregon
Other
PRD
Palo
Pelo@@
Pemex
Peterson
Phillips
Pittsburgh
Plu@@
Qat@@
Question
Rem@@
Rose
Russell
S.
Safety
Schwar@@
Shimon
Shin@@
Shrine
Six
Snow
Sonia
Sovereign
Spratly
Stran@@
TA@@
Taj
Tarullo
Tennessee
Ter@@
Thiel
Town
Trans@@
Transformation
US-South
Versailles
Walker
Weimar
Win@@
Xiaochuan
Zine
Zoellick
abdic@@
abject
abrog@@
absolu@@
accuses
aceful
achable
achi@@
acker
acron@@
adhered
admon@@
ains
aku@@
alienating
ance-@@
anchoring
aning
anti-competitive
anti-euro
anti-poverty
apped
apprentice@@
aqu@@
arduous
arrivals
artistic
ashi
asi
asted
atist
ativity
attorney
authorize
awakened
ballooning
bara
basi@@
bath@@
beaches
behind-the-scenes
bells
bio-fuels
biome@@
bir@@
bla@@
blical
blindly
blogs
bogged
boom@@
bore
boycotts
break-up
bred
bridging
brow@@
bung@@
buoyant
buses
busts
bypassing
cables
calculates
capital-market
capitalizing
cel@@
ceremonies
chat
chiefly
clad
claimants
collects
colonization
command-and-control
commanded
community-@@
confirming
conflagration
conform
contours
conveyed
corrupted
cot@@
creeping
crip@@
crossings
cryptocurrency
cyc@@
dance
decor@@
decrees
defaulting
defiant
defusing
delegated
deliveries
democrat
dense
depart
deportation
depressions
desertification
developmental
deviation
dic
dietary
differentiate
digits
dily
disaffection
disarm
disenchantment
dissip@@
distorts
dithering
diverge
documentation
dollar@@
donate
dos
doubles
downsides
dwind@@
eight-@@
elicited
embodiment
empi@@
employ@@
enablers
enko
enroll
ensued
ental
entro@@
epigenetic
escal@@
estic
ests
ethic
eus
evangelical
evol@@
excited
executions
expansionism
extoll@@
face-@@
fal@@
falsely
far-left
fatalities
fiat
filing
financi@@
financial-reform
finest
firewall
fis@@
floated
flourished
flowers
focal
foresaw
foreseen
forgive
format
forth@@
foun@@
gear
generators
gently
ggling
glue
god
graduated
guys
hacked
hall@@
hardships
harmonized
hastily
heavy@@
high-productivity
hil@@
honors
hostages
hung
ilities
imagining
imperfections
imprudent
inated
inations
inconsistencies
incurring
inflating
inhibitors
innate
inning
intimidated
iny
iter@@
itors
jeopardizes
jet
jum@@
kilometer
king@@
lapses
leeway
lessen
levies
lifeblood
light-@@
linger
lling
manship
manufacturing-@@
mediator
melt
methodo@@
methodology
metro@@
mid-1990s
misconceptions
mistreatment
moc@@
modus
molecules
monster
multiplied
nan
nation-building
necessities
nis
nominees
non-bank
non-democratic
northwest
nutritious
ny@@
oblig@@
oblige
oft-@@
oil-exporting
one-sided
op
operatives
originating
ossi@@
oundly
oversaw
overstate
pad
parade
particul@@
patrons
pay-for-success
peculi@@
pedi@@
peer-reviewed
pent-up
perf@@
perpetu@@
pesos
pests
phosp@@
pigs
plaintiffs
polled
porting
portions
preaching
premised
prescribe
priests
prints
priori@@
proliferate
pronged
prudently
pseudo-@@
psychiatry
publishes
purges
radic@@
railroads
ransom
realists
rebel-@@
rebuffed
recast
recidivism
recipes
redirected
redistributing
redundancy
rehabili@@
repetition
rese@@
resid@@
residency
resuming
resurrec@@
revolutionize
rez
ried
righteous
scared
schism
sclerotic
scrambling
scri@@
scru@@
secessionist
self-imposed
sensibly
sensors
serial
sheds
signi@@
sizing
sky@@
skyrocketed
sleep@@
smen
spate
specify
spells
splitting
spokesman
spokesperson
squares
ssi@@
sta
stabilizers
staff@@
standard-@@
state-building
state-of-the-art
stirred
streak
strident
stumble
suburbs
supply-chain
susceptibility
swa@@
synago@@
synap@@
tab@@
tablets
tary
tee
thread
tival
toil@@
touched
tram@@
transpor@@
trappings
treacherous
trending
trolls
trough
tu
tured
turing
two-party
tycoons
undecided
unparalleled
unrelenting
unwittingly
upended
upending
upholds
urges
veiled
vens
vesti@@
viewpoint
vol@@
waned
welfare-@@
wild@@
winding
wired
won@@
workplaces
zealots
š
丈
侍@@
偏
凿@@
咎
喉
噤@@
囹@@
圄
垫
弓@@
悚@@
扳@@
拳
拼
敲
斑@@
沥@@
泪
熙
琳@@
矢@@
砖@@
稽
穴@@
肠@@
胶@@
脾@@
腺
藩@@
蛇@@
裕@@
辽@@
郊
锈@@
锤@@
颠
-P@@
15-year
1997-@@
7-8
80-@@
ALTO
Abidine
Accoun@@
Ahmad
Alexand@@
Among
Anglo-American
Arch@@
Armenians
BO@@
Barghouti
Begin
Bernard
Best
Bom@@
Brit@@
Burns
CR@@
Card
Cardinal
Cer@@
Chance
Constituent
Corpor@@
Corporate
D-@@
Davis
Determined
Dokdo
EAS
ECJ
Est@@
Even
FMLN
FRANCISCO
Fear
Federica
Fernández
Forest
Fragile
Frontier
Futures
G-@@
GATT
Gas
Gener@@
Govern@@
Gri@@
Gül
Hensarling
Hirschman
Housing
Houthis
Humanitarian
IO@@
Il
Illinois
Intel
Jali@@
Kahneman
Kaiser
Kavanaugh
Kh@@
Kuchma
Lea@@
Leaders
Lech
Liqu@@
Little
Lloy@@
Loc@@
Luis
Made@@
Magna
Malala
Medicines
Men
Moment
Monro@@
Moroccan
Mother
NBU
Neanderth@@
Nic@@
Nikol@@
North-South
Otto
PPPs
Ponzi
Publi@@
Raqqa
Rates
Reich
Riv@@
Rot@@
Rousseau
Rubio
Rudd
Rural
SE
Scientific
Sev@@
Shevardnadze
Side
Sino-US
Six-@@
Species
Stagnation
Sustainability
TN@@
Tamils
Term
They
Tou@@
Trou@@
Vis@@
Westminster
Wick@@
Yuliya
abstain
accelerator
adjacent
adul@@
adversity
affili@@
affirm
afflicts
aggravating
allow@@
aly
ambivalence
ank
annex
antagonizing
appalled
appoints
aquifers
arbitr@@
arization
aroused
arrears
ascri@@
ason
atingly
ationary
attenu@@
avail
avo@@
baff@@
bal
barbarism
barrage
basics
belatedly
beta
bids
bili@@
blasphem@@
blowback
bluff
bond-market
bots
boun@@
boxes
brute
bun@@
carbon-based
carto@@
catches
causality
ceding
census
certific@@
challengers
chauv@@
chiefs
cia
circuits
circulated
cit@@
civility
class@@
classification
cleanup
co-founder
cohorts
collu@@
colorful
combinations
comedian
complements
composite
compu@@
conducts
confidential
confines
consolation
constrains
corollary
corrective
corrup@@
cos@@
counterfe@@
crashing
crum@@
curiously
dedness
defendants
defined-benefit
demonstra@@
denuclearize
departing
deri@@
diest
digitized
disclosures
discrepancies
disenfranchised
disintegrating
dislocations
dismay
dispossessed
dist@@
distributive
dless
domin@@
doms
doom@@
doubtless
dow@@
downing
draining
drifting
early-warning
econome@@
eight-year
electorally
emissions-reduction
employer-@@
emulated
ener@@
enlarging
eras
erral
erup@@
espouse
esty
evacuate
evange@@
event@@
ever-growing
ex-Soviet
exasper@@
exemplifies
exempted
exhibition
experimenting
exponential
fancy
festering
fet@@
feud@@
fiber
fictional
fifths
financialization
flash@@
flimsy
fog
follow@@
fooled
foreign-born
franchise
fraying
front@@
funeral
genie
ghosts
ghter
gie
gig@@
globalism
gos
grains
gravely
great-@@
guardian
guides
habitats
haircuts
harvests
hears
heral@@
hesitated
hew
high-stakes
homelessness
hospit@@
hyped
ight@@
ilia
illiberalism
immuni@@
inalienable
indicative
inflame
inflexible
ingenious
inhabit
inist
inous
instil@@
institution@@
insults
insurgencies
interpre@@
interpreting
intolerant
invali@@
invoicing
iss
issuer
iti
jailing
jin
jo
just-concluded
kar@@
kicked
kidnapped
kj@@
kni@@
labels
layoffs
lean@@
legi@@
lified
ligh@@
literal
lls
loathing
logging
longest-@@
lowed
lowest-@@
macroeconomists
manufactures
martial
memorable
mes@@
metaphors
mid-nineteenth
midnight
midwives
mildly
mili@@
mill
miraculous
misrule
moderni@@
modernized
monetar@@
mont
morals
motivating
mour@@
mourning
multip@@
myopic
nell
news@@
no-brainer
non-Arab
noxious
nuclear-weapon
nul@@
obstruction
olf
omics
opera
oscill@@
ot-@@
outline
overshoot
overthrowing
overtime
ox@@
percentile
perseverance
pharm@@
phenomenal
phi@@
physi@@
pick@@
pig@@
pinpoint
pled
politici@@
portend
poverty-@@
pre-recession
predominance
privatizing
prizes
profit-sharing
program@@
protectionists
public-opinion
pumps
purse
putative
quadru@@
quarrel
quie@@
raison
raped
rationalize
receding
receptive
reflexi@@
refrained
relic
reopened
resented
resourced
responsiveness
restraining
restriction
resur@@
retreating
rhin@@
riders
righteousness
rists
rudimentary
salu@@
salvage
sanc@@
sank
sapiens
scholarships
seas@@
seconds
selec@@
self-driving
sensational
sharia
shootings
shun
shut@@
singer
single-market
sinks
sion@@
sional
sioned
sioning
skies
skill-@@
slippery
smallpox
smartest
socialists
solitary
spans
specul@@
spirited
sprawling
spurious
standardi@@
stealth
stipulates
stoves
stressing
strong-@@
sub-national
subjecting
subscribe
supplant
surrendered
symmetrical
tack
tailspin
taire
takeoff
takers
telemedicine
temperament
thaw
thorny
thrived
tingly
transc@@
transmitting
transplan@@
truck
tsetse
tumult
tunnel
tunnels
unaffected
unattainable
uncontrollable
uniforms
uninsured
unsavory
unsustainably
updating
ural
usu@@
uttered
vegetable
venues
vergence
veri@@
vigilance
visibility
vot@@
vulture
wean
wen
wer
wherewithal
windows
withholding
wre@@
yeh
zers
zoning
zy@@
æ
ê@@
亵@@
侥@@
允
册@@
厕@@
咸@@
哮
啡@@
啦
囚
囿@@
坍@@
堤
墅
墓@@
夹
媚
孜@@
弯@@
恫@@
悬
悼
杭@@
枷@@
殃
洪
溜@@
澜@@
狼
皈@@
矣
碾@@
篷
紊@@
绒
绿
肠
脉@@
舒
茁@@
蓝
薯
藻
褪@@
觊@@
觎
躁@@
躲
躺
轿@@
锢
闯@@
霉@@
髓
鸠@@
黛@@
-driven
0-
10-20
15th
2009-@@
22,000
7,@@
Accra
Achilles
Ai@@
Albanians
Alli@@
Americ@@
Amman
Amnesty
And@@
Andrés
Aramco
Ath@@
Aug@@
Av@@
Aw@@
Awakening
Aziz
Bang
Barclays
Barro
Basi@@
Before
Bengal
Bio@@
Blu@@
Book
Border
Brisbane
Building
CFA
Challenges
Chemical
Cher@@
Clau@@
Composite
Conserv@@
Cost
Daoud
Dep@@
Diplomacy
Diversity
EO
Earthquake
Economists
Ennahda
Enter@@
Farm@@
Fortune
Funds
GPE
Gir@@
Guards
Hamas-@@
Han
Hangzhou
Haus@@
He
High-Level
Hot@@
Hour
IOM
ISPs
Imperative
Indi@@
India-Pakistan
Indian-@@
Interior
Its
J.@@
Jae-in
Just
Karachi
Kore@@
Lab@@
Lin
Lou@@
Ly@@
MI@@
MNCs
Mai
Manch@@
Marshal
Mashal
Mau@@
McDonald
Mee@@
Meles
Mili@@
Miracle
Modern
Mousavi
Mundell
Nadu
Nan@@
Needs
Nissan
Of
Once
Oscar
Ot@@
P-@@
Palestinian-Israeli
Pay
Pinker
Popular
Poroshenko
Prus@@
Rajasthan
Reli@@
Resilience
Rising
Secret
Sel@@
Shoal
Sik@@
Sony
Spr@@
Stein@@
Tory
UK@@
Vene@@
Versus
Victor
Violence
Wyoming
abusing
accompli@@
accomplishment
acha
ache
acid
activate
activated
adamantly
aide
aim@@
akh@@
amelior@@
ament@@
an-style
andi
angri@@
anointed
anov
antagonistic
anti-Sem@@
anti-austerity
anti-government
anti-trade
antidepress@@
apples
applicant
armaments
artemisin@@
ashes
assassin@@
asse@@
assigning
astronom@@
atrocity
attach
authorizing
auto-@@
beach
bearer
bellige@@
best-known
bestseller
bil@@
biop@@
birthplace
bones
boom-bust
boots
breached
bribe
brief@@
buck@@
buffeted
button
byproduct
calamities
camp@@
catalyzed
ceas@@
cel
censors
century-@@
cere@@
chasm
cheapest
cheat
cheer@@
chil@@
chimpanzees
choke
chop@@
chron@@
classify
cleavage
closures
clue
coaster
colonized
colony
con
contenders
convincingly
correc@@
cosmopolitans
counseling
countrymen
crack@@
crats
crow@@
crying
crypto-@@
culpability
cyber-security
cynics
damned
debatable
decisiveness
decoupled
decrimin@@
defends
deficit-reduction
dents
deported
deputies
designer
despotism
despots
dest@@
deteriorates
devaluing
developer
dging
dilu@@
disenchanted
dismemberment
dispense
displaying
dock
donation
dreadful
durability
dwell
dynam@@
e.g.
ear
ector
edes
ego
elevate
eline
emancipation
embarrassed
emblematic
eminently
empowers
enlarge
ension
epoch
erated
escap@@
ever@@
exaggeration
exhaust
exogenous
expires
explosions
expropri@@
fa
falter
farfetched
farmed
ference
ffing
fili@@
finalize
forbids
foreclosures
foreign-aid
forgo
fortified
forward-thinking
foundational
frag@@
future-oriented
gad@@
gas@@
gent@@
geological
glimmer
gossip
goti@@
grati@@
gray
gression
hard-earned
harsher
harshly
hast@@
hens
higher-quality
hij@@
hill
hop@@
horizontal
hotspots
how@@
icable
il-@@
imaginative
immo@@
imploded
impotent
impris@@
inci@@
indig@@
industrial-@@
industrialists
ineffectiveness
inst@@
insulting
intensification
intercontinental
interest-@@
intermediary
internalize
international-@@
interruption
interstate
irrespective
ition
ito
jects
join@@
jokes
kick@@
laden
ld@@
lea@@
legisl@@
lei@@
les@@
lification
lingu@@
linkage
lish
lized
log
lone
low-quality
ludicrous
machine-@@
mad@@
magnet
magnetic
mania
manmade
marching
marketed
materially
mathemati@@
matic
meaningfully
mem@@
migrating
militancy
millenni@@
mind-@@
miners
miracles
misunder@@
misunderstood
moderating
mon
mongers
most-@@
motivates
mouths
multipolarity
national-level
near-universal
neat
neck
neo@@
neuroscience
new-@@
ni
niche
nominally
non-communicable
non-transparent
novelty
nutshell
obfus@@
offended
open-minded
openings
opt-@@
oria
orio
ousafzai
outlines
outpacing
oversees
overstretched
oxide
pacifist
pal
pandering
parag@@
paro@@
passively
pathology
payers
pediatric
penalized
people-@@
perfected
phase-out
pill@@
placate
plates
pleasing
ploy
poetry
poin@@
polarity
policymaker
por
post-industrial
posting
preach
preach@@
preclu@@
prerequisites
press@@
pro-American
professionally
prohibi@@
promul@@
property-rights
prote@@
publici@@
publishers
py
quicker
quin@@
radicalized
rainy
ramp@@
rare-earth
rats
reader
reas@@
rebuke
reciprocate
reconfig@@
redefining
refin@@
reimbur@@
reins
reinventing
reinvigorated
rejuven@@
religi@@
remnants
ren
renewing
renounced
rental
repress
repressing
resembled
reshuff@@
restless
revamp
rever@@
revisionism
revitalization
revulsion
rey
ridiculous
rist@@
riven
robo@@
roll@@
rooting
roughshod
rule-@@
rule@@
sacrosanct
salience
same-sex
sat@@
scalable
scape
scent
scholarship
science-based
scu@@
secede
seniority
separates
separatism
seven-@@
shadowy
sheik@@
shell
shielded
shkin
showcase
sic
sidelined
sightedness
sist@@
situated
skeptic
slam@@
slap
slow@@
smog
snu@@
softened
softening
sol
sored
southeastern
sowing
spearheading
spinning
spot@@
spurs
squandering
stan
stat@@
state-level
statute
strom
subcontinent
subset
substandard
subter@@
sulfur
sunny
superstars
surrogate
swan
swit@@
tacitly
tari@@
taxis
teenage
terminology
theocratic
therein
throw@@
thwestern
tians
tionality
tiously
tire
tled
tolls
tow@@
towers
typho@@
ul
ula
uncompromising
undisputed
unfolds
unwieldy
uprooted
upshot
usian
vani@@
vanishing
var@@
vexing
victimized
visu@@
visual
vividly
voic@@
voracious
voys
way@@
weapons-@@
well-connected
wielded
willfully
wording
xy
yle
ynjolfsson
zard
ég@@
丙@@
冉@@
凄@@
凉
咆@@
咒@@
堤@@
寂
寺@@
峻@@
廓
弛
彼
恨@@
惫
惰
拧@@
捏
晦@@
棍@@
棺@@
氟
泵
焚
甄@@
疵
痼@@
硅
羡
膀
膳@@
茅@@
讧
谙
谭
贡
赔
赤
赴@@
逢@@
鄙
酗@@
铭
镀@@
阂
饮
骆@@
鹅@@
-era
-wide
11-@@
14-@@
2011-@@
2012-@@
2016-@@
8,@@
AA@@
Abbott
Abu@@
Advan@@
Advisory
Agre@@
Airbus
Akbar
Alek@@
Apollo
Beh@@
Bet@@
Bihar
Boeing
Bogotá
Bolivarian
Bond
CDOs
CT@@
Campaig@@
Cancún
Catholicism
Chang
China-led
Chri@@
Chris@@
Citibank
Confid@@
Contin@@
Contributions
Conventions
Coordination
Culture
Decade
Decline
Demo@@
Dic@@
Diego
Elections
Electr@@
Euroskepticism
F-@@
Filipinos
Fire
Gabriel
Gross
Gur@@
Gülenist
Happiness
Haruhiko
Havana
Homeland
Hop@@
ICJ
Industries
Internal
Islamization
Jew
Jibril
Joyce
Junichiro
Karad@@
Kuan
Lad@@
Lash@@
Legislative
Lon@@
Lukashenko
MV@@
Main@@
Malay
Malta
Maoists
Map
Marie
Massacre
Mindanao
Mir@@
Motors
Moun@@
Nag@@
Nasrallah
Nationally
Neves
Niño
Nothing
Ou@@
Parliamentary
Path@@
Priv@@
Promis@@
Psy@@
Pyrrhic
R.
Region
SN@@
Sartre
Saturday
Scarborough
Secre@@
Sergey
Shadow
Shiites
Soft
Some@@
Storm
TO@@
TVET
Take@@
Terminal
Thein
Timor
Trouble
Tung
US-backed
Uigh@@
Until
V-@@
Vargas
Village
Villepin
Warming
Yingluck
Zh@@
abandons
abstained
accru@@
accrued
acy-@@
adaptability
admissions
ador@@
aerospace
affection
affirming
agro@@
al-Ahmar
al-Shabaab
aller@@
alleviation
allu@@
alogue
alternate
amassed
amending
amidst
amnesia
anarch@@
andum
anguish
anti-missile
applaud
applause
archaic
ardo
assembling
aste
asto@@
auctions
audacious
audacity
aul@@
awaken
awful
backer
backwards
banking-@@
banknotes
bankrup@@
bargains
basins
be-@@
bell
belts
bis@@
blacks
blown
bomber
boomed
bored
bos
bou@@
breadth
brethren
brick
broadcasts
cad@@
cadres
canceling
capitul@@
cascade
cataly@@
cautionary
cav@@
celebrities
cheering
cheerleaders
chro@@
circular
circumv@@
circuses
civic@@
clic@@
climbing
co-authored
coaches
codified
competes
complication
computer-@@
confer
confinement
constructively
consumerism
conte@@
contradic@@
corporatism
correspond
corresponds
cosmetic
cracked
criticizes
cross-country
crystal
cynically
damning
darkest
deceit
deceler@@
decolonization
deen
defies
degrading
delinqu@@
delusions
dementia
demo@@
denfreude
deplo@@
deplorable
depreciations
derision
descend
deserving
detec@@
determin@@
deters
dialogues
dil@@
diligence
dings
diplom@@
disappears
disgrace
disgu@@
dison
disposed
disseminate
downplay
duck
dug
dwarfed
eco-@@
economic-reform
el-Sisi
eld@@
elephants
embezzlement
ems
endeavors
endowment
enlightenment
ennial
enomics
ensue
entren@@
epidemiological
eration
erie
erships
erstwhile
es-based
eschew
exams
expatriate
express@@
extortion
far-@@
farce
fast-track
fervor
fills
filter
filtering
fine-@@
fire-@@
fist
flagging
flatten@@
floors
flouting
formulas
frames
fron@@
fruitless
fundraising
furniture
gentle@@
gest
gested
gold-@@
government-backed
gravitate
grinding
guests
half-dozen
hard-working
heat-@@
hemoglobin
hierarchies
hinged
hoarding
hoax
housed
hurry
hydraulic
hydro
hyperbole
iah
icide
icking
icus
idiosyncratic
ient
ified
iga
ights
illo
imag@@
imaginable
ime
impeccable
implic@@
inary
inconsequential
indefensible
induces
indulge
information-technology
infringement
infusion
inger
inhumane
instinctively
interacting
interactive
interface
internalized
interventionism
intra-regional
intuitions
irresponsibility
ishing
isted
itably
itating
jittery
juri@@
justifiably
k-and-@@
ken@@
kidnapping
kuk
landlocked
languishing
lay@@
leher
leine
libraries
liest
lifies
lighter
lineage
liness
lings
liquidation
lock@@
lured
lux@@
magn@@
mail
malaria-@@
mammals
mans
masks
masse
meanings
med@@
mentioning
meteor@@
militaries
misled
misperceptions
mitochondri@@
mobili@@
mosquitos
moth
mountain@@
mounts
mullahs
multi-ethnic
musi@@
nationali@@
natural-@@
needle
needy
negli@@
neur@@
nies
nik
non-European
non-Muslims
non-compliance
nonfinancial
nucle@@
ody
offenders
offshoring
oligarch
olog@@
omission
opho@@
optic
oration
oratory
organ@@
orts
oust
outspoken
outweighed
overhauled
overshooting
overtly
panics
paracetamol
patchwork
pathological
pay-@@
performer
perished
pers
photovoltaic
pickup
pilgrims
pipe
plateau
pleas
plug@@
plutocrats
poles
policeman
populace
pork
porters
portrait
post-colonial
potatoes
pragm@@
prece@@
predators
preserves
presid@@
preside
presidencies
prioritized
private-equity
proclaims
profited
progresses
prophe@@
proponent
propositions
protec@@
psy@@
psyche
psychotic
punch
purchasing-power-parity
putsch
quandary
quantitative-easing
railroad
rains
ramp
raters
realig@@
reaped
reasser@@
reassess
rebe@@
reckoned
recognizable
recre@@
recreate
recrimin@@
refining
rene@@
reopen
repealing
repent@@
represent@@
repri@@
requesting
rescues
resi@@
resonated
resource@@
retiring
retz
reverted
rhyth@@
ridicule
rifts
right@@
ring-f@@
rism
rod
ronze
royalties
ruinous
ruption
sag@@
sar@@
scen@@
scrapped
scription
secon@@
secretaries
securitized
self-control
self-insurance
sell-off
sements
seren@@
shelling
shrinks
silos
sim
sincerity
sionate
slaughtered
smugg@@
solidify
sovereign-wealth
span@@
specialty
spokes@@
sponsoring
staked
stamps
state@@
statistically
stem-@@
sterilized
streamlined
streamlining
stripes
stro@@
subordinated
subsidi@@
substituted
summar@@
sunset
supple@@
swam@@
swelling
swine
sym@@
symboli@@
take@@
tatters
taxpayer-@@
temple
terminal
tia
tinkering
tirelessly
tland
tless
tman
tn@@
tradition@@
transitory
traumatized
travels
traw@@
treasure
treasuries
tremendously
truc@@
trumps
tte
two-track
twofold
tyran@@
tyrant
uggle
uli@@
unconstrained
unconvincing
und
underperforming
undervaluation
underwrite
unforeseeable
unholy
unknowns
unmitigated
unqualified
unrestrained
untreated
upro@@
uptake
uration
usra
vali@@
validation
valley
variability
vetting
vill@@
vity
vulgar
vy
waking
wallets
warmth
ween
well-managed
white-@@
whole@@
wid@@
wildfires
wore
wrapped
write-down
zzled
zzling
â
ñ
丸
仆@@
冕@@
厘
吞
哄@@
唉
夥@@
宋@@
寄
峡@@
弯
怯@@
悍@@
悼@@
惶@@
懊@@
懦@@
杞@@
柴
毅
沫@@
洽
牒
狠@@
狸
痹
秃@@
窍
笼
糕@@
罂@@
膝
蒋@@
蔡@@
蜕@@
诀@@
谟
跋@@
迭@@
逾
郭
钳@@
雌@@
霾
飙
馅@@
驼
鹰
-scale
-sharing
.amp
15-20
195@@
2010-2011
315
5-7
9th
ANGELES
Aca@@
Adjustment
Afghan@@
Airlines
Alaska
Alawites
Andr@@
Arab-@@
Areas
Asian-@@
Assistant
Atatürk
BAM
Balti@@
Beng@@
Bible
Bolivian
Bot@@
Bouteflika
Briti@@
CITES
Caesar
Cameroon
Catal@@
Ce@@
Climate-@@
Concertación
Coordin@@
Cr@@
DCs
DF@@
DP@@
Dalits
Dam
Different
Dmitry
Durban
ERM
Egyp@@
Emp@@
Ev@@
FTT
Fairtrade
Fall@@
Final
Flemish
Forty
Found@@
Friends
Gali@@
Gilani
Goldstone
Gr@@
Greg@@
Guangzhou
Guardian
Gulag
Guri@@
Haqq@@
Hash@@
Hatoyama
Henrique
Heritage
Herzegovina
Hirohito
Hun@@
Hung@@
IDB
Imagine
Jang
K.
Kampala
Kemalist
Khobragade
Kis@@
Krem@@
Kudrin
Kumar
Kuomintang
LG@@
Leap
Lords
Lost
M-Pesa
Macierewicz
Maj@@
Mankiw
McC@@
Miami
Monterrey
Morawiecki
Moria
Mou@@
Myriad
Naf@@
Najib
Nations-@@
Nep@@
Nevada
Normal
Now@@
Oc@@
Off@@
Oh
Ozawa
PRC
Petro
Politkovskaya
Potem@@
Qing
Quar@@
Raf@@
Ramadan
Re-@@
Reag@@
Remainers
Renew@@
Renminbi
Rhineland
Rompuy
Ruhollah
Rwandan
SDR@@
Sanctions
Saudi-@@
Scheme
Schmitt
Senators
Slov@@
Socialism
Speech
Stal@@
Stalinist
Starbucks
Sto@@
Supervis@@
T.
Tat@@
Tolstoy
Tunis
Turk@@
U-turn
US-India
US-Iran
Underground
Unilever
Vichy
Volkswagen
Welfare
Ya@@
Yangon
Yasir
Yasser
Zimbab@@
abduc@@
abhor@@
abnormally
abo@@
absten@@
aby@@
achi
acti@@
adaptable
advertised
affirmation
agrarian
agreeable
ail
aise
alese
alizers
alleg@@
aloof
ame@@
amm@@
amorphous
anci@@
anonym@@
anthropolo@@
anz@@
appropriated
aren@@
arrange
arranging
articul@@
asteroid
athlete
atization
atom@@
attrition
auris
auspicious
authoritarians
aw
baggage
balked
bbing
bbled
beast
begging
behemoths
beloved
bench@@
bending
bene@@
bi-@@
bition
blood-@@
bloodletting
bon
boot
brain@@
brazen
breakaway
breakfast
broad@@
bullish
burner
cages
calming
canni@@
carbon-intensive
caricature
carri@@
ced-@@
ceded
charts
chau@@
chocolate
chunk
cin@@
circul@@
circus
civil-rights
clamor
clampdown
cliché
closes
college-@@
combustible
comment@@
commercialization
commodi@@
competences
compli@@
concealed
concep@@
conduit
confluence
conformity
contam@@
contingencies
contrasting
controver@@
coordin@@
corpus
correspondingly
costlier
countermeasures
cowar@@
crave
credit-card
currency-swap
custo@@
dampened
dan
dares
data-driven
day@@
ddy
deal-making
debt-ceiling
deceive
decim@@
decreases
deem
deem@@
defeats
demago@@
dengue
depreciating
deprives
deregulated
deserted
despised
dial
dice
digitally
diminu@@
discounts
dism
dispersion
displeasure
dispute-resolution
dited
dles
doldrums
dovish
drained
drill
dull
dung
dwarfs
ecology
ee@@
elabor@@
elders
elevating
embryo
encompasses
energize
enings
envisages
ep
erals
eschewed
estrangement
ethic@@
euro-denominated
evacu@@
evapor@@
evaporated
evisc@@
evokes
exaggerating
examinations
excel
exploitative
extinc@@
extr@@
extravag@@
extre@@
extric@@
exuberant
fact-based
far-flung
feminists
fic
finan@@
finishing
first-rate
fissile
flared
flash
flexi@@
forebears
formality
fortress
frivolous
froze
fully-fledged
funne@@
fuse
gang@@
gation
geny
geo-political
gerryman@@
gery
gir@@
glit@@
gment
gon
grandson
gree
greening
grocer@@
grou@@
grudgingly
gruesome
half-baked
hammered
hapha@@
haul
haves
heightening
hesit@@
hist@@
homa
honeymoon
honorable
honoring
hormones
horse-@@
hospitality
hotter
humb@@
humiliate
hybri@@
hysterical
ichi
idis
idu
ighting
ill-fated
imaging
iming
immature
impartiality
impatient
incapacity
incensed
incidentally
incorporation
indulging
ineffectual
infinitely
ington
innocuous
inqu@@
insi@@
install@@
instein
insufficiently
insurer
intelligence-@@
introduces
invasions
involuntary
ions
ior
ires
irreconcilable
itt
ium
jungle
keenly
knowingly
kr@@
lakes
latecomer
liners
liqu@@
liz@@
local-@@
loggerheads
low-paid
lyn@@
madrass@@
magnificent
majoritarian
maneuvered
market-friendly
medal
merchants
meta@@
milder
militarization
ming@@
miniscule
minuscule
mirrored
miserably
mishand@@
mixing
modifications
morph@@
mortgage-@@
mother@@
mouse
mouth@@
multi-party
mus
mus@@
museums
mushrooming
nable
narcissism
narcissistic
native-born
nemesis
nervousness
ninth
nonpartisan
nonproliferation
notic@@
nou@@
nuances
obedience
ocracy
ok@@
olution
oma
onan
ophobia
opportunism
ori
ority
otes
othing
otype
outstrip
outweighs
overe@@
overestim@@
overland
override
overweening
own@@
pan
paradise
patriarchal
peaking
pen
permis@@
perpetrator
planets
plumbers
plutocracy
pneumococcal
poppy
postal
pragmatists
prerogatives
price-earnings
prioritizing
pro-Russian
process@@
professed
progressing
prole@@
promotions
prostitutes
provisional
purpos@@
purview
puzzled
question@@
quick@@
quies@@
racing
rag@@
recapitalized
recei@@
recount
reduc@@
refuted
rejuvenation
rendt
renminbi-denominated
repatriated
repeats
rest@@
resurrected
retailer
retake
retention
reticence
revamped
revenue-neutral
reverber@@
reversible
revolutionizing
revolving
rounded
sal
sanctuaries
sation
savior
scares
screened
scribed
sculp@@
seated
second-
secul@@
secularist
seismic
self-sustaining
sequences
servant
seventeenth-century
shelters
sibly
signify
sition
sixty
slowest
small@@
smallholders
sms
social-insurance
solves
sour@@
sovereign-@@
spatial
special-@@
specialist
specifying
stadium
stalling
statistic
statisticians
statue
statues
steeped
step-by-step
structuring
studi@@
stumbled
sub-regional
submitting
subnational
subsidiarity
substituting
sug@@
summed
super
t-to-@@
taps
te-@@
teetering
telephony
tell@@
tely
tenet
tennis
teous
terminate
tful
then@@
theological
therners
thes
thinly
thirds
thrall
tionable
titled
ton@@
tooth
transcending
triad
trilemma
triple-@@
tripling
trope
tuna
tweeting
ude
unaccountable
unconscionable
underclass
undernourished
understated
undoing
unjustified
unmatched
unreported
unscathed
unscrupulous
unted
utili@@
vable
vegetarian
vent
vert
vetoing
vich
vide@@
vindication
voy
vsky
war-ravaged
ware@@
warring
well@@
wheels
whist@@
wicked
wills
worm
worst-@@
wra@@
wrecked
yach@@
year@@
ynd@@
youth-@@
zar@@
zhou
−
傅@@
匹
呐@@
哨
哨@@
坪
壕
娘@@
宇
屈
弦
弩@@
怂@@
怜@@
恿
扇
揣@@
摧
昙@@
晤@@
柜
椅@@
汹
汽
洼
涓@@
灌
炙@@
燎@@
爬@@
监
睬
瞪@@
矮@@
碱@@
秀@@
稣
篮
簸
缭@@
胶
芒@@
茫@@
蕉
藉@@
蜡@@
讳@@
豆@@
赡@@
辑@@
辰
遂@@
郑@@
酬@@
鹿
&apos;Neill
120,000
19-@@
1990-@@
2001-@@
2015-@@
29-@@
3,500
3-year-old
30-40
70,000
90,000
AB@@
ADIZ
AIRES
Advis@@
Aff@@
Ages
Ahn
Andhra
António
Artific@@
BT
Baltics
Barr
Bavaria
Bavarian
Bell
Benef@@
Bosni@@
Brun@@
Buddhism
Carta
Ceausescu
Chennai
Citi
Coca-Cola
Colin
Commodity
Cont@@
Corridor
Crime
Crises
Cypriots
DD@@
Dalit
Dayton
Dead
Developing
Die@@
Director-General
Does
Drugs
Erhard
Eth@@
Eur@@
Extre@@
Fail
Fatah@@
Fig@@
Flight
Fore@@
Franc@@
Franco-@@
Franz
Fundamental
Guam
Has
Has@@
Hawley
Hormuz
Houthi
Hwang
Il-sung
Inclusion
Inter-Services
Israel-@@
Jeff@@
Karmapa
Kol@@
Lar@@
Lega
Lesbos
Liberty
M-@@
MDR-TB
Magu@@
Majority
Marines
Marx@@
Marxists
Mel@@
Milošević
Mongolia
Morris
Mountain
Myung-bak
Mélenchon
NATO-@@
Natural
Nearly
OBOR
Oce@@
Out@@
Paraguay
Paribas
Phili@@
Police
Princess
Qaeda-@@
Really
Recon@@
Regi@@
Resource
Revisited
Rey@@
Roadmap
Robin
Ré@@
Search
Seed
Shor@@
Sikh
Singapo@@
States-led
Stevens
Stone
Strasbourg
Structural
Survi@@
Swedes
Than@@
Theod@@
Through
Tian@@
Tibetans
Tow@@
Tower
Toyota
Trumponomics
Typhoon
U.S.
UNAIDS
USA
Upper
Vacc@@
Vel@@
Vice-@@
War-era
Westphalian
Wiesel
Yez@@
Zidane
abdication
absent@@
absurdity
absurdly
accessibility
acclaim
accommodated
achments
acidification
acolytes
acquiesced
acres
actu@@
administrator
afterthought
ager
aggreg@@
alcoholi@@
algorithmic
allocates
alpha
amazingly
ambi@@
anatom@@
ancestry
anecdotal
anti-Assad
anti-Israel
anti-inflation
appraisal
appreci@@
arcane
archae@@
ard@@
ariness
arism
asset-backed
assid@@
assign@@
aster
astray
astron@@
atavi@@
athe@@
ationist
atorial
attendant
attendees
attentive
attorneys
attribution
augu@@
aura
authenticity
avenue
avi
b-@@
barren
baseless
bet@@
betraying
beware
bicycle
biograph@@
biosphere
blank
blinded
blue-@@
boardroom
boasting
bomb@@
bond-@@
bons
borderless
bounce
bourgeois
brakes
budge@@
budget-@@
bunch
bursts
business-as-usual
calamitous
calendar
calmed
candid
capitulation
capricious
caregivers
carte
cascading
cashless
casino
caucus
causation
caveat
caveats
cen@@
centi@@
centimeters
chase
cheered
choking
cil@@
circ@@
citation
clandestine
clarified
clashed
clearance
clientelism
co-authors
coaching
coalesce
coastline
cold-@@
commander-in-chief
compatibility
competitions
compla@@
compression
conflict-affected
conserving
constellation
consulate
consum@@
contain@@
contempor@@
control@@
convict
convoluted
corp@@
corrupting
counterparties
cove@@
creator
crosses
crusade
deaf@@
death@@
deceased
deciph@@
decouple
demagogue
demic
demilitari@@
demilitarized
demos
dening
denominator
dented
depiction
deple@@
deregulate
devalued
deviations
differenti@@
digit
diluted
discipl@@
discrediting
discrete
disingenuous
disma@@
disobe@@
disrespect
dissimilar
dissipate
divorced
doctoral
dor@@
downright
duce
déjà
edifice
eds
efficiencies
efficiency-@@
election-@@
embassies
emits
emper@@
ence-@@
enhancement
enraged
enshr@@
ensnared
ente
enthusiasts
entirety
eping
establishments
eurobonds
ev
eves
exer@@
exposures
extractive
facilit@@
factored
fait
falsehoods
fame
family-owned
family-planning
fanned
fantastic
fascination
feckless
females
ferocious
fi
firef@@
first-time
flagship
flesh
fluctuating
forcement
forgetting
formalized
fragment
fret
frontrunner
frustrate
fs
fungal
fuss
gambl@@
gement
gence
ger-@@
germline
gha@@
gins
glamorous
glaringly
gnant
grazing
guar@@
gulf
gun-@@
hairs
hands-on
hard-pressed
harm@@
harnessed
hash
haunted
have-nots
heartening
heterogeneous
high-return
high-school
hijac@@
hijra
him@@
hindrance
hockey
holi@@
hometown
homicide
hottest
household-@@
husbands
hypertension
hysi@@
hysical
idden
idealized
identifiable
ignite
illion
illiquidity
implements
inaccessible
inas
inaugurated
inclinations
inclu@@
incomprehensible
incrementally
inequitable
inequity
infer
inflamed
informing
infusions
inqui@@
insect
installation
insularity
intake
interlocutor
intermedi@@
intermittent
inters
intra-European
intra@@
iron@@
jar@@
jarring
jettis@@
jol@@
k-based
kleptocr@@
kn@@
knoc@@
lain
lamentable
lateral
latter-day
laz@@
leapfrog
length@@
lesc@@
less-developed
lieu
lieu@@
life-long
life-support
lifesp@@
limin@@
ling@@
liquefied
lit@@
loads
local-currency
low-interest
low-level
lukewarm
luxurious
mac@@
make@@
malls
mandating
marches
mass@@
meningitis
mentors
metaboli@@
metabolic
microscop@@
mid-1970
milestones
millionaires
mindsets
misgivings
mming
moder@@
mortar
mover
mped
mud@@
multi-speed
multilater@@
myop@@
n-out
natal
nec@@
neu@@
nings
non-partisan
nut
obliges
offs
olutions
omissions
onwards
opioid
ordinarily
orian
oto
ound-@@
ous-@@
outlawed
outlining
outnumber
outperformed
outward-looking
overreaction
painstakingly
pam@@
paradoxes
parasite
paren@@
parlance
party-@@
patriots
peacem@@
peddling
perpetrated
perple@@
pet
pets
philosoph@@
pious
pits
plebiscite
plumbing
plutocr@@
poe@@
poem
pogro@@
politan@@
politely
pollute
portra@@
powering
powerlessness
practic@@
precipitation
pregnancies
prelude
prerogative
presiding
pretensions
princ@@
prion
pris@@
pro-independence
promis@@
prostate
protestors
psychiatrists
public-
pulls
puppet
purcha@@
qua@@
qualification
rainforests
randomly
rang
ranged
rearing
recklessness
redrawing
regrettably
rejoice
relieving
reme@@
remembers
reminders
renminbi-@@
rentier
reorientation
repetitive
replay
reprocessing
repudiated
requ@@
researching
reserve-currency
retailing
rethought
reverberate
rig
rint
rocks
rocky
roost
rotavirus
rung
safest
saving-@@
scarred
school-@@
scor@@
scoring
scriptions
scrutin@@
second-best
secretariat
seduc@@
seductive
sensi@@
sharpest
shrine
shunned
ske@@
skew
sl@@
slew
slow-motion
smiles
snat@@
sne@@
socialized
sociopolitical
soundness
sovereign-bond
span
spurt
stateless
stern
stock-@@
stren@@
stru@@
stup@@
succinctly
super-cycle
superficially
superseded
surfaced
symmetry
sympathizers
symposium
tariat
tated
tenant
terri@@
than-expected
theat@@
thicket
thr@@
ticism
tifully
tis@@
tist
tists
tize
top-level
totals
tout
touting
toxicity
traceable
transl@@
triangle
trillion-dollar
triumphant
trumped-up
turbo@@
tus
ually
ucker
ulnerable
ument@@
unassailable
unattractive
unbanked
unci@@
uncover
unction
underfunded
underwent
uninterrupted
unitary
unmanageable
unmanned
unrestricted
unspeakable
untouched
unwritten
ushering
utilitarian
v.
vaccinators
validated
valuing
verdicts
vians
viewpoints
vism
vocabulary
vocation
volunteer
warlords
water-stressed
weathered
wee@@
weir@@
well-paying
where@@
whit@@
wick
will@@
write-off
y-based
yana
yc@@
ye
ym@@
yu@@
ć
专
倚
偷
兽@@
剔
劲@@
匈
匠
厄
叮@@
咫@@
啤@@
啮@@
喂
喻@@
嘱
墉
孽
徕
怯
恃@@
惹
戚@@
戳@@
抬
拦
搏@@
撰
斜@@
斤@@
晶
杨
桀@@
梯@@
毅@@
溉@@
漂
漓@@
烩
焉
狠
猿@@
盾@@
瞩
硝@@
祖
祭
竹
箱@@
绍@@
绎
缆
羽
肋
胸
舵
蚊
裤
诧@@
跛@@
蹩@@
轰
邃
陀
陀@@
骚
-country
1,0@@
1,300
12-country
2-4
2-year-old
2007-2009
2009-2010
2017-@@
25th
7-year-old
Admiral
Analy@@
Andean
Approach
BCB
Bed@@
Beethoven
Beslan
Blo@@
Bolshevi@@
Break@@
Buchanan
Bulgarian
CFP@@
Cabinet
Cannes
Cape
Cardoso
Champ@@
Chevron
Col.
Congress@@
Construction
Costs
Crash
Crimean
Cust@@
DPP
Dak@@
Davidson
EU-US
Embassy
Emer@@
English-language
European-style
Evil
Factor
Failure
Fayyad
Few
Fidesz
Frenchman
Fs
G-Zero
GB
GMOs
Gaul@@
Gerald
Ghebreyesus
Goes
Guo
HFO
HSBC
Haider
Harle@@
Have
High-@@
Hispanic
Horizon
Hus@@
India-@@
Iranian-@@
Islamophobia
Jean-Marie
John@@
Kab@@
Kasparov
Kili@@
Kippur
Kru@@
LO
Law@@
Lis@@
Liv@@
Locke
Long-@@
MM@@
Maced@@
Mahdi
Mande@@
Mar-a-Lago
Mazen
McNamara
Meiji
Melt@@
Mexic@@
Mist@@
Mladić
Nas@@
Nine@@
ORT
Obam@@
Offic@@
PT@@
Parti@@
Peru@@
Pes@@
Philadelphia
Plat@@
Powers
Reef
Republi@@
Rockefeller
Roh
Sakharov
Scienti@@
Self-@@
Shakespeare
Shan@@
Shenyang
Sheremet
Shias
Sikorski
Sino-Russian
Slav@@
Soli@@
Stra@@
Success
Sul@@
Swat
Taxation
Tem@@
Tob@@
Trans-@@
Transitional
Trial
Trot@@
Tz@@
Ul@@
Uzbe@@
Victory
Vir@@
Wen@@
Wildlife
Yom
Yunnan
Zap@@
aar
abh@@
accentu@@
accentuated
aciously
acle
acquires
acrimonious
admirers
advertisement
advisable
affluence
afternoon
agglomeration
aggressor
agonizing
akers
al-Hanashi
albe@@
ale-@@
alid
aligns
all-too-@@
allevi@@
alous
alphabet
anem@@
ange@@
anians
anti-China
anti-terrorism
antine
antioxidant
ape
aping
arbitrarily
argu@@
arid
assesses
assistant
asting
at-risk
atheists
athers
atings
att
attacker
attuned
ature
backwardness
balance-of-@@
ballooned
bands
barracks
bat
bean
beans
beg
behest
believable
bellicose
bia
bilater@@
bilateralism
biography
biologist
blackouts
blinkered
blogger
blueprints
blun@@
blurring
bombard@@
border@@
bott@@
brate
braz@@
bread@@
breakers
breakneck
breathed
bribed
brigades
buff@@
bullied
business-cycle
byp@@
camera
campuses
capacity-building
carcin@@
cardi@@
cartoon
carve
cataclysmic
categorical
cautioned
celebrates
central-government
centri@@
certainties
cess@@
chairmanship
chastened
clans
clever@@
clogged
cloth
co-exist
coff@@
collections
coloni@@
comedy
comman@@
commodity-exporting
communic@@
companion
compens@@
compiled
computational
computer@@
conc@@
condone
conferred
congratulated
congre@@
connectedness
constituting
consultancy
contemp@@
continual
contractions
conv@@
convulsions
cook
cooperatively
counterintuitive
county
coven@@
cracy
craw@@
creatively
credence
crew
crystalli@@
cue
cumul@@
curtail@@
cyber-attacks
czar
dat@@
daw@@
debris
debt-equity
debt-restructuring
debun@@
decadent
dedicate
defenseless
degrade
delighted
demagoguery
demobili@@
democrati@@
demons
deniers
denti@@
depic@@
deport
depreci@@
designation
desk
destro@@
destruc@@
dev
dgy
diagnosing
diametrically
dichotomy
dili@@
disagrees
disconcerting
discreet
disentang@@
dispelled
dispen@@
disquie@@
disturbance
disunity
dogmatic
domestic-@@
doping
dows
drum@@
duty-free
dystopian
e-mail
ectors
ecture
edged
edges
eer
ela
elic@@
eller
embar@@
embe@@
emphatically
enamored
encirclement
encompass
endogenous
energized
enmeshed
entang@@
entertain
ephemeral
epochal
erial
erous
escor@@
esp@@
euthanasia
ew@@
ex-KGB
exaggerate
exal@@
exhor@@
expatriates
explanatory
extingu@@
fall@@
fallacies
fares
farewell
fashi@@
fiel@@
firmness
fissures
fixed-income
flurry
fond
foren@@
fraternity
fructose
game-@@
garments
garner
gate@@
gency-@@
gender-based
genesis
geni@@
gical
gies
glimp@@
gradu@@
gradualism
graduating
grandstanding
graves
green-@@
green@@
grind
groundswell
grow@@
h-@@
hadn
hampers
handicap
handover
handsomely
harvested
herding
high-paying
hitch
homelands
hone
horses
hou
hovers
hul
ification
ikanen
iland
imitating
immunized
implacable
impractical
imprecise
impulsive
inating
incar@@
incarnation
incentivi@@
incorporates
industri@@
industry-@@
iner@@
inexplic@@
infl@@
inflaming
informational
ingo@@
inhibited
inhibiting
inocul@@
inordin@@
insist@@
instantane@@
instill
interfe@@
internationalize
interplay
intervals
intuitively
investment-income
inviol@@
invites
irrationally
irre@@
irregular
istr@@
itarianism
itting
jam@@
jar
justices
kal@@
kest
kid@@
kill@@
kilow@@
knocking
knowledge-intensive
kov@@
languish
lashing
latitude
law-abiding
lax@@
lazy
leagues
less-than-@@
liers
lifetimes
lik@@
like@@
likelier
limit@@
lin-@@
listen@@
little-@@
loan-to-value
long-running
loophole
lude
lungs
machinations
magical
magni@@
makeup
malady
maneuvering
manifestly
marathon
marketable
marred
mates
maxim
medium-sized
meltdowns
mendacious
mercenaries
merged
metaphor@@
meticulous
militari@@
militaristic
mirage
mish
mism
mistice
mit@@
modesty
monarch
monarchs
morbidity
mosquito-@@
nationhood
negate
negative-@@
neglects
neutrali@@
neutralized
nihili@@
non-US
non-discrimination
non-member
nonexistent
normali@@
obst@@
oddly
odo@@
off-grid
offend
offending
oli
olls
ologist
on-the-job
onized
opportune
ored
ough@@
oundtable
outlandish
outpouring
overcrowded
overfishing
overs
overshadow
pander
particulate
pastor@@
paternalistic
pathologies
payable
pedago@@
pelago
penetrate
perpetually
perpetuated
persuasively
pervades
peti@@
placebo
plagues
plains
platitudes
po
polio-@@
politic@@
politik
popularized
popularly
pos
post-referendum
pou@@
pow@@
praising
pre-existing
precari@@
precipitating
preeminence
preferably
present@@
prising
proclam@@
procrast@@
profess@@
prophet
prospered
public-investment
punishable
pupils
pursu@@
pushback
quadrupled
rane
ratchet
rate-@@
re-emergence
re-establishing
reality-@@
rear
reass@@
rebellious
recou@@
reds
reflate
reform@@
reigning
reignite
reinstated
reinterpretation
reintroduce
reinvention
rejoin
rella
repairs
repaying
repealed
rescinded
reunified
revitalizing
rhy@@
ripped
robotic
rubber
rupees
sac@@
sam@@
sanitary
scars
schem@@
scorned
scrutinize
seamless
seaside
securi@@
seduced
sement
semiconductors
seniors
sers
settles
severed
shake@@
shameful
shepher@@
shielding
ship@@
shortened
shou@@
shove
shrou@@
silicon
silo@@
simulation
sionately
sionists
sisters
sives
sivity
six-year
small-
smoke@@
soap
softer
sonance
sorting
sought-after
sounder
southeast
spat
spect@@
splendid
spli@@
spouse
springs
squander
stabilizer
state-dominated
steadfa@@
steep@@
steeply
stellar
sterile
sticky
stigmati@@
stigmatized
stint
stipulated
stle
ston
streaming
stretches
stymie
subvert
succ@@
suic@@
suite
sume
supermarkets
superse@@
surest
surroundings
swayed
t-
tailor
tance
tarian
tariff@@
teamed
technic@@
tempor@@
tenacity
tent@@
teries
terminated
theocracy
theology
thermal
thood
three-fifths
throats
thuggish
thum@@
tibility
tings
tizes
to-GDP
toff
tom
torch
tory
towering
tra
tracted
trade-weighted
traffic@@
trem@@
tro
trol@@
trumped
trumpeted
trust@@
tude
turf
uling
ultimatum
ultra-nationalist
unciation
uncomfortably
unre@@
unrecognized
unwavering
unworkable
vaguely
venal
venerable
verage
vessel
vig@@
villa@@
vindic@@
visitor
vismo
volcan@@
vote-@@
vowing
wastage
waste@@
wears
welcomes
well-developed
wide@@
wields
withstood
workweek
worms
writ
yearly
zero-interest-rate
än@@
▪
儒
兄
剪
匀
叉@@
垂
寂@@
屑
幼
憎
扁@@
撤
擂
映@@
杨@@
棚@@
榨
灰
烛
焉@@
狙@@
狩@@
猫@@
猴@@
瑰
盆
瞎@@
禽
窝@@
笋
粗
粪@@
糙
绅@@
缸
腔
萃
蛛@@
褒@@
踢@@
逸@@
铝@@
靶@@
骜@@
魂@@
魄
魄@@
-through
1,400
17,000
18,000
1980-@@
300-@@
350,000
3rd
75,000
AV@@
Abdulaz@@
Aceh
Alger@@
Annapolis
Anton@@
BSE
Baath@@
Baghd@@
Basin
Bay@@
Biodiversity
Blatter
Bour@@
Bucharest
Bun@@
CIO
Californians
Caracas
Christi@@
Chur@@
Colom@@
Comes
Comp@@
Confeder@@
Cyber@@
DSM@@
Dragon
Duch
E-@@
Edinburgh
Eli@@
Es
Face
Fahrenheit
Fair@@
False
Fasci@@
Fernando
Fif@@
Flo@@
Football
Free-Trade
Free@@
Fried@@
Frontières
GDP-@@
Generation
Gh@@
Greek-@@
Grow@@
Générale
HFCs
HIV-infected
Habs@@
Hafez
Hampshire
Head
Houston
Identity
Imam
Immigration
Indic@@
Indira
Integr@@
JFK
JGBs
Jr.
Judic@@
Juppé
Jürgen
Koso@@
LA
Latinos
Liver@@
Lop@@
Luddites
Lukashenka
Lyn@@
Machiavelli@@
Madonna
Mahar@@
Mazowiecki
Met@@
Midwest
Mob@@
Mogadishu
N-11
Nemtsov
Never
Numbers
Okonjo-Iweala
Oper@@
Osaka
Ottom@@
Pan
Pep@@
Prize-winning
Profess@@
Property
Provi@@
Qutb
Recent
Reforms
Republican-@@
Ricans
Ris@@
SR
Schum@@
Sendai
Siberian
Sino-Indian
Six@@
Som@@
Soviet-style
Spec@@
Stalinism
Syndrome
Ségolène
Teheran
Territories
Throughout
Tragedy
Tropical
Vicente
Vil@@
Wahhabism
[...]
